<unk>	0
<s>	0
</s>	0
▁И	-3.52315
▁В	-3.68008
▁ЧТО	-3.92136
Е	-3.93259
▁НЕ	-4.10598
▁ЭТО	-4.23733
▁	-4.28577
▁Я	-4.31586
▁НА	-4.33564
Й	-4.43734
▁С	-4.60207
▁МЫ	-4.68722
И	-4.74806
А	-4.75977
▁КАК	-4.97349
Х	-4.99317
М	-5.05471
▁У	-5.08939
▁ВЫ	-5.20031
▁А	-5.22197
▁НО	-5.22524
У	-5.22825
▁ПО	-5.26525
▁ТО	-5.28157
▁КОТОРЫ	-5.42293
▁ЕСТЬ	-5.50781
▁К	-5.50799
▁ОЧЕНЬ	-5.53588
▁ОНИ	-5.54065
▁ТАК	-5.56255
▁ВОТ	-5.5759
Ы	-5.57799
ДЛЯ	-5.61844
▁ИЗ	-5.62184
▁ЗА	-5.64007
▁ОН	-5.65157
▁О	-5.65546
Я	-5.65752
▁ВС	-5.68583
▁КОГДА	-5.75452
▁ЕСЛИ	-5.76864
СЯ	-5.78586
▁ИЛИ	-5.81627
ГО	-5.85776
БЫ	-5.86429
Ю	-5.87183
▁ОТ	-5.88128
▁ЖЕ	-5.89367
▁МЕНЯ	-5.8979
▁ПОТОМУ	-5.90371
▁НАС	-5.90939
ТЬ	-5.91488
АЯ	-5.98623
▁БЫЛО	-6.02365
▁МНЕ	-6.02618
О	-6.11157
▁ОНА	-6.11439
УЮ	-6.13444
ОМ	-6.13669
▁УЖЕ	-6.13892
▁БЫ	-6.15226
▁ВСЕ	-6.16162
▁ЭТИ	-6.18723
▁СЕЙЧАС	-6.20359
▁СВО	-6.20827
ОВ	-6.22928
▁ПРОСТО	-6.23408
▁ЕЩ	-6.24615
ОЙ	-6.25261
▁ТОМ	-6.25508
▁МОЖЕТ	-6.27406
▁БЫТЬ	-6.2903
▁ЕГО	-6.29755
▁ТЫ	-6.32419
▁ТОЛЬКО	-6.32775
▁НАМ	-6.35027
▁ТОГО	-6.35307
▁ДО	-6.36844
МИ	-6.38796
ТО	-6.39396
▁ВАС	-6.43455
▁ЛЕТ	-6.44844
▁ЭТОГО	-6.4529
▁ЛЮДИ	-6.46018
▁ТАМ	-6.47018
▁МОЖНО	-6.48807
▁ИХ	-6.49008
▁ЭТОТ	-6.49141
▁НУЖНО	-6.49893
▁ВАМ	-6.50422
▁ПРО	-6.51402
▁СЕБЯ	-6.51403
Т	-6.51875
▁ДАЖЕ	-6.54355
▁НЕТ	-6.59083
▁БОЛЬШЕ	-6.59603
▁БУДЕТ	-6.59781
▁ЖИЗНИ	-6.6083
▁ЧЕЛОВЕК	-6.63892
▁ЭТОМ	-6.64789
▁ЛЮДЕЙ	-6.65024
▁ВРЕМЯ	-6.65353
ЕЙ	-6.65574
▁НУ	-6.6636
▁РАЗ	-6.67166
▁БЫЛ	-6.709
▁СО	-6.71378
▁КОТОРО	-6.72381
▁ДА	-6.76267
▁ПРИ	-6.76775
▁ЧТОТО	-6.77899
▁ТОЖЕ	-6.78062
▁МНОГО	-6.78266
▁БЫЛА	-6.83155
▁ВООБЩЕ	-6.83621
▁ЧЕМ	-6.84261
▁САМОМ	-6.85339
▁ТЕМ	-6.8625
▁ГДЕ	-6.86991
▁ДЕЛАТЬ	-6.87383
ОГО	-6.87929
▁ДЕЛЕ	-6.88218
▁Е	-6.88988
▁МОМЕНТ	-6.89421
▁ПОЧЕМУ	-6.90371
▁НАПРИМЕР	-6.9054
ЛИ	-6.91707
▁НАШЕ	-6.94196
ЭТОМУ	-6.9424
▁ЖИЗНЬ	-6.97249
▁СЕБЕ	-6.97315
▁НИХ	-6.97424
▁СВОИ	-6.98189
АМИ	-6.98458
▁КТО	-6.98539
▁БЫЛИ	-6.98685
▁ЗДЕСЬ	-6.98861
МЕННО	-6.98947
▁СДЕЛАТЬ	-6.99098
▁КОТОРАЯ	-6.99318
▁ЛИ	-6.99779
▁ВСЕГО	-6.99799
▁ПОТОМ	-7.00816
▁ЭТОЙ	-7.01536
▁БОЛЕЕ	-7.0255
▁КАКИЕ	-7.02853
▁ТАКОЙ	-7.03838
▁ОБ	-7.04577
▁СЕГОДНЯ	-7.06722
▁КОНЕЧНО	-7.07742
▁ЭТА	-7.08069
▁НАДО	-7.10027
▁ДЕНЬ	-7.1015
▁ЭТ	-7.10248
ЕМ	-7.11538
▁ТАКОЕ	-7.12314
▁ЗНАЕТЕ	-7.13286
▁КАЖДЫЙ	-7.13749
▁ТОГДА	-7.13961
▁ВО	-7.14326
СЬ	-7.16918
▁НИ	-7.18036
▁ЧЕЛОВЕКА	-7.18164
▁ВСЕГДА	-7.18459
▁ХОЧУ	-7.1846
▁ОДИН	-7.1846
Ь	-7.1918
▁МИР	-7.19868
▁ЭТИМ	-7.20441
▁ТАКИЕ	-7.24694
▁МОЖЕМ	-7.26634
▁НИЧЕГО	-7.27518
ЕТ	-7.27779
▁ТЕ	-7.28817
▁ЧЕРЕЗ	-7.29311
▁ПОД	-7.29408
▁ОДНА	-7.30525
▁ПРОИСХОДИТ	-7.30753
Л	-7.30867
▁ХОРОШО	-7.31789
ЮТ	-7.35993
▁ВАЖНО	-7.3624
▁ПОСЛЕ	-7.39839
▁ДЕЙСТВИТЕЛЬНО	-7.40174
▁ВСЕХ	-7.4117
ТЬСЯ	-7.43637
▁КАКОЙТО	-7.44353
ЛИСЬ	-7.45832
▁ТОТ	-7.46246
▁САМОЕ	-7.46443
▁СКАЗАТЬ	-7.47505
▁МО	-7.477
▁ГОДА	-7.48005
ЫХ	-7.48023
▁1	-7.50198
▁СПАСИБО	-7.50389
▁ОНО	-7.50629
▁НАВЕРНОЕ	-7.50696
▁БЕЗ	-7.51315
▁ТАКИМ	-7.51405
▁МОГУТ	-7.52485
0	-7.54727
▁ВАМИ	-7.55331
▁ЕМУ	-7.55479
▁БУДУТ	-7.55871
ЛАСЬ	-7.56274
▁ЛУЧШЕ	-7.5676
ЫЙ	-7.56829
В	-7.57042
▁НЕГО	-7.57164
▁ДВА	-7.57336
▁МИРЕ	-7.58986
▁ОДНО	-7.59213
▁МОЙ	-7.5929
▁ДОЛЖНЫ	-7.59943
▁НАЗАД	-7.60574
▁НАШИ	-7.60886
▁СТАЛ	-7.61127
ИХ	-7.61535
▁СОВЕРШЕННО	-7.62245
▁НЕСКОЛЬКО	-7.63023
▁ЗНАЧИТ	-7.63058
▁ДЕТЕЙ	-7.63083
ЕТСЯ	-7.63809
▁КОЛИЧЕСТВО	-7.64427
▁ИМ	-7.64858
▁ДАЛЬШЕ	-7.66969
ЛА	-7.6844
МУ	-7.68723
▁КАЖЕТСЯ	-7.6876
▁ТЕХ	-7.69281
▁ЧАСТО	-7.70115
▁МОГУ	-7.70589
▁ТЕПЕРЬ	-7.70996
▁ТАКАЯ	-7.71824
▁ДОСТАТОЧНО	-7.71925
ЮТСЯ	-7.72333
▁САМЫ	-7.7237
▁ЗНАЮ	-7.7253
▁ДЕЛО	-7.72577
▁КОТОРЫХ	-7.73001
▁КТОТО	-7.73199
▁ВРЕМЕНИ	-7.73311
▁НИКОГДА	-7.73311
▁ДАВАЙТЕ	-7.73328
▁ДЕТИ	-7.73805
▁ГОДУ	-7.73841
КА	-7.74123
▁КАКТО	-7.74564
▁ГОД	-7.7483
КИ	-7.77297
▁ВОЗМОЖНО	-7.78489
▁СВОЙ	-7.78505
▁НАШ	-7.79602
КУ	-7.79695
▁ВЕЩИ	-7.80606
▁ЧЕГО	-7.80957
▁ВЕДЬ	-7.81103
▁ЖИТЬ	-7.81169
▁ОБРАЗОМ	-7.81708
ЫЕ	-7.82164
▁МОЖЕТЕ	-7.82605
Н	-7.83058
▁ДОЛЖЕН	-7.8315
▁ГОВОРИТЬ	-7.83228
Р	-7.83752
ЛИБО	-7.83934
▁ВМЕСТЕ	-7.84185
▁ТАКИХ	-7.85313
▁БУДУ	-7.8594
▁ВОПРОС	-7.86208
▁МНОГИЕ	-7.86831
▁ДРУГ	-7.86955
▁САМИ	-7.87619
▁ДЕНЬГИ	-7.87918
▁ТУТ	-7.88534
▁ОДНОЙ	-7.90023
▁ИСТОРИЯ	-7.90101
▁ДРУГОЙ	-7.90312
▁ПЕРЕД	-7.90632
▁РАБОТАТЬ	-7.9097
АХ	-7.91062
НАЯ	-7.91773
▁10	-7.91818
НЫЙ	-7.9191
▁ДУМАЮ	-7.92257
▁КОТОРУЮ	-7.9294
▁ТРИ	-7.93292
▁ТОЧНО	-7.93391
ТЕ	-7.93447
▁ЯВЛЯЕТСЯ	-7.93486
▁БУДЕМ	-7.93545
▁ТЕБЯ	-7.94056
▁СВОЕГО	-7.94179
НОЙ	-7.94785
▁МОЕЙ	-7.94884
▁ВСЕМ	-7.95508
▁СТАТЬ	-7.95776
▁НАШИХ	-7.96303
▁ДАЛЕЕ	-7.96394
▁КАКОЙ	-7.96747
ОК	-7.97444
К	-7.97505
▁ТАКЖЕ	-7.98209
▁ПЕРВЫЙ	-7.98808
▁НИКТО	-7.99396
▁САМ	-7.99688
▁РАБОТАЕТ	-7.99858
▁ЗНАЕМ	-7.99996
▁СОВСЕМ	-8.00014
▁ИНОГДА	-8.00606
▁ПОКА	-8.01484
НО	-8.02351
▁КОТОРОМ	-8.02644
▁ХОТЯ	-8.02949
▁П	-8.03686
▁ОБЩЕМ	-8.03687
▁ПРИМЕР	-8.04875
▁АБСОЛЮТНО	-8.05062
ЕН	-8.05396
ЕШЬ	-8.06115
▁СЛУЧАЕ	-8.06251
▁ЗАЧЕМ	-8.06327
▁МЕЖДУ	-8.06955
▁ПРИМЕРНО	-8.07
▁СТОРОНЫ	-8.07643
▁РАЗНЫХ	-8.07721
▁НАЧИНАЕТ	-8.07999
▁МОИ	-8.08016
▁МИРА	-8.08025
▁МЕСТО	-8.08113
▁ЧМ	-8.08225
▁КАКАЯ	-8.08715
▁СКОЛЬКО	-8.09994
▁РАБОТЫ	-8.10307
▁НОВЫ	-8.10793
ТСЯ	-8.10796
▁ПЕРЕ	-8.10805
ЙТЕ	-8.10891
▁СОБОЙ	-8.10972
▁ПОСТОЯННО	-8.11032
▁РАЗНЫЕ	-8.11097
▁СИЛЬНО	-8.11104
▁НАЙТИ	-8.12117
▁ДРУГИЕ	-8.12368
С	-8.12493
КО	-8.1304
▁ИНТЕРЕСНО	-8.13072
▁ДРУГИХ	-8.1312
▁ЭТОМУ	-8.13226
▁САМЫЙ	-8.13446
▁ЛЮДЯМ	-8.1374
НЫЕ	-8.14169
▁СОБСТВЕННО	-8.14499
▁ПОНЯТЬ	-8.145
▁ВОЗМОЖНОСТЬ	-8.14578
▁ДОМА	-8.14723
▁НИМИ	-8.15052
▁ОПЯТЬ	-8.15153
▁ВИДИМ	-8.15194
▁ГОВОРИТ	-8.15215
▁НИМ	-8.15234
▁ПРОБЛЕМА	-8.15452
▁МАЛО	-8.16049
ЛОСЬ	-8.16336
ЕМСЯ	-8.16595
Д	-8.17006
▁СРАЗУ	-8.17312
СТИ	-8.17325
▁3	-8.17829
▁БЛАГОДАР	-8.17995
▁НАША	-8.1814
▁НАД	-8.18309
▁КО	-8.18569
▁ПРАКТИЧЕСКИ	-8.18814
▁ДЕЛАЕТ	-8.19502
▁ТЕБЕ	-8.19518
▁ПОР	-8.20097
▁СТАНОВИТСЯ	-8.20268
▁НОВЫЕ	-8.20918
▁РОССИИ	-8.21016
▁ПОЛУЧАЕТСЯ	-8.2106
▁ДЕЛАЕМ	-8.21069
▁ГОВОРЯТ	-8.21161
ЗА	-8.21361
НА	-8.21401
▁ПРОБЛЕМЫ	-8.2194
▁ПРИНЦИПЕ	-8.22223
▁100	-8.22305
НИБУДЬ	-8.22685
МОЯ	-8.22689
▁КАКИМ	-8.22889
▁ТУДА	-8.23314
НОГО	-8.2408
▁ВОКРУГ	-8.24081
▁РАБОТУ	-8.24107
▁ПЫТА	-8.24456
▁ЧАСТЬ	-8.2464
▁РЕБНКА	-8.24862
▁ИСТОРИИ	-8.24863
▁НАЧАЛИ	-8.25076
▁20	-8.25322
▁ХОТЕЛ	-8.25451
▁ВДРУГ	-8.2565
ГОРАЗД	-8.25985
▁ДЕЛАЮТ	-8.26142
ОЕ	-8.26179
▁ИНФОРМАЦИИ	-8.26443
▁ВНИМАНИЕ	-8.2647
▁БОЛЬШОЙ	-8.26604
▁ВСЮ	-8.26981
▁КИНО	-8.27088
▁ГДЕТО	-8.27124
▁РЕБНОК	-8.27243
НЫХ	-8.27288
▁МЕНЕЕ	-8.2731
▁СТОИТ	-8.27978
▁МЕНЬШЕ	-8.28061
▁ЗНАЕТ	-8.29371
▁СЛОЖНО	-8.29424
▁ПЯТЬ	-8.29698
▁РАБОТА	-8.29907
СТЬ	-8.31116
▁КУДА	-8.3121
▁ЛЮДЬМИ	-8.31348
▁ГЛАВНОЕ	-8.31533
▁ПРОЕКТ	-8.31615
▁ОБЫЧНО	-8.32695
▁СДЕЛАЛИ	-8.329
▁СУЩЕСТВУЕТ	-8.33036
▁ВТОРОЙ	-8.33039
▁НЕВОЗМОЖНО	-8.33042
▁БЫСТРО	-8.33113
▁БУД	-8.33523
▁ГОВОРЯ	-8.3374
▁РАВНО	-8.33822
▁РЕЗУЛЬТАТ	-8.33848
▁СТАЛИ	-8.34636
▁НЕЛЬЗЯ	-8.34747
▁НАШЕМ	-8.34892
▁СТАЛО	-8.35235
▁НЕКОТОРЫ	-8.35247
▁СВОИМ	-8.35577
▁СОЖАЛЕНИЮ	-8.35623
▁РАНЬШЕ	-8.35647
▁ВЕСЬ	-8.35798
ЛИШЬ	-8.36072
НУЮ	-8.36326
▁МНОЙ	-8.36519
П	-8.36547
▁ЛЮБОЙ	-8.36682
СКОЛЬКО	-8.37002
▁СВОИМИ	-8.37203
▁ПОНЯЛА	-8.37275
▁ДОЛЖН	-8.3759
▁ТА	-8.37692
▁ВИДИТЕ	-8.37867
▁ПОНЯТНО	-8.3831
▁ВАШЕ	-8.3879
▁ЗАНИМАТЬСЯ	-8.3919
▁ТЕХНОЛОГИИ	-8.39194
▁ПОСМОТРЕТЬ	-8.39195
▁СТРАНЕ	-8.39388
▁ДВЕ	-8.3943
▁ПЛОХО	-8.39809
▁СЛОВА	-8.3982
▁НАЗЫВАЕТСЯ	-8.40107
▁ЕЙ	-8.40226
▁КАЗАЛОСЬ	-8.41057
▁РАССКАЗАТЬ	-8.41943
▁2	-8.42536
▁ОДНУ	-8.42859
▁ПРАВДА	-8.42872
▁ВСТАКИ	-8.42986
▁ПРАВИЛЬНО	-8.43801
▁ХОТИМ	-8.43803
▁ХОТЯТ	-8.44028
▁ГОРОД	-8.44075
▁ОПЫТ	-8.44495
ЛСЯ	-8.44739
▁РОДИТЕЛИ	-8.44763
▁КАКОЕТО	-8.44825
▁СКОРЕЕ	-8.45721
▁ТАКОГО	-8.45869
▁РУКИ	-8.45946
▁ПОНЯЛ	-8.45968
▁КОНЦЕ	-8.46006
▁ЗНАЮТ	-8.46031
▁ТЕЛО	-8.46095
ИТЬ	-8.46743
▁ПОКОЛЕНИЕ	-8.46771
АМ	-8.47016
▁САМЫМ	-8.47056
▁СЛОВО	-8.47136
ИТЕ	-8.473
▁НАЧАЛ	-8.4745
▁РЕШЕНИЯ	-8.47678
▁ВЕЩЬ	-8.48658
▁ДУМАТЬ	-8.48683
▁БУДУЩЕЕ	-8.48823
▁КАЖДОГО	-8.48916
▁СКАЗАЛ	-8.48925
▁КСТАТИ	-8.49658
▁ПОЖАЛУЙСТА	-8.49659
ЯТ	-8.50195
▁ДОЛГО	-8.50393
▁НЕМНОЖКО	-8.50668
▁НУЖНЫ	-8.50669
▁ФОТОГРАФИИ	-8.50669
▁ГОВОРЮ	-8.50673
▁РЯДОМ	-8.5072
▁МАМА	-8.5086
▁НАЧИНАЮТ	-8.51196
▁ЯЗЫК	-8.51275
ЛО	-8.51322
ШЬ	-8.51483
▁000	-8.51692
▁ПОЛУЧИТЬ	-8.5187
▁СДЕЛАЛ	-8.51903
▁ДОВОЛЬНО	-8.52723
▁ПОСЛЕДНИ	-8.52917
▁ДАТ	-8.52928
▁ДОМ	-8.52966
▁НИКАК	-8.53102
▁ВАШИ	-8.53159
▁КОТОРЫМ	-8.53183
ПОЧТИ	-8.53383
▁ПРЯМО	-8.53442
▁НЕОБХОДИМО	-8.53503
▁ВНУТРИ	-8.53761
▁ИСПОЛЬЗОВАТЬ	-8.53792
▁НАХОДИТСЯ	-8.53838
▁НМ	-8.53891
▁ИМЕЕТ	-8.53959
▁5	-8.54091
▁ИДЕЯ	-8.54631
▁НРАВИТСЯ	-8.54814
▁ПРОЦЕСС	-8.54933
СТОЛЬКО	-8.55583
ЫМ	-8.55887
▁РЕШЕНИЕ	-8.55955
▁СЧИТАЮ	-8.56021
▁ИДТ	-8.5619
▁ПОНИМАЮ	-8.56609
▁СПОСОБ	-8.56779
▁ДВУХ	-8.56957
▁ЕСТЕСТВЕННО	-8.56984
▁КАКИХТО	-8.56995
▁ГОРОДА	-8.57159
▁ВОПРОСЫ	-8.57724
▁ИСТОРИЮ	-8.5804
▁ДРУЗЬЯ	-8.58322
▁ЖИВУТ	-8.59171
▁МОГЛИ	-8.59231
▁ШКОЛЕ	-8.59428
▁ОТВЕТ	-8.60263
▁ЗНАТЬ	-8.60267
▁ОБРАЗ	-8.60384
▁ЧЕЛОВЕКУ	-8.60731
НЫ	-8.6107
▁САМАЯ	-8.61078
▁30	-8.61228
▁ПЕРВ	-8.61335
▁ИНФОРМАЦИЮ	-8.61374
▁БОЛЬШОЕ	-8.61386
▁СОЗДАТЬ	-8.61443
▁ТОЧКИ	-8.6145
▁ХОТЕЛА	-8.61469
▁ПОМОЩЬЮ	-8.61523
▁ТАКУЮ	-8.61527
СМОТРЯ	-8.61692
▁ТУ	-8.61761
ШЕГО	-8.61781
▁БОЛЬШИНСТВО	-8.61857
▁ПОНИМАЕТЕ	-8.62044
▁САМА	-8.62144
РА	-8.62273
▁ГОВОРИМ	-8.6251
▁50	-8.62593
▁БОЛЬШАЯ	-8.6276
▁ХОЧЕТСЯ	-8.62784
▁СТРАНЫ	-8.62785
▁ПРИХОДИТ	-8.63077
▁ГЛАЗА	-8.63097
▁ИНТЕРНЕТ	-8.63378
З	-8.63647
▁ЗРЕНИЯ	-8.6366
▁ВОЗМОЖНОСТИ	-8.63724
КРОМЕ	-8.63828
▁КОГО	-8.6423
▁ВАШ	-8.64242
▁КОФЕ	-8.64586
▁ДЕНЕГ	-8.64822
▁СНАЧАЛА	-8.64822
▁БЫВАЕТ	-8.64842
Б	-8.64998
▁ГОТОВЫ	-8.65734
▁ОГРОМНОЕ	-8.66024
▁ДАВНО	-8.66131
▁МЕСТА	-8.66172
▁РЕАЛЬНО	-8.66723
▁ТЫСЯЧ	-8.6682
▁НАЧАЛА	-8.67028
▁КОМПАНИИ	-8.67198
▁ДРУГА	-8.67543
▁МОГ	-8.67599
▁МЕЧТА	-8.67838
▁ВЕКА	-8.68533
▁НАЧАТЬ	-8.68682
▁ПОЛУЧИЛОСЬ	-8.69626
▁СИТУАЦИИ	-8.70848
▁РАССКАЖУ	-8.70877
▁ТАКОМ	-8.70913
▁СИСТЕМЫ	-8.7099
▁УЧНЫЕ	-8.71025
▁ЖИВМ	-8.71036
▁ДОЛЖНО	-8.71173
▁ЧЕЛОВЕКОМ	-8.71348
▁ОТНОШЕНИЯ	-8.71565
▁ЧУВСТВО	-8.71673
ЯСЬ	-8.71674
▁СИСТЕМА	-8.71766
▁ЖЕНЩИНА	-8.72
▁БУКВАЛЬНО	-8.72098
▁ОЧЕРЕДЬ	-8.72101
5	-8.72124
▁ОДНИМ	-8.73153
▁ПОМОЧЬ	-8.73364
▁ПОНИМАТЬ	-8.73404
▁СЛЕДУЮЩИЙ	-8.73598
▁НАШУ	-8.7361
КАЗЫВАЕТСЯ	-8.73752
▁ПРАВА	-8.74069
▁МЕСТЕ	-8.74099
▁ХОЧЕТ	-8.74338
▁ИНФОРМАЦИЯ	-8.74646
▁ХОТИТЕ	-8.74646
▁ОКОЛО	-8.74646
▁ЖИВТ	-8.75281
▁КАЖДО	-8.75552
▁ОСОБЕННО	-8.7559
▁МЕНЯЕТСЯ	-8.75608
▁СМОТРИТЕ	-8.75833
▁ЭСТОНИИ	-8.75945
▁ВЫГЛЯДИТ	-8.7595
▁ЧЕТЫРЕ	-8.76268
▁СУТИ	-8.77266
▁ПУТЬ	-8.7727
▁ШАГ	-8.77339
▁ГОЛОВЕ	-8.77422
Г	-8.77521
▁ПРИШЛ	-8.77699
▁ДЕЛА	-8.77932
▁ОБЩЕСТВО	-8.7794
▁КЕМ	-8.78248
▁СТАР	-8.7836
▁ЧАЩЕ	-8.78594
▁УВИДЕТЬ	-8.78615
▁БУДЕТЕ	-8.78625
▁НАМИ	-8.79033
ИЙ	-8.79034
▁ВЗГЛЯД	-8.79259
▁ВИДЕТЬ	-8.7944
▁ПОКАЗАТЬ	-8.79705
▁ПРЕДСТАВЬТЕ	-8.79947
▁ВЗЯТЬ	-8.7995
▁ОСНОВНО	-8.80605
АТЬ	-8.8066
▁БУДУЩЕМ	-8.80817
ЮСЬ	-8.80877
▁ИНСТРУМЕНТ	-8.80943
▁СКАЖЕМ	-8.81315
▁МЫСЛЬ	-8.81315
▁ЛЕГКО	-8.81316
▁ОБЯЗАТЕЛЬНО	-8.81325
▁УГОДНО	-8.81326
▁ДАННЫЕ	-8.81395
▁ИЗМЕНИТЬ	-8.81415
▁ШКОЛУ	-8.81444
ЖДЫ	-8.81476
▁ЯЗЫКЕ	-8.82595
▁ИНАЧЕ	-8.82704
▁ПОЛНОСТЬЮ	-8.82706
▁БИЗНЕС	-8.82711
▁НУЖНА	-8.82743
▁СМОТРЕТЬ	-8.8277
▁ДНЯ	-8.82782
▁КАКУЮТО	-8.82792
▁СМЫСЛЕ	-8.82921
▁МОИХ	-8.82958
▁ОБРАЗОВАНИЕ	-8.83531
ВЕСТИ	-8.83966
▁ЛИЧНО	-8.84131
▁СВОЕМУ	-8.84131
▁ОДНОМ	-8.84145
▁ТЕЧЕНИЕ	-8.84206
▁РУКУ	-8.84323
▁МИНУТ	-8.84586
▁ЗНАНИЯ	-8.84691
▁ИСКУССТВО	-8.84794
▁200	-8.84887
ЕГО	-8.84996
▁ЦЕНТР	-8.85034
ЕР	-8.85347
▁ХО	-8.8552
▁САМОЙ	-8.85577
▁ПЕРВОЕ	-8.85581
▁НЕДАВНО	-8.85701
▁НОРМАЛЬНО	-8.85816
▁МОЗГ	-8.86406
▁МЫСЛИ	-8.86484
▁ЦЕЛЬ	-8.86736
▁ВЕЩЕЙ	-8.8699
▁НЕДЕЛЮ	-8.86991
▁ПРОИЗОШЛО	-8.87116
▁ХОТЕЛИ	-8.87146
НОЕ	-8.87632
▁СОЦИАЛЬНЫ	-8.87649
▁СОСТОЯНИЕ	-8.87779
▁ГОВОРИЛИ	-8.8786
▁МОИМ	-8.88406
▁ЧИТАТЬ	-8.88461
▁ВИЖУ	-8.88465
▁ОБЩЕСТВА	-8.88532
▁ПРЕКРАСНО	-8.88538
▁УРОВНЕ	-8.88559
▁ЧЕСТНО	-8.88661
▁МЕСЯЦ	-8.89077
НЫМ	-8.891
▁СТРАШНО	-8.89235
▁ВПЕРВЫЕ	-8.89953
▁МНОГИХ	-8.90049
▁ПАПА	-8.90066
▁РАБОТЕ	-8.90136
▁ХОТЕЛОСЬ	-8.90262
▁ДОМОЙ	-8.90268
▁ПОЛ	-8.9029
ИТ	-8.90414
▁САМОГО	-8.90492
▁ДУМАЕТЕ	-8.90817
▁ГОВОРИЛ	-8.91283
▁40	-8.91341
▁СРЕДИ	-8.91469
▁ПОСМОТРИТЕ	-8.91472
▁МАЛЕНЬКИЙ	-8.9148
▁ПОМОГАЕТ	-8.91494
▁ОКАЗАЛОСЬ	-8.91495
▁ПОСМОТРИМ	-8.91502
▁ДНЕЙ	-8.91606
▁РАБОТАЮТ	-8.91645
▁ПЕРВАЯ	-8.91818
▁ЖЕНЩИНЫ	-8.91847
▁ЖЕЛАНИЕ	-8.91874
ЫМИ	-8.91954
▁ВИДЕ	-8.92048
▁УВИДЕЛ	-8.92274
▁ДЕЛ	-8.92345
▁ЧЕМУ	-8.92526
▁ГОДЫ	-8.92693
▁ДЕТЯМ	-8.93007
▁ПОЗВОЛЯЕТ	-8.93015
▁МОСКВЕ	-8.93019
▁БОЛЬШИЕ	-8.93227
МОЖЕШЬ	-8.93459
▁СТРАХ	-8.93601
▁НАДЕЮ	-8.93985
ОН	-8.94088
ЧИ	-8.94097
▁ИНТЕРНЕТЕ	-8.94106
▁ВЫБОР	-8.94107
▁ВОПЕРВЫХ	-8.94569
▁ОБЩАТЬСЯ	-8.9457
▁РОЛЬ	-8.94571
▁ЯВЛЯЮТСЯ	-8.94573
▁ПРЕДСТАВИТЬ	-8.94575
▁РЕЧЬ	-8.94606
▁УЧИТЬСЯ	-8.94786
▁ВСЯКИ	-8.95058
▁ЖЕНЩИН	-8.95107
▁ЧИСЛЕ	-8.95191
▁СТРАН	-8.95434
ЕВ	-8.95452
▁ЧАСА	-8.95631
▁ДАТЬ	-8.95749
▁НАКОНЕЦ	-8.95986
▁РОДИТЕЛЕЙ	-8.96157
▁ДОБРЫ	-8.96158
▁ПОМНЮ	-8.9617
▁МЕЧТЫ	-8.96185
▁СЕТИ	-8.9622
▁ЗДОРОВО	-8.96292
▁ПРИШЛО	-8.9663
▁СВЕТ	-8.96894
ТЫ	-8.97102
▁КОГДАТО	-8.97129
▁ЛЮБОВЬ	-8.97474
▁201	-8.97561
▁ОТКУДА	-8.97616
▁СНОВА	-8.97772
▁РАССКАЗЫВАТЬ	-8.97804
▁МИЛЛИОНОВ	-8.97846
▁ЧАСОВ	-8.97939
▁ИМЕЮТ	-8.98015
▁СЕГОДНЯШНИ	-8.98102
▁СЕМЬИ	-8.98318
▁ДРУГИМ	-8.98586
НИ	-8.99345
▁УЗНАТЬ	-8.99412
▁15	-8.99427
▁КУПИТЬ	-8.99428
▁ГОРОДЕ	-8.9952
▁ДРУГОМ	-8.99527
ОМУ	-8.99536
▁ИТОГЕ	-8.99635
▁ПРАВИЛО	-8.99667
▁РАЗА	-8.99864
ИМ	-9.00042
▁ТОЙ	-9.00046
▁СКАЗАЛА	-9.0054
▁ПРИШЛА	-9.00549
▁РЕБЯТА	-9.00549
▁ПУТИ	-9.0067
ОВАТЬ	-9.009
▁ДЕЛАЮ	-9.01003
▁ДРУЗЕЙ	-9.01075
▁ИСКАТЬ	-9.01077
▁БУДУЩЕГО	-9.01124
▁ЗАДАЧА	-9.0114
▁ДАЛЕКО	-9.01217
▁НАУЧИТЬСЯ	-9.01359
ОСТЬ	-9.01894
ТАК	-9.02037
▁СЧАСТЬЕ	-9.02079
▁СМЫСЛ	-9.02329
▁СМОЖЕТ	-9.0277
▁РАЗВИТИЯ	-9.02772
▁СЮДА	-9.02773
▁ЗНАЕШЬ	-9.02787
▁СЧТ	-9.02808
▁СТОРОНУ	-9.02873
▁ИМЕТЬ	-9.02886
РИ	-9.02927
▁ПАРУ	-9.02941
▁САМО	-9.02942
▁ВИД	-9.03324
▁КОМУ	-9.03358
▁КНИГИ	-9.03411
▁НАШИМ	-9.03483
ЕНИИ	-9.03496
▁ПРОБЛЕМ	-9.03588
▁ВИДЕЛИ	-9.03656
▁ОТНОШЕНИЕ	-9.03963
▁ВАША	-9.0407
▁СЕМЬЯ	-9.04153
▁РЕАЛЬНОСТЬ	-9.04239
▁ЗАЛЕ	-9.04402
▁25	-9.04506
ЯКА	-9.0459
▁СОБСТВЕННЫ	-9.04599
▁ДОПУСТИМ	-9.04605
▁ОБЩЕСТВЕ	-9.04626
▁ТЕЛА	-9.04784
▁ФАКТ	-9.04785
▁СОЗДАВА	-9.04893
ИТЬСЯ	-9.04992
▁ВИРУС	-9.05295
▁РЕШИЛИ	-9.05311
▁ДЕЛАЛИ	-9.05314
▁МОДЕЛЬ	-9.05559
▁4	-9.05955
▁ИНТЕРЕСНЫ	-9.06063
▁СТАНЕТ	-9.06082
▁ПОСКОЛЬ	-9.06102
▁ЛЮБЛЮ	-9.06263
▁ГРУППЫ	-9.06274
▁ПРИЧ	-9.06292
▁ДРУГОЕ	-9.06352
▁ДРУГОГО	-9.06629
▁ПИСАТЬ	-9.06891
▁РЕШИЛА	-9.07019
ИРОВАТЬ	-9.07211
▁МЕСЯЦА	-9.07273
▁НЕМНОГО	-9.07368
▁ТЕМА	-9.07509
▁НАВЕРН	-9.07784
▁МАЛЕНЬКИЕ	-9.08057
▁ЦЕЛИ	-9.08457
▁КАКИМИ	-9.08603
ЕТЕСЬ	-9.09659
▁ДЕТСТВЕ	-9.09853
▁ТЯЖЕЛО	-9.09854
▁ПОЯВЛЯЕТСЯ	-9.0987
ТА	-9.09875
▁ВТОРАЯ	-9.09878
▁ПОЛУЧАТЬ	-9.09889
▁ШКОЛЫ	-9.09946
НЕ	-9.1023
▁УЖ	-9.1025
▁ЗАДАЧ	-9.10709
▁СИТУАЦИЯ	-9.11014
▁ПРИШЛИ	-9.1107
▁СКАЖУ	-9.1155
▁ПРОДУКТ	-9.11615
▁МИРУ	-9.11645
▁ЗАДУМЫВА	-9.11788
▁РЕШИЛ	-9.11843
НИЕ	-9.12253
▁ПОДНИМ	-9.1228
▁ЧЕГОТО	-9.12331
▁ВЫХОД	-9.12401
ДА	-9.12423
▁МЕНЯТЬ	-9.12551
▁МОЮ	-9.12601
▁Ф	-9.12739
▁НОВОЕ	-9.12791
▁УВЕРЕН	-9.1291
▁ПОКОЛЕНИЯ	-9.13435
▁МУЗЫКА	-9.13508
▁ПОПРОБОВАТЬ	-9.13592
▁ОБРАЗОВАНИЯ	-9.13595
▁ХОРОШИЙ	-9.1361
МЕСТО	-9.14127
СКОЙ	-9.14148
▁ЗЕМЛЯ	-9.1417
ОТВЕТСТВЕННО	-9.1423
▁ЗНАЛИ	-9.14241
▁ПРАВ	-9.14315
▁ДРУГИМИ	-9.14631
▁СЛОВ	-9.14847
▁ФИЗИЧЕСКИ	-9.14966
▁СЕМЬЕ	-9.15193
▁ПОДХОД	-9.1545
▁СОСТОЯНИИ	-9.15514
ШКОМ	-9.15516
▁КЛЕТКИ	-9.1553
▁ПЕРВЫЕ	-9.15599
▁ИСКУССТВА	-9.1571
▁ВИДЕЛ	-9.15745
▁ДЕВОЧКА	-9.15916
▁СТОЛЬКО	-9.16205
▁ДЕТСКИ	-9.16378
▁ЗАДАЧИ	-9.16468
▁СТРАННО	-9.1666
АЕТ	-9.17112
▁ДЕЙСТВИЯ	-9.17339
ТЕСЬ	-9.1735
▁СИТУАЦИЮ	-9.17475
▁НАХОДЯТСЯ	-9.1753
▁МИЛЛИАРДОВ	-9.17535
▁МОЛОДЫ	-9.17604
▁ЭКСПЕРИМЕНТ	-9.1768
▁ДВИЖЕНИЕ	-9.17789
▁ВИДЕО	-9.17894
▁МОГЛА	-9.17976
▁ПРАВО	-9.18034
▁РАЗЛИЧНЫ	-9.1811
▁ПЛАНЕТЕ	-9.18122
▁НАУКА	-9.18127
▁СЛУЧАЙ	-9.18167
ЙТИ	-9.18529
▁ТЕЛЕФОН	-9.18602
▁УДОВОЛЬСТВИЕ	-9.18883
▁ПОДУМАЛ	-9.18983
▁ПОЧЕМУТО	-9.19127
▁ИНТЕРЕСНОЕ	-9.19137
▁Б	-9.19203
▁ПОДЕЛИТЬСЯ	-9.19483
▁ЗАНИМАЮСЬ	-9.19485
▁НАЧАЛЕ	-9.19494
▁ЧУТЬ	-9.19526
▁ИГРЫ	-9.19571
▁ФИЛЬМ	-9.19592
▁ИГРАТЬ	-9.19679
▁КУДАТО	-9.19885
▁12	-9.19901
▁ТРУДНО	-9.20019
▁ЗАЧА	-9.20093
ИСЬ	-9.20294
ШЕЙ	-9.20392
▁ВСМ	-9.20433
▁ОРГАНИЗМ	-9.21146
▁КОМПАНИЯ	-9.21177
▁АКТИВНО	-9.21477
▁ЗОВУТ	-9.21521
▁ВРОДЕ	-9.21526
▁ПОНЯЛИ	-9.21538
▁СОСТОИТ	-9.21556
▁РЕАЛЬНОСТИ	-9.21566
▁ПОНИМАЕМ	-9.21569
▁ЭМОЦИИ	-9.21581
Ч	-9.21607
▁ТЕХНОЛОГИЙ	-9.21654
▁КАРТУ	-9.21708
▁РАС	-9.21844
ИН	-9.21906
▁СФЕРЕ	-9.21967
▁ПОЙТИ	-9.22074
▁НИКАКИ	-9.22166
▁ГОСУДАРСТВА	-9.2254
▁СМОТРЕЛ	-9.22724
▁МОЗГА	-9.22788
▁ДРУГАЯ	-9.23127
КЕ	-9.23153
▁ИДТИ	-9.23214
▁ПРЕКРАСНЫ	-9.23324
▁ДНК	-9.23599
▁СЧАСТЬЯ	-9.23599
▁ХОЧЕШЬ	-9.23599
▁БЫСТРЕЕ	-9.23602
▁ПОЯВИЛАСЬ	-9.23604
▁ДОЛЛАРОВ	-9.23614
▁ПРИХОДЯТ	-9.23642
▁ТИП	-9.23651
▁ИССЛЕДОВАНИЯ	-9.2368
▁ЦЕЛОМ	-9.23723
ЬТЕ	-9.23748
СТУЮ	-9.24277
▁ХОДИТЬ	-9.24281
▁ПОМНИТЕ	-9.24292
НЫМИ	-9.24415
▁КОМПЬЮТЕР	-9.24433
▁БОЛЬШИМ	-9.24493
▁ТВО	-9.24546
▁Д	-9.2455
▁СПЕЦИАЛЬНО	-9.24994
▁ВСЯ	-9.2505
▁КОНТАКТ	-9.25343
▁ПОМОЩЬ	-9.25444
▁ДРУГУ	-9.25453
▁НЕВЕРОЯТНО	-9.25727
▁ПОМОЩИ	-9.25727
▁ЛЮБЯТ	-9.25729
▁ПОДРУГОМУ	-9.25729
▁ЗАВИСИТ	-9.25731
▁ЦЕННОСТИ	-9.25732
▁ПОГОВОРИТЬ	-9.25774
▁СИДИТ	-9.25823
▁ГРУППА	-9.25829
▁ПЕРВОГО	-9.25948
▁УТРО	-9.25995
▁ХУДОЖНИК	-9.26025
▁ПРОБЛЕМУ	-9.26405
Ж	-9.26406
НОМ	-9.26581
МИМО	-9.26582
▁ТИПА	-9.27055
НИЯ	-9.27229
▁ИЗМЕНЕНИЯ	-9.27275
ЯЯ	-9.27298
ИТСЯ	-9.27396
▁НАУЧНО	-9.27719
▁ПРОФЕССИИ	-9.27901
▁РЫНОК	-9.27901
▁РОЖДЕНИЯ	-9.27901
▁ЗЕМЛИ	-9.27901
▁ИДЕИ	-9.27903
▁ОЗНАЧАЕТ	-9.27906
▁ОТВЕТСТВЕННОСТЬ	-9.27906
▁НУЖЕН	-9.27938
РЕЖДЕ	-9.27965
▁ОЩУЩЕНИЕ	-9.28007
▁ДЕЯТЕЛЬНОСТИ	-9.28041
▁СИГНАЛ	-9.28074
▁ВАЖНОЕ	-9.28089
▁ПРИНЯТЬ	-9.28353
ЯТСЯ	-9.28447
НОСТЬ	-9.28713
▁ЛЮБИМ	-9.28921
▁ОПРЕДЕЛННЫ	-9.2924
▁СОЗДАТ	-9.29678
ЯМИ	-9.29725
СКИЙ	-9.29762
▁МАЛЬЧИК	-9.29855
▁КАЖД	-9.29946
▁ПРОШЛО	-9.29956
АЛ	-9.30024
▁ТРХ	-9.30082
▁НАОБОРОТ	-9.30123
▁СМОЖЕМ	-9.30123
▁УРОВЕНЬ	-9.30123
▁СОТНИ	-9.30124
▁РОВНО	-9.30124
▁СВЯЗИ	-9.30126
▁НАЧИНАЕ	-9.30134
ЛЕ	-9.30144
▁ПОМОГАЮТ	-9.30151
▁ГОЛОВУ	-9.30199
▁ВИДНО	-9.30215
▁НОВОГО	-9.30257
▁ПОВОДУ	-9.30338
▁ХОРОШАЯ	-9.30354
▁НАЧИНА	-9.30363
▁СТАРА	-9.30564
▁ПОЛУЧИЛ	-9.30593
▁БО	-9.30598
ИЯ	-9.30616
▁ОГРОМН	-9.30707
▁КЛАСС	-9.30928
▁ТРУД	-9.31061
▁ВСЕМУ	-9.31112
ЙТЕСЬ	-9.31264
▁СЕРЬЗНО	-9.31825
ЛЯ	-9.32051
▁СЛИ	-9.32113
▁ОСТАТСЯ	-9.32403
▁КОНЦОВ	-9.32484
ВУЮ	-9.32548
▁КОНКРЕТНО	-9.32631
▁УНИВЕРСИТЕТ	-9.3268
▁КОГОТО	-9.32741
▁РАДИ	-9.32951
▁ИЗВЕСТНЫ	-9.32983
▁КАРТА	-9.33197
ВА	-9.33314
▁ПЛАН	-9.33342
▁ИЗВЕСТНО	-9.33377
▁КОНЦА	-9.33448
▁ОБРАТНО	-9.33635
▁ЗАВТРА	-9.33915
ТИ	-9.34046
▁ПЕРЕСТАЛ	-9.34072
▁КНИГ	-9.34123
▁СЕКРЕТ	-9.34469
▁КАКОЕ	-9.34677
▁МУЗЫКИ	-9.34722
▁ПОЛУЧАЕМ	-9.34722
▁СЛУЧИЛОСЬ	-9.34722
▁РОДИЛСЯ	-9.34726
▁НЕДЕЛИ	-9.34727
▁НАПИСАНО	-9.34772
▁МУЗЕЙ	-9.34893
▁СВЯЗАНО	-9.34906
▁СЧИТАЮТ	-9.35002
▁КРАЙНЕ	-9.35046
▁ОДНИ	-9.35142
КОЙ	-9.35299
▁НОГИ	-9.35331
▁ОБЩЕМТО	-9.35352
▁ПРИХОДИТСЯ	-9.35388
▁СТРАНАХ	-9.35401
▁КАКОГО	-9.35495
▁КАЖДОМ	-9.35554
▁НЕПОНЯТНО	-9.3557
▁ПЕРИОД	-9.3619
▁ЕДИНСТВЕННО	-9.36254
▁РАЗВИТИЕ	-9.36439
▁ТЕРМЕНВОКС	-9.36552
▁СДЕЛАЛА	-9.37007
▁ЧАСТИ	-9.37043
▁ОДНОВРЕМЕННО	-9.37103
▁ПРОИСХОДЯТ	-9.37103
▁ЗДРАВСТВУЙТЕ	-9.37104
▁ВТОРОЕ	-9.37106
▁ЖИВОТНЫХ	-9.37111
▁ОБЩЕНИЯ	-9.37115
▁ОБЛАСТИ	-9.37135
▁ВЕСТИ	-9.37227
▁ЧЕЛОВЕЧЕСТВО	-9.37237
▁КУЛЬТУРЫ	-9.37242
▁ПЛАНЕТЫ	-9.37257
▁ПРОТЯЖ	-9.37264
▁ОТЕЦ	-9.37325
▁ШКОЛА	-9.37412
▁ДУМАЕМ	-9.37421
▁ПРОСТОЙ	-9.37464
▁ПРОТИВ	-9.37632
▁КРУТО	-9.37738
СТ	-9.37766
▁ЯЗЫКА	-9.3786
▁НАВЕРНО	-9.37868
▁НАЗЫВАЕМ	-9.38038
▁РЕЗУЛЬТАТЫ	-9.38178
▁ХЛЕБ	-9.38422
▁ШАНС	-9.38652
ТЕМ	-9.38652
ЕШЬСЯ	-9.38802
▁ГОСУДАРСТВО	-9.38882
▁ТЫСЯЧИ	-9.38891
▁ПРЕД	-9.39435
▁МОЛОДО	-9.39505
▁БОГ	-9.39534
▁МУЗЫКУ	-9.39542
▁ИДЕЮ	-9.39542
▁ВОЗНИКАЕТ	-9.39545
▁ОБЪЯСНИТЬ	-9.39549
▁ЧУВСТВОВАТЬ	-9.39552
▁ДЕВУШКА	-9.39559
▁ТЕКСТ	-9.39571
▁ИДУТ	-9.3958
▁ЗВОН	-9.3963
▁КАКОМТО	-9.39645
▁ДАННЫХ	-9.39655
▁ЗАНИМАЕТСЯ	-9.39684
▁ВПЕРД	-9.39705
ЕНИЕ	-9.39753
▁ГЕНОМ	-9.39758
1	-9.39773
▁КАЖДАЯ	-9.39832
▁НАУКИ	-9.39942
▁МЕТОД	-9.39977
▁УСПЕХА	-9.4032
▁ГОТОВ	-9.40782
▁НОМЕР	-9.41068
ГА	-9.4115
▁УЗНАЛ	-9.41153
▁ВИДЯТ	-9.41238
▁ДЕЛАЛ	-9.41246
▁РАССКАЗАЛ	-9.41671
▁ЦЕННОСТЬ	-9.41752
ЯХ	-9.41969
▁ЗАКЛЮЧА	-9.42004
▁ДЕТЬМИ	-9.42042
▁ФОТОГРАФИЯ	-9.4205
▁ЛЮБВИ	-9.42062
▁КАСАЕТСЯ	-9.42062
▁МЕСЯЦЕВ	-9.42066
▁ЛЕГЧЕ	-9.42096
▁СИДЕЛ	-9.42134
▁ПРИВЫКЛИ	-9.42135
▁ТРЕТИЙ	-9.42177
▁СОЗДАН	-9.4225
▁РЕШАТЬ	-9.42301
▁МОРЕ	-9.42352
▁ЦЕЛЬЮ	-9.4254
▁СТО	-9.42651
▁РАБОТАЛА	-9.42711
ТЕЛЬНО	-9.42797
СТАВИТЬ	-9.4281
▁СОЦИАЛЬНЫЕ	-9.42889
▁НОВЫМ	-9.43515
▁ПОРОЙ	-9.43516
▁ВКУС	-9.43995
ТАКИ	-9.4414
▁ТЕМУ	-9.44402
▁СТРАНА	-9.44423
▁ПРОИЗОШЛ	-9.44538
▁ПОЛЬЗОВАТЬСЯ	-9.4461
▁НАСЕЛЕНИЯ	-9.44611
▁ХОРОШИЕ	-9.44621
▁ТАЛЛИН	-9.44663
▁СЕМЬ	-9.44716
▁ПРИЯТНО	-9.4476
ДИТЕ	-9.44769
▁ПРИВОДИТ	-9.44774
▁ПОЯВИЛ	-9.44905
▁НАШЛИ	-9.44917
▁ДЕСЯТКИ	-9.44987
▁Ш	-9.45114
▁АВТОР	-9.45217
▁КНИГУ	-9.45231
▁ДУМАЮТ	-9.45381
▁ЗНАЛ	-9.45495
▁ВАЖНЫЙ	-9.45523
▁ВОЗРАСТ	-9.45691
▁ВОЛИ	-9.45703
▁ПОНИМАЮТ	-9.45857
▁РАЗГОВОР	-9.46005
▁ГЛУБОКО	-9.46015
▁ДЕЛАЕТЕ	-9.46341
▁МЫШЛЕНИЕ	-9.46533
▁ВОЗРАСТЕ	-9.46591
▁ГЕН	-9.46608
▁ПРАВИЛА	-9.46637
▁СЛЕД	-9.46669
▁ЧЕМТО	-9.46923
▁РЕБНКУ	-9.47237
▁ОСТАЛОСЬ	-9.47246
▁ПОМОГАТЬ	-9.47249
▁ПОЯВЛЯЮТСЯ	-9.47254
▁ДЕВОЧКИ	-9.47259
▁ОПЕРАЦИИ	-9.47259
▁БЕЗУСЛОВНО	-9.47267
▁РЫНКЕ	-9.47272
▁УПРАВЛЯТЬ	-9.47284
▁РУССКОМ	-9.4729
▁БАКТЕРИИ	-9.47308
▁САМОСТОЯТЕЛЬНО	-9.47352
▁ХОД	-9.47371
▁МАМЫ	-9.47438
▁ЗВУЧИТ	-9.47483
▁АНГЛИЙСКОМ	-9.47542
▁МУЖЧИНЫ	-9.47562
▁КУЛЬТУРА	-9.47662
▁ПРОХОДИТ	-9.47719
▁ПРОСТ	-9.47969
▁ПОХОЖИ	-9.47988
МНОГО	-9.48051
▁УЛИЦЕ	-9.48148
ННЫЙ	-9.48219
▁КОГДАНИБУДЬ	-9.4836
2	-9.48398
▁ЧУВСТВА	-9.48405
▁ПОДОБНЫ	-9.48486
ДАННЫЙ	-9.48548
ХОЖУ	-9.48649
▁ЦВЕТ	-9.48792
▁ПОСТ	-9.48806
▁ПРОСТРАНСТВО	-9.49236
Ф	-9.49271
▁МАЛЕНЬКО	-9.49292
▁МУЖЧИНА	-9.4933
▁СОЦИАЛЬНО	-9.49395
Ш	-9.49445
▁ВОСПРИЯТИ	-9.49588
▁ПОВЕДЕНИЕ	-9.49612
▁НАУЧИТЬ	-9.49637
ПОЛНЕ	-9.49675
СА	-9.49783
▁ВЫГЛЯДЕТЬ	-9.4994
▁ЧУТЬЧУТЬ	-9.4994
▁ЗАВИСИМОСТИ	-9.49941
▁ОСТАЛЬНЫЕ	-9.49944
▁БОРОТЬСЯ	-9.49947
▁СТРОИТЬ	-9.49956
▁ОКЕЙ	-9.49958
▁РЕШИТЬ	-9.49964
▁ПРЕДЕЛ	-9.49969
▁ОТЛИЧНО	-9.4998
▁ВОДЫ	-9.49986
▁ПРОЩЕ	-9.50043
▁ЗАНИМАЮТСЯ	-9.50077
▁СЛУШАТЬ	-9.50133
▁УСПЕХ	-9.50152
▁УТРА	-9.50159
▁ПРИВЕСТИ	-9.50165
▁СЕКУНДУ	-9.50282
▁СЧАСТЛИВЫ	-9.50287
▁БЕСКОНЕЧНО	-9.5032
▁НАЧАЛО	-9.50426
▁УДОБНО	-9.5049
▁ПОНЯТИЕ	-9.50506
▁ИГРА	-9.50531
▁ПОЛУЧИЛИ	-9.50562
▁ПОШЛ	-9.50599
ЮЩИЙ	-9.50629
▁СМОГЛ	-9.50647
ОСТИ	-9.5069
▁США	-9.50802
ГУ	-9.50842
▁ЗНАЛА	-9.50853
БИТЬ	-9.51053
Ц	-9.51519
КИЙ	-9.51581
▁ВОЗРАСТА	-9.51632
▁РОСТ	-9.51747
ИЧЕСКИ	-9.51807
ПУСТЯ	-9.51848
▁ГОР	-9.51848
▁МАГАЗИН	-9.51877
▁НАШЛ	-9.51926
▁ЖИЛ	-9.51981
▁СЕРДЦЕ	-9.52067
▁ИНТЕРЕС	-9.52245
ОСЬ	-9.52313
▁ДУМАЛ	-9.52351
▁МНЕНИЕ	-9.52366
▁МОМЕНТЫ	-9.52382
▁ПРИЕХАЛ	-9.52386
▁СКАЗАЛИ	-9.52392
▁ОПРЕДЕЛННО	-9.52573
▁КРАСИВО	-9.52612
КОВ	-9.52686
▁ПОСТРОИТЬ	-9.52721
▁УДАЛОСЬ	-9.52726
▁СТАНОВЯ	-9.52728
▁ВНИМАНИЯ	-9.52733
▁НОВАЯ	-9.52733
▁ПОЛУЧИТСЯ	-9.52742
▁ПУТЕШЕСТВИЕ	-9.52751
▁ПОКАЗЫВАЕТ	-9.52788
▁ЧТКО	-9.52796
▁ЛЮБИТЬ	-9.52802
▁ПОРЯДКА	-9.52803
▁ПИСЬМА	-9.52812
▁ПРЕДМЕТ	-9.52828
▁ИНТЕРЕСНАЯ	-9.52899
▁СКОРО	-9.52985
▁КОМУТО	-9.52998
▁МОМЕНТА	-9.53019
▁НОВО	-9.53128
▁ДРУЗЬЯМИ	-9.53638
▁СЛЫШАЛИ	-9.53646
▁ВСПОМНИТ	-9.53682
▁ПЕРЕСТА	-9.53934
▁ТЕХНОЛОГИЯ	-9.54012
00	-9.54157
▁ПРОШЛОМ	-9.54173
ИЛИ	-9.54181
▁ПУС	-9.54205
▁ПОДНЯТЬ	-9.54416
▁ЧИТАЛ	-9.54686
▁БОЛЬШ	-9.54797
▁ИНТЕРНЕТА	-9.54847
НУ	-9.54938
3	-9.5506
▁ОЩУЩЕНИЯ	-9.55392
▁ЗЕМЛЕ	-9.55573
▁ЛЕЖИТ	-9.55575
▁КЛЕТОК	-9.55575
▁ИМЕНИ	-9.55587
▁ВЗРОСЛЫЕ	-9.55588
▁БОЯТЬСЯ	-9.55592
▁КОМПАНИЮ	-9.55599
▁СЕРЬЗНЫ	-9.55631
▁ВЕРИТЬ	-9.55679
▁РАДОСТЬ	-9.55693
▁СМЕРТИ	-9.55728
▁ПРИЙТИ	-9.55746
▁УЧНЫХ	-9.55747
▁ВЕРЮ	-9.55766
▁ЕВРОПЕ	-9.55771
НС	-9.55852
▁ВСЕМИ	-9.55982
▁Г	-9.56094
▁ЕДИНСТВЕННЫЙ	-9.56223
▁НАСТРОЕНИЕ	-9.5625
▁СПОСОБНЫ	-9.5669
▁БОЛЬШОМ	-9.56944
▁ОСНОВЕ	-9.56974
ЖИ	-9.57045
▁НИКО	-9.57187
▁БОЛЬШИНСТВ	-9.5725
АН	-9.57505
▁СПЕЦИАЛЬНЫ	-9.57628
▁КАЧЕСТВО	-9.5783
ЕК	-9.57889
▁НЕМУ	-9.57921
▁ХОРОШ	-9.58011
▁СМОГ	-9.58076
▁ШЕСТЬ	-9.58268
▁НАЗЫВАЮТ	-9.58284
▁ЛЮБОМ	-9.58316
▁МОМ	-9.58375
▁ПОМОЖЕТ	-9.58516
▁СИНДРОМ	-9.58516
▁ПРИРОДЫ	-9.58516
▁НЕКОТОРО	-9.58518
▁ПОЯВИЛИСЬ	-9.5853
▁СПОКОЙНО	-9.58543
▁СУПЕР	-9.58563
▁СВОБОДА	-9.58569
▁ОТВЕТИТЬ	-9.58585
▁СНИМАТЬ	-9.58587
▁ПРОГРАММЫ	-9.58619
▁ДЕЙСТВОВАТЬ	-9.58637
▁ОТЛИЧИ	-9.58662
▁500	-9.58677
▁МНОЖЕСТВО	-9.58689
▁МАЛЕНЬКАЯ	-9.58755
ШЛА	-9.58853
▁УСЛОВИЯХ	-9.58865
▁НАБОР	-9.58889
▁СЧИТАТЬ	-9.58909
▁ИМЯ	-9.59001
▁СИЛУ	-9.59055
▁ЧЕЛОВЕЧЕСКО	-9.59065
▁БРАТЬ	-9.59093
▁ЧТОБ	-9.59173
▁РАЗВЕ	-9.59421
▁ЖИЗНЬЮ	-9.59426
▁ЖИЛИ	-9.59477
▁ВИДУ	-9.59477
▁ОСТАВА	-9.59486
▁СВОБОДНО	-9.59557
▁МУЖ	-9.59717
▁УХОДИТ	-9.59809
▁ОБРАЩАТЬ	-9.60025
▁ПА	-9.60056
▁ПРИЧИН	-9.6008
▁ДРУГУЮ	-9.60165
▁СОВРЕМЕНН	-9.60181
▁НАВЫК	-9.60318
▁БУДЬ	-9.60337
▁ВАРИАНТ	-9.60947
▁ТЕЛЕВИЗОР	-9.6096
▁ДОБРО	-9.60965
▁11	-9.61005
▁ДАЮТ	-9.61107
▁МЕХАНИЗМ	-9.61284
▁ХАРАКТЕР	-9.61478
ТОРЫХ	-9.61543
▁МИНИМУМ	-9.61546
▁СПИСОК	-9.61546
▁ХУЖЕ	-9.61546
▁ВРЕМЕНЕМ	-9.61547
▁ПОДУМАЙТЕ	-9.61555
▁СУЩЕСТВУЮТ	-9.61573
▁СОЗДАНИЯ	-9.61685
▁БОЛЬШИХ	-9.61738
▁ПРОСТРАНСТВЕ	-9.61768
▁ОПЫТА	-9.6177
▁ПРОЙТИ	-9.61783
▁СИЛ	-9.61884
▁ВАЖНАЯ	-9.61896
▁МЕРЕ	-9.62088
▁ТРАНСПОРТ	-9.62189
▁МЕЧТАТЬ	-9.62249
▁СОЗДАЮТ	-9.62305
▁БОЛЬ	-9.62472
▁ПРЕДСТАВЛЯЕТЕ	-9.62549
СКИЕ	-9.62558
ЕНИЯ	-9.62564
▁ЗАНИМА	-9.62678
▁ПРЕДПРИНИМАТЕЛЬ	-9.62698
▁САМИМ	-9.62739
▁УДИВИТЕЛЬНО	-9.62997
▁М	-9.63099
▁СИЛЬНЫ	-9.63301
▁СОВРЕМЕННО	-9.63447
▁ПЕРВЫМ	-9.6381
▁НИКОМ	-9.63811
▁ОБЪЕКТ	-9.63984
ЕЦ	-9.64067
▁ФОНД	-9.6407
▁ЕДУ	-9.64114
▁ПРЕДЛОЖИЛ	-9.64339
▁ЭФФЕКТИВНО	-9.64365
▁СОБРАТЬ	-9.64399
▁ОДЕЖДУ	-9.64671
▁ПОЗЖЕ	-9.64671
▁РЕБНКОМ	-9.64671
▁СДЕЛАЕТ	-9.64671
▁РУБЛЕЙ	-9.64672
▁НАИБОЛ	-9.64672
▁КОНЕЦ	-9.64678
▁ХВАТАЕТ	-9.64678
▁ПОПРОБУЙТЕ	-9.64678
▁ПОЯВИЛОСЬ	-9.64691
▁СВОБОДЫ	-9.64721
▁ПУНКТ	-9.6474
▁СПОСОБНОСТЬ	-9.64746
▁ОГРОМНЫЙ	-9.64754
▁ПРИНИМАТЬ	-9.64766
▁СТАРЕНИЕ	-9.64775
▁НАЧНМ	-9.64807
▁ЛЕВ	-9.64839
▁КАЖДЫМ	-9.64973
▁КОМАНДА	-9.64977
▁КАРТИНУ	-9.65077
▁НАЧНТ	-9.65078
▁ВЫШЕ	-9.65202
▁СМОТРИТ	-9.65233
▁ЛИЦА	-9.65279
▁ТРЕТЬЕ	-9.65314
▁СОЗДАЛИ	-9.65413
РЯД	-9.6547
▁ЧМТО	-9.65488
МА	-9.65575
▁ПОСЛЕДНЕЕ	-9.6571
▁ОТВЕТЫ	-9.65763
▁ВОПРОСОВ	-9.65868
▁УМЕ	-9.65962
▁ОПРЕДЕЛЯЕТ	-9.66063
ЕХАТЬ	-9.66228
УЧИЛИСЬ	-9.66315
▁ЗАВОД	-9.66528
ИЛ	-9.66567
▁ЭФФЕКТ	-9.66702
▁ЗДОРОВЫ	-9.66757
ША	-9.66817
▁ПОЛЕ	-9.66864
▁ПЕРЕВОД	-9.67025
▁ПРОЕКТА	-9.67035
▁ВИРТУАЛЬН	-9.67081
▁НАУЧНЫ	-9.67394
▁ЖЕЛАНИЯ	-9.67525
▁СОБЫТИЯ	-9.67737
▁МАРАФОН	-9.67841
▁ДАВАЙ	-9.67861
▁КАФЕ	-9.67894
▁ПОПАСТЬ	-9.67897
▁ВЕЗДЕ	-9.67897
▁НАСИЛИЯ	-9.679
▁ТОБОЙ	-9.67905
▁ВОЗМОЖНОСТЕЙ	-9.6791
▁ТЕРРИТОРИИ	-9.67914
▁МНОГИМ	-9.67923
▁ПОЗВОЛЯЮ	-9.67924
▁КРАСИВЫЕ	-9.67936
▁НАХОДИМСЯ	-9.67954
▁МАШИНЫ	-9.67985
▁ДЕПРЕССИЯ	-9.67986
▁ТЕЛЕ	-9.68012
▁ВОДА	-9.68057
▁ТКАНИ	-9.68146
▁ОРГАНИЗАЦИИ	-9.68238
▁РЕ	-9.68249
▁ПИШУТ	-9.68315
▁ОСНОВН	-9.68515
РОВ	-9.68579
▁ПОСТАВИТЬ	-9.68591
СКИХ	-9.68615
▁ПРОДУКТЫ	-9.68692
▁СЛОВАМИ	-9.68886
▁ДУМАЛА	-9.68927
▁ПОХОЖЕ	-9.6905
▁ПРИНЦИП	-9.69087
▁ПОНИМАЕТ	-9.69276
▁ГЛАЗ	-9.69353
▁НАПИСАЛ	-9.69473
▁КАКУЮ	-9.69513
МСЯ	-9.69518
▁ДЕТСКО	-9.69849
ОВЫЕ	-9.69853
▁СТОЯЛ	-9.69984
▁ПОНИМАНИЕ	-9.70115
ДАННОМ	-9.70142
▁ДОСТУП	-9.70147
▁СМОГУ	-9.70287
▁ПОСТАВИЛ	-9.70393
▁МУЖЧИН	-9.70412
▁БИЗНЕСА	-9.7043
▁СОЛНЦЕ	-9.70527
▁КУЛЬТУРНЫ	-9.70676
▁ВАЖНЫМ	-9.70752
ЛЬ	-9.70906
▁ВЫБРАТЬ	-9.71009
▁УЧИТЕЛЯ	-9.71085
▁ПРИВЕТ	-9.71164
▁ОТТУДА	-9.7123
▁ПОЗДНО	-9.71231
▁ДЕТСТВА	-9.71231
▁ПРИРОДЕ	-9.71231
▁РАМКА	-9.71233
▁АНГЛИЙСКИЙ	-9.7124
▁РАЗОБРАТЬСЯ	-9.71244
▁ИЗМЕНИЛОСЬ	-9.71245
▁СОСТОЯНИЯ	-9.71259
▁ОТНОСИТЬСЯ	-9.71262
▁ДВИГАТЬСЯ	-9.71266
▁УМЕНИЕ	-9.71267
ЖЕЛИ	-9.71269
▁ПОДУМАТЬ	-9.71283
▁13	-9.71297
▁РАНО	-9.71298
▁ДЕСЯТЬ	-9.71318
▁ВАЖНЫ	-9.7132
▁МАМОЙ	-9.71369
▁БЛИЗКИХ	-9.71385
▁КАРТИНКА	-9.71401
▁ВЕЧЕРОМ	-9.71403
▁УЧАТ	-9.71418
▁ВОСПРИНИМАТЬ	-9.71446
▁СИДЕТЬ	-9.71448
▁ВЕРНУТЬСЯ	-9.71537
▁СИСТЕМУ	-9.71615
▁РУКАХ	-9.71718
ВО	-9.71949
ИТЕСЬ	-9.71954
▁РАЗМЕР	-9.72129
▁МОДЕЛИ	-9.72316
РЕ	-9.7237
ОТ	-9.72376
▁ЗВУК	-9.72451
▁ЧИСТО	-9.72525
▁УМЕЕТ	-9.72624
ВЛ	-9.72649
▁ДУМАЕТ	-9.72716
ЕЛЬ	-9.7273
▁ИСТОРИЧЕСКИ	-9.72739
▁ЛЮБЫ	-9.72747
▁НАРОД	-9.72873
▁ЗАМЕЧАТЕЛЬНО	-9.72884
▁СЛАЙД	-9.72936
▁ЭТАП	-9.72971
▁ЭКСПЕРИМЕНТА	-9.73012
ЕНЫ	-9.73075
▁НЕЗАВИСИМО	-9.73096
▁Р	-9.73342
▁МИМО	-9.73447
СКАЯ	-9.73496
▁ИСПЫТЫВА	-9.73506
▁СЛЫШАЛ	-9.73569
▁КНИГА	-9.73575
▁ВАШИХ	-9.73658
▁МУСОР	-9.73784
▁МИРОМ	-9.74014
▁ЗДОРОВЬЕ	-9.74017
ЧЕ	-9.74087
▁ЛИЦО	-9.74161
▁ОПАСНЫ	-9.74186
ВЕР	-9.74251
▁СЛУЧАЙНО	-9.74321
▁РАЗВИВАТЬ	-9.74442
ЦЫ	-9.74477
▁САЙТ	-9.74513
▁ПРИДТ	-9.74517
▁ЖУРНАЛИСТ	-9.74554
▁АУДИТОРИИ	-9.74679
▁ПОЛГОДА	-9.74679
▁РАСТТ	-9.74679
▁ХОББИ	-9.74679
▁СКАЖИ	-9.7468
▁СРЕДУ	-9.74681
▁НЕЧТО	-9.74687
▁СМОТРЯТ	-9.74723
▁ВЫСТУПЛЕНИЯ	-9.74728
▁ИМЕЕМ	-9.74762
▁СПАТЬ	-9.74766
▁ВЕЛИКИ	-9.74829
▁КОД	-9.74829
▁ИГРАЕТ	-9.74896
▁ВЫЯСНИ	-9.74903
▁УМЕР	-9.74918
▁ВИДИШЬ	-9.7492
▁ДЕВУШКИ	-9.74954
▁РЕАЛИЗОВАТЬ	-9.74958
▁ЧАС	-9.75022
▁НАКОНЕЦТО	-9.75054
▁ДУШИ	-9.7506
▁ЗНАНИЕ	-9.75135
▁ПРИХОДИЛ	-9.75195
▁МЕСТ	-9.75214
▁СЧИТАЛ	-9.75308
▁ПЕРВОЙ	-9.75327
▁ПЕ	-9.75376
▁ГЛАВНЫЙ	-9.75447
▁14	-9.7553
▁ПОЛУЧАЮТ	-9.75696
▁НАВЫКИ	-9.75703
▁ОБРАТИТЬ	-9.75778
▁РАССКАЗЫВАЛ	-9.75823
▁ПРОЦЕССЫ	-9.75954
▁ЧАСТЬЮ	-9.75973
▁САМУЮ	-9.75998
ТУ	-9.76058
▁ВЕКЕ	-9.76121
▁ЛЮБИТ	-9.76155
▁УВЕРЕНА	-9.76302
▁ХОСПИС	-9.76332
▁ФОРМАТ	-9.7639
ВШИСЬ	-9.764
▁БОР	-9.76432
▁ОТДЕЛЬНО	-9.76459
КАЗАЛСЯ	-9.76557
КОМ	-9.76649
▁КЛАССНО	-9.76738
▁ПОЛОВИН	-9.76977
▁ИМЕЮ	-9.7729
▁ДАННО	-9.77495
▁СОЗНАНИЕ	-9.77558
▁ОСОБО	-9.77695
▁МЕЧТАЛ	-9.77753
ННЫЕ	-9.77805
▁ЭСТОНСКИ	-9.77874
▁ФАКТОР	-9.78049
▁ГОДОВ	-9.78118
▁ВЫНУЖДЕН	-9.7825
▁ДОСТИЧЬ	-9.7825
▁ИЗВИНИТЕ	-9.7825
▁ВЧЕРА	-9.78251
▁ОТВЕТСТВЕННОСТИ	-9.78252
▁СТЫДНО	-9.78252
▁СДЕЛАЮ	-9.78254
▁ПРЕДСТАВЛЕНИЕ	-9.78257
▁ПРИДУМАТЬ	-9.78278
▁ПОМНИТЬ	-9.78295
▁ПОНИМАЕШЬ	-9.78297
▁СРЕДНИ	-9.78331
▁ДЕЛИТЬСЯ	-9.78331
▁ВЛАСТИ	-9.78378
▁ВСПОМНИТЬ	-9.7843
▁ОБО	-9.78448
РД	-9.78539
▁МАКСИМАЛЬНО	-9.78545
▁РАЗВИВАТЬСЯ	-9.78592
▁СЛУШАЙ	-9.78601
▁ФИЛЬМОВ	-9.78611
▁ДОРОГУ	-9.78623
▁ВЫХОДИТ	-9.78713
▁ПРОШЛОГО	-9.78749
▁ВЕС	-9.78767
▁ЦЕЛЫЙ	-9.78836
▁ИЗМЕНЕНИЕ	-9.78862
▁РОДА	-9.7887
▁НИКАКОЙ	-9.79
ЩЕ	-9.79085
▁ШТУКА	-9.795
▁ДОХОД	-9.79769
▁УСПЕШНЫ	-9.79834
▁ИНСТИТУТ	-9.7985
ХОДИМ	-9.79875
▁ХОРОШЕЕ	-9.79948
МЛН	-9.80138
▁ГОВОРИЛА	-9.80339
▁ГОЛОС	-9.80375
ЛЕТ	-9.80382
▁ВЫСОКИ	-9.80426
ИЛИСЬ	-9.8044
▁ВИДИТ	-9.8049
▁ЧТОНИБУДЬ	-9.80575
▁ИНТЕРЕСНЫЙ	-9.80773
▁ВАШЕМ	-9.80777
▁Ч	-9.81047
▁УСПЕШНО	-9.81055
▁ОТНОШЕНИ	-9.81112
ЧА	-9.81211
4	-9.81281
▁РОБОТ	-9.813
▁РОЛИ	-9.81343
▁ЦИРК	-9.81496
▁РЕДКО	-9.81574
▁ОКРУЖАЮЩЕ	-9.81608
▁НАЗВАНИЕ	-9.81639
▁РУК	-9.81735
▁ВНЕШНЕ	-9.81817
▁СТОЯТ	-9.81944
ЧНЕЕ	-9.8195
▁ЛАДНО	-9.81954
▁МЯСО	-9.81954
▁ОПРЕДЕЛИТЬ	-9.81954
▁ПОВЕЗЛО	-9.81954
▁ТЕОРИИ	-9.81954
▁ПОНАСТОЯЩЕМУ	-9.81954
▁ДОЧЬ	-9.81954
▁СРЕДЫ	-9.81955
▁ОДЕЖДЫ	-9.81957
▁СЦЕНЕ	-9.81959
▁ОШИБКИ	-9.81973
▁КОМПАНИЙ	-9.81984
▁ПОКУПАТЬ	-9.81992
▁СВОБОДУ	-9.81996
▁КЛЮЧ	-9.82
▁МАЛЕНЬКИХ	-9.82019
▁ИЗУЧАТЬ	-9.82029
▁ПРОГРЕСС	-9.8203
▁СДЕЛАНО	-9.8203
▁ЗНАНИЙ	-9.82031
▁МЕЧТУ	-9.82051
▁СУД	-9.8206
▁МЕМ	-9.82064
▁ГРАНИЦЫ	-9.82088
▁ЭПОХУ	-9.82135
▁ДАЛИ	-9.82136
▁ПРОГРАММУ	-9.8214
Э	-9.82158
▁РУКАМИ	-9.8218
▁ЗАРАБОТАТЬ	-9.82187
▁НЕСКОЛЬКИ	-9.82236
▁ГЕНОВ	-9.82241
▁ЛЮБИМЫ	-9.82253
▁НАЗЫВАЕМЫ	-9.82335
▁ТВОРЧЕСКИ	-9.82343
▁НЕДЕЛЬ	-9.82358
▁МЕТРОВ	-9.82396
▁СИЛЫ	-9.8243
▁РОДИТЕЛЯМИ	-9.82533
▁ПРОДУКТОВ	-9.82559
▁ДЕЙСТВИЕ	-9.82567
▁ХОДЯТ	-9.82584
▁ФИЛЬМЫ	-9.82672
▁КОСМОС	-9.82738
▁РАЗНЫМИ	-9.82744
▁ПРАВИЛЬНЫ	-9.82772
ЛЕВА	-9.82866
УЧИЛАСЬ	-9.82875
▁БАБУШКА	-9.82929
▁ЦЕЛ	-9.82955
▁СОБИРАТЬ	-9.8296
▁ИССЛЕДОВАНИЕ	-9.83234
▁СМАРТФОН	-9.8324
▁ДАВАТЬ	-9.83327
▁ЛИЧНЫ	-9.83352
▁ЧУВСТВУЕТЕ	-9.83459
▁Ж	-9.83613
ПИСАТЬ	-9.83705
▁ПРЕ	-9.83794
▁ДОМЕ	-9.83924
▁СТА	-9.84022
ИДЯТ	-9.84041
▁ЦИФРОВО	-9.8419
▁ПРИМЕРЫ	-9.84233
▁СВЯЗАН	-9.845
ВОЙ	-9.84676
▁РЕБЯТ	-9.84807
▁КРИЗИС	-9.8481
▁РАСТИ	-9.84861
▁ПРОФЕССИЯ	-9.85034
▁СООБЩЕСТВО	-9.851
▁ПУТЕШЕСТВИЯ	-9.8512
▁ОТДЕЛЬНЫ	-9.85351
СТУПАЕТ	-9.85385
▁ПЛЮС	-9.85394
▁РАБОТАЮ	-9.85505
▁ПОМЕНЯТЬ	-9.85523
▁ПРОДОЛЖАТЬ	-9.85567
▁СОВРЕМЕННОМ	-9.85574
▁СПОР	-9.85631
▁УЧИТЬ	-9.85664
▁ЧУВСТВУЮ	-9.85786
▁ПОСТЕПЕННО	-9.858
▁СТЕПЕНИ	-9.858
▁ПОЯВИТСЯ	-9.85803
▁СИЛЬНЕЕ	-9.85811
▁БЫВАЮТ	-9.85813
▁ВРЕМЕНА	-9.85819
▁РЕВОЛЮЦИЯ	-9.85837
▁КАРТИНКИ	-9.8584
▁ЛЮБУЮ	-9.85846
▁КЛАССИЧЕСК	-9.85927
▁ПОКАЗЫВАТЬ	-9.8596
▁ЭМОЦИЙ	-9.85967
▁УМЕЮТ	-9.85979
▁ДЕЛАЕШЬ	-9.85981
▁ПЕРВЫХ	-9.86024
▁НЕБОЛЬШИ	-9.86024
▁ВЛИЯНИЕ	-9.86028
▁НЕПРАВИЛЬНО	-9.86032
▁ЗАМЕЧАТЬ	-9.86059
▁САША	-9.86066
▁ПОМОГ	-9.86148
▁ПРАЗДНИК	-9.86163
▁ДУША	-9.86199
СУ	-9.86251
▁ВИДЕЛА	-9.86294
▁ОБЩИ	-9.86338
▁ОТКРЫТЬ	-9.86362
▁ЗНАКОМЫ	-9.86452
▁НАСТОЯЩИЙ	-9.86467
▁КОНКРЕТНЫ	-9.86491
▁ПОНИМАЛА	-9.86534
▁ВЫВОД	-9.86536
▁УЧИЛСЯ	-9.86665
РО	-9.86672
▁МИРОВ	-9.86683
▁СВЯЗАНА	-9.86746
▁СОЗДАЛ	-9.86799
ОКАЗАТЬСЯ	-9.86828
▁СОВРЕМЕННЫ	-9.86833
▁КАЖДОМУ	-9.8688
▁24	-9.86975
▁СОГЛАСН	-9.87112
▁УЗНАЛИ	-9.87191
ШИ	-9.87219
ИВ	-9.87439
▁ВЫСОКО	-9.877
НЬ	-9.87817
▁КОМПЬЮТЕРНЫ	-9.87907
▁НАЙДТ	-9.87948
▁КРУГ	-9.88047
▁УВИДЕЛИ	-9.88098
▁ВАЖНЫЕ	-9.88163
СТАВЛЯЮТ	-9.88361
▁ХУДОЖНИКА	-9.88505
▁ПРОФЕССИОНАЛЬНЫ	-9.88529
▁ПОЛУЧИ	-9.88735
▁ВОЗЬМ	-9.88791
▁ДИЗАЙН	-9.8904
▁ЗВЗД	-9.89044
▁ПРИНОСИТ	-9.89078
▁БУР	-9.89095
СКОГО	-9.89119
▁КЛАССЕ	-9.89283
▁ПРОЦЕССЕ	-9.89295
▁КОНЦЕРТ	-9.89382
▁ОСНОВ	-9.89432
▁ТКАНЬ	-9.89514
▁ИСТОЧНИК	-9.89541
▁ФИЗИЧЕСК	-9.89576
▁ИСПОЛЬЗУЮТ	-9.89577
▁ЛИЧНОСТЬ	-9.89579
▁ИМЕНА	-9.8958
▁ВЫЗОВ	-9.89616
АЛИ	-9.89717
▁РАССКАЗЫВАЮ	-9.89739
НЕСТИ	-9.8974
РЫ	-9.89747
▁ГОРИЗОНТ	-9.89794
▁ВОСЕМЬ	-9.898
▁ОДЕЖДА	-9.898
▁ТЕОРИЯ	-9.898
▁БЕЗУМНО	-9.898
▁ПАМЯТИ	-9.898
▁СВЯЗЬ	-9.89801
▁МЕШАЕТ	-9.89801
▁СЕТЯХ	-9.89802
▁ВЗАИМОДЕЙСТВИ	-9.89802
▁ПРОИЗОЙДТ	-9.89804
▁ЧАСТНОСТИ	-9.8981
▁МОНЕТ	-9.89816
▁ВЫСТУПЛЕНИЕ	-9.89817
▁ЭНЕРГИИ	-9.89821
▁ТОВАР	-9.89848
▁СТУДЕНТОВ	-9.89848
▁ПРИНЯТО	-9.89907
▁КАЧЕСТВА	-9.89922
▁ДВИЖЕНИЯ	-9.89943
▁ХОРОШИМ	-9.89983
▁ПОТРАТИТЬ	-9.90007
▁ВОЙНА	-9.90008
▁ВЫЗЫВАЕТ	-9.90025
▁ПОНИМАНИЯ	-9.90054
▁ИНЖЕНЕР	-9.90066
▁РЕСУРСЫ	-9.90093
▁ЛЕКЦИИ	-9.90117
▁ЗНАЧЕНИЕ	-9.9013
ЕЛ	-9.90143
▁ЭКОЛОГИЧЕСКИ	-9.90162
▁ХОРОШЕ	-9.90166
▁РУССКИЙ	-9.90237
▁ПАР	-9.90282
▁БЕРТ	-9.90359
▁ПРИХОДИ	-9.90443
▁ПЯТИ	-9.90459
▁ГЛАЗАМИ	-9.90537
▁ПОНИМАЛИ	-9.90605
▁ВОЗДУХ	-9.90658
▁МАШИНА	-9.90674
▁НАЗЫВАТЬ	-9.90729
▁РОССИЙСКИ	-9.90792
НОСТИ	-9.90849
▁ПРИМЕРОВ	-9.91084
▁ПОШЛИ	-9.91134
ИЛАСЬ	-9.91284
▁БОРЬБ	-9.91323
▁САМИХ	-9.91414
▁ХОДИЛ	-9.91481
▁ВСПОМНИЛ	-9.91608
▁МЕЖДУНАРОДН	-9.91724
▁КРАСИВ	-9.91924
▁РАБОТАЛ	-9.92311
▁ПЕРВОМ	-9.92436
▁ОБЯЗАН	-9.92943
▁СИЛА	-9.92978
▁СЫН	-9.93064
▁МИЛЛИОН	-9.93073
▁ВКЛАД	-9.93271
▁ФИЛОСОФ	-9.93297
▁ЧУВСТВОВАЛ	-9.93304
▁ЖИВ	-9.93355
▁МЕДИА	-9.9342
▁СПОРТ	-9.93428
▁ПОПЫТА	-9.93439
▁СОБСТВЕНН	-9.93513
ЛЕТЕТЬ	-9.93533
▁МУЖСКО	-9.93619
▁МОЛОДЖЬ	-9.93668
▁БОЛЕЗНЬ	-9.93668
▁ВЕДТ	-9.93724
▁РИТМ	-9.93761
▁КАМЕР	-9.93767
АТ	-9.93936
▁НЕПОСРЕДСТВЕННО	-9.93967
▁ПОЛТОР	-9.93972
▁ЗАМУЖ	-9.93975
▁УДОВОЛЬСТВИЯ	-9.9399
▁ПИСЬМО	-9.93991
▁СПОСОБНОСТИ	-9.93993
▁ПОЛЬЗУЕМСЯ	-9.93993
▁БОЯТСЯ	-9.93996
▁ЗАНИМАЛСЯ	-9.93997
▁НЕВАЖНО	-9.94008
▁ВОДУ	-9.94044
▁ПОЗВОЛИТЬ	-9.94051
▁ЗДАНИЯ	-9.94057
▁РЕВОЛЮЦИИ	-9.94067
▁ЗНАЯ	-9.94073
▁ОБЩЕНИЕ	-9.94084
▁ВЕЧНО	-9.94086
▁АРХИТЕКТУРА	-9.94087
▁ЕЗДИЛ	-9.9409
▁ВОЗМОЖНОСТЯМИ	-9.94111
▁ДОКУМЕНТЫ	-9.94168
▁ТРЕТЬЯ	-9.9418
▁ВПЕЧАТЛЕНИЕ	-9.94186
▁ЛЮБОГО	-9.94195
ВАЛ	-9.94212
▁КОММУНИКАЦИИ	-9.94216
▁РОССИЙСКО	-9.94238
▁КАРТЫ	-9.94254
▁ДЕПРЕССИИ	-9.94254
▁НАНОЧАСТИЦЫ	-9.94255
▁ОТНОШЕНИЮ	-9.94294
▁ПОДХОДИТ	-9.94337
▁ВЗЯЛИ	-9.94438
▁СЕМЬЮ	-9.94438
▁ВСТРЕЧА	-9.94458
ИРУЮТ	-9.94471
▁КАРТИН	-9.94491
СТВО	-9.94503
▁КЕМТО	-9.94526
▁НАЗВАТЬ	-9.94584
▁РАБОТАЕМ	-9.946
▁ДРЕВНИ	-9.94637
▁ВРАЧИ	-9.94649
▁ВСТРЕЧ	-9.94655
▁ПОДОБНОЕ	-9.94707
▁ДЛ	-9.94756
▁УДИВИТЕЛЬНЫ	-9.94784
▁СМЫСЛА	-9.94848
▁СПОРТА	-9.94858
▁ЗАЩИЩАТЬ	-9.94942
▁ЗНАКОМ	-9.95016
▁КРУПНЫ	-9.95042
▁ХОДИЛИ	-9.95114
НЯ	-9.95168
▁ПРОИЗВОДСТВА	-9.9526
▁ПРИБЛИЗИ	-9.95363
СТЬЮ	-9.95386
▁СОЦИАЛЬН	-9.9558
СТВА	-9.95707
▁СИСТЕМЕ	-9.95748
▁Т	-9.95941
▁МАЛЕНЬК	-9.96053
▁ДОКТОР	-9.96094
▁ЛЕС	-9.9612
▁СЕКУНД	-9.96376
▁КЛАССА	-9.9643
▁ПРИДУМАЛ	-9.9655
▁ГЛАЗАХ	-9.96576
▁РЯД	-9.96677
▁ДИРЕКТОР	-9.96722
▁ВЕЧЕР	-9.96766
▁ЧРНЫ	-9.96783
▁МИРОВО	-9.96837
СКОМ	-9.96851
▁ИСПОЛЬЗУ	-9.97008
▁ОТЛИЧАЕТ	-9.9701
▁МЕНЯЮТСЯ	-9.97022
▁ОТКРЫВАЕТ	-9.97041
НТ	-9.9729
БО	-9.9729
▁СЛОВОМ	-9.97311
▁ПРЕЗИДЕНТ	-9.97405
▁УРОВНЯ	-9.97657
▁ЗАМЕТИЛ	-9.97664
▁КОМПЛЕКС	-9.97717
▁СТОЛ	-9.97771
▁МАТЕРИ	-9.97877
ННАЯ	-9.98002
▁БЛИЗКО	-9.98024
▁ВЕРОЯТНОСТЬ	-9.98038
▁ОБЩЕ	-9.98106
▁КОЛЛЕКТИВ	-9.9813
▁СЛАВ	-9.98134
▁ТЕМЫ	-9.98227
▁УЖАС	-9.98228
▁ДИЗАЙНЕР	-9.9827
▁МУЗЕЯ	-9.98314
▁ПИШЕТ	-9.98314
▁ПРОФЕССИЙ	-9.98314
▁ЭПИГЕНОМ	-9.98314
▁БЛИЖАЙШЕ	-9.98315
▁ЗАРАНЕЕ	-9.98315
▁БАЛАНС	-9.98316
▁ЛЮДЯХ	-9.98316
▁ПРОБОВАТЬ	-9.98318
▁МОЛОДЖИ	-9.98322
▁ДАУНА	-9.98323
▁СРЕДЕ	-9.98323
▁НАЛОГИ	-9.98325
▁ФИЛОСОФИЯ	-9.98327
▁ИСКЛЮЧИТЕЛЬН	-9.98331
▁СЕТЕЙ	-9.98352
▁35	-9.98359
▁РАЗНИЦА	-9.9836
▁СУТКИ	-9.98372
▁ОКАЗАЛИСЬ	-9.98417
▁ВЛИЯЕТ	-9.98436
▁ГЛАВНАЯ	-9.98439
▁ТРАДИЦИИ	-9.98456
▁ПРОСТЫЕ	-9.98495
▁СРЕДСТВА	-9.98502
▁НАСТОЯЩАЯ	-9.98503
▁МЫШЦЫ	-9.98512
▁АВТОМАТИЧЕСКИ	-9.98518
▁ПОРЯДКЕ	-9.98544
▁ОТСУТСТВИ	-9.98546
▁ТОЧКА	-9.98576
▁ТЕРМИН	-9.98602
▁НАЙДЕН	-9.98625
▁КРАСИВАЯ	-9.98631
▁ЗДАНИЕ	-9.98726
▁ПРЕВРАТИ	-9.98774
▁СКУЧНО	-9.98839
▁ПОМОЕМУ	-9.98841
▁СМОТРИМ	-9.98852
▁ВОСПРИЯТИЯ	-9.98897
▁УВИДИТЕ	-9.98905
▁МЕДЛЕННО	-9.98974
▁МЕНЯЕТ	-9.9902
▁ПОЛОЖИТЕЛЬНЫ	-9.99156
▁ИДЕЕЙ	-9.99254
▁НУЖДА	-9.99277
▁ЯРКИ	-9.99315
▁ПРОЕКТОВ	-9.99384
ИК	-9.99418
МОЕМУ	-9.99423
▁ВЫБРАЛ	-9.99507
УЮТ	-9.99512
ЧНЫЕ	-9.99551
УТ	-9.99582
▁ПИСАЛИ	-9.99642
▁ВНУТРЕННИ	-9.99693
▁СТРАНУ	-9.99863
▁Л	-9.9988
▁ПОЛУЧИЛА	-10
▁ДОБРА	-10.0008
▁БРАТ	-10.0012
▁ДОРОГИЕ	-10.0027
▁ПРОЕКТЫ	-10.0037
▁ПРОФЕССИОНАЛЬНО	-10.0038
▁СОСТАВ	-10.0042
▁РЕШАЕТ	-10.0046
▁КОПИ	-10.0049
▁ПОШЛА	-10.0054
▁ПЛОХ	-10.0069
▁СВЕТА	-10.0074
▁ГРАЖДАНСКО	-10.0076
▁СЕЛ	-10.008
СКАЗКИ	-10.0082
▁САД	-10.0098
▁ПОЧТ	-10.0108
▁ЛЕСА	-10.0112
▁ДОРОГИ	-10.013
▁УЧИЛИ	-10.0132
▁ПЛАНЕ	-10.0134
▁ГОРОДАХ	-10.0136
▁СТАТУС	-10.0163
▁ДАМ	-10.0176
ХОДИТЬ	-10.0177
▁АВТОБУС	-10.0184
▁ВЫГЛЯДЕЛ	-10.0194
▁ВНУТРЕННЕ	-10.02
СТАНОВИТЬСЯ	-10.0207
▁ГРАЖДАН	-10.0224
▁САМОМУ	-10.0224
▁ПРОИЗВОДСТВО	-10.0226
▁МАКСИМ	-10.0236
▁УЧАСТВОВАЛ	-10.0244
▁ДЕЯТЕЛЬНОСТЬ	-10.0256
▁ЧИП	-10.0264
ПО	-10.0264
▁КАЧЕСТВЕ	-10.0265
▁ЗАБОЛЕВАНИЯ	-10.0269
▁ПОЛЬЗУ	-10.027
▁ХУДОЖЕСТВЕННО	-10.0275
▁СЧИТАЕТ	-10.0276
▁ПОНЯТИЯ	-10.0279
ОВОЙ	-10.0279
▁ПОЗВОЛИТ	-10.0282
▁МАРШРУТ	-10.0285
УЕМ	-10.0285
▁ОБУЧЕНИЯ	-10.0286
▁ОЗЕРО	-10.0286
▁РЕАКЦИЯ	-10.0286
▁ЗДОРОВЬЯ	-10.0286
▁ПРЕДПРИНИМАТЕЛЯ	-10.0287
▁ПРОЖИЛ	-10.0287
▁ЗАМЕЧАТЕЛЬНЫЙ	-10.0287
ЕНА	-10.0287
▁НИКУДА	-10.0288
▁ИСПОЛЬЗОВАНИЕ	-10.0288
▁МАСШТАБ	-10.0289
▁БАКТЕРИЙ	-10.0289
▁МЕЧТОЙ	-10.0291
▁БЕЗОПАСНОСТИ	-10.0291
▁РУССКОЙ	-10.0291
▁ОТВЕЧАТЬ	-10.0293
▁ЗАНИМАЕМСЯ	-10.0294
▁ВНУТРЬ	-10.0296
▁ЖДАТЬ	-10.0296
▁СТУДЕНТЫ	-10.0297
▁ПОВЕРЬТЕ	-10.0297
▁СЧИТАЕМ	-10.0299
▁ПРЕДЫДУЩИ	-10.0299
▁ВРЕМ	-10.0301
▁ПОКОЛЕНИЙ	-10.0306
▁СЧАСТЛИВЫМ	-10.0306
▁ВАЖНА	-10.0307
▁СОВЕТСКО	-10.0312
▁РОДИЛАСЬ	-10.0312
▁ЭКОНОМИЧЕСКИ	-10.0315
▁ЗАКОН	-10.0318
▁УВЕРЕННОСТЬ	-10.0321
▁КАКИХ	-10.0335
▁ПЛАНЫ	-10.0365
▁БАБУШКИ	-10.0368
▁ПОСТРОЕН	-10.0383
▁ВИРУСЫ	-10.0389
▁НАХОДИТЬ	-10.0393
▁ДИАЛОГ	-10.0396
ЛЮ	-10.0409
ЧТ	-10.0418
▁ИСПОЛЬЗОВАЛИ	-10.0423
УМ	-10.0426
▁РЕГУЛЯРНО	-10.0426
▁ЛАЙК	-10.0427
▁ВЕР	-10.0433
ВШИЙ	-10.0434
▁КЛАД	-10.0435
▁ДУМАЛИ	-10.0439
▁КУП	-10.0445
▁ОБРАЗЫ	-10.0447
▁КУЧА	-10.0449
Щ	-10.0454
▁ОБЩ	-10.0472
▁ГЛАВНЫМ	-10.0478
▁ОПРЕДЕЛНН	-10.0479
▁ВАШИМ	-10.0491
▁ПУСТ	-10.0511
▁ОСТРОВ	-10.0512
НИМАЮТ	-10.0526
▁САМОЛТ	-10.0533
▁ПИСАЛ	-10.0534
▁ДАЛ	-10.055
▁ЗОН	-10.0558
▁ОТВЕТА	-10.0565
КАМИ	-10.0577
▁КУРС	-10.0582
▁ПОНИМАЛ	-10.0598
▁НАЧНУ	-10.0599
▁РАЗУМ	-10.0603
▁ОКЕАН	-10.0626
▁СИСТЕМ	-10.0627
▁НАШЛА	-10.0631
▁ПОТОК	-10.0634
ЛЕЙ	-10.0646
СТАТЬ	-10.065
▁ПОКАЖУ	-10.065
▁ЦИФРОВЫ	-10.0678
▁ВОЗВРАЩА	-10.0689
▁БОЛЬНЫ	-10.0691
▁ШЛ	-10.0699
▁ПОСМОТРЕЛ	-10.0702
МЫ	-10.0715
▁УНИВЕРСИТЕТА	-10.0718
НОСЯТ	-10.0722
▁ПОТЕРЯ	-10.0737
ИЛА	-10.074
▁РЕЦЕПТ	-10.074
ДАЛИ	-10.0746
▁КА	-10.0747
▁ЖИТЕЛ	-10.0749
АЛА	-10.0755
▁ПОВСЕДНЕВН	-10.0761
▁ТИХО	-10.0762
▁ПОЖАЛУЙ	-10.0762
▁ЗЕМЛЮ	-10.0762
▁ОТСЮДА	-10.0762
▁ПОДДЕРЖКА	-10.0762
▁ПУТЕШЕСТВОВАТЬ	-10.0762
▁СДЕЛАЕМ	-10.0762
▁УВИДИМ	-10.0762
▁МЯСА	-10.0762
▁ОБУЧЕНИЕ	-10.0762
▁ИСТОРИЙ	-10.0762
▁ВКОНТАКТЕ	-10.0762
▁ЭНЕРГИЮ	-10.0763
▁УСИЛИЕ	-10.0763
▁ЖИВОТНЫЕ	-10.0764
▁2013	-10.0764
СТЕР	-10.0765
▁ВТОРОГО	-10.0765
▁КИТАЕ	-10.0766
▁БЮДЖЕТ	-10.0766
▁РАЗГОВАРИВАТЬ	-10.0766
▁МЕСТНЫЕ	-10.0767
▁ВЕРЯТ	-10.0767
▁ЛЮБАЯ	-10.0767
▁ВЫСШЕ	-10.0768
▁КОНФЕРЕНЦИИ	-10.0769
▁СЕРЕДИН	-10.0769
КАЗАЛАСЬ	-10.077
▁СООБЩЕНИЕ	-10.0772
▁ПИШЕМ	-10.0773
▁СОХРАНИТЬ	-10.0774
▁ВОЙНЫ	-10.0774
▁ИДМ	-10.0775
▁РАЗВИВАЕТСЯ	-10.0776
▁ВРАЧЕЙ	-10.0776
▁ВЕСЕЛО	-10.0777
▁РЕШЕНИЙ	-10.0777
▁РЕСУРСОВ	-10.0781
ОЗ	-10.0785
▁НЕДОСТАТОЧНО	-10.0786
▁НОЧЬЮ	-10.0788
▁ЗАДАВАТЬ	-10.0789
▁НЕЧЕГО	-10.0789
▁МИКРОБЫ	-10.0792
▁ЧЕСТЬ	-10.0794
▁МИЛЛЕНИУМЫ	-10.0797
▁ГРУППЕ	-10.0798
▁ПЫТАЛСЯ	-10.08
▁ЗАКАЗ	-10.08
▁ПЫТАТЬСЯ	-10.08
СИ	-10.0801
ИНА	-10.0801
▁РАССКАЗЫВАЕТ	-10.0805
▁КОЛЛЕГИ	-10.0825
▁ОКРУЖАЮЩИХ	-10.0829
▁ВЫБОРА	-10.083
▁ОБЫЧНЫЙ	-10.0848
▁УСЛЫШАЛ	-10.0858
▁ИГРУ	-10.0859
НУТЬ	-10.0861
▁ЗАМЕТИЛИ	-10.0861
▁ГОРОДОВ	-10.0866
МЕР	-10.0882
ЯМ	-10.0888
▁КУЛЬТУРЕ	-10.089
НЯЛИ	-10.0892
▁ПОДОШЛ	-10.0906
▁УПРАВЛЕНИЕ	-10.0911
▁СМИ	-10.0917
▁ЗАНЯТИ	-10.0918
▁ПРОБЛЕМАМИ	-10.093
▁ВЕДУТ	-10.0931
▁ЗАВТРАК	-10.0932
ЮЩЕГО	-10.0934
НД	-10.0939
▁ЯРКО	-10.0954
▁ОБЛАДА	-10.0959
▁ЕХАТЬ	-10.0978
▁СКАЖЕТ	-10.0982
▁ВОЗ	-10.0986
▁ЖИЗНЕННЫ	-10.0988
400	-10.0992
▁ГРЕ	-10.1014
ЮЩИХ	-10.1017
ОР	-10.1021
▁СЕКС	-10.104
ВАЛИ	-10.1045
ЛУ	-10.1062
ЛОГ	-10.1073
▁ТРЕНЕР	-10.1074
▁ТЕХНИЧЕСКИ	-10.1149
▁ТЕРМЕН	-10.1167
ЧИК	-10.1169
▁БЕГ	-10.1175
▁КОНКУРЕНТ	-10.1181
▁ПРОФЕССИОНАЛ	-10.1201
▁ДЕТАЛИ	-10.1203
▁ПОЛНЫ	-10.1212
▁ЗАТО	-10.1218
АСЬ	-10.1219
▁ТРЕБУЕТ	-10.1232
▁ВЛАСТЬ	-10.1233
▁КОЛИЧЕСТВА	-10.1239
▁ФИЛЬТР	-10.1239
▁СТРАННЫ	-10.1239
▁ЗАКОНЧИТЬ	-10.1242
▁ПРИЧИНА	-10.1245
▁ФОТО	-10.125
▁МАМ	-10.1251
НИЙ	-10.1252
▁СЕРГЕ	-10.1262
▁БЛИЖАЙШИ	-10.1262
▁КНИЖКИ	-10.1262
▁ПОДДЕРЖКИ	-10.1262
▁СОЗНАНИЯ	-10.1262
▁СТАТИСТИКА	-10.1262
▁ВСЕЛЕННОЙ	-10.1262
▁КУХНИ	-10.1262
▁СЧАСТЬЮ	-10.1262
▁ВЕЩАХ	-10.1262
▁ЧИТАЕТ	-10.1262
▁ВОВСЕ	-10.1262
▁ЗАНОВО	-10.1262
▁ОТЦОМ	-10.1262
▁ФОТОГРАФИЮ	-10.1262
▁БОЖЕ	-10.1263
▁СОГЛАСИТЕСЬ	-10.1263
▁СЛЕДУЮЩЕЕ	-10.1264
▁ЧУДО	-10.1264
▁ЛУЧШИЙ	-10.1265
▁ИЩЕТ	-10.1265
▁ИДЕЙ	-10.1265
▁ЖДУТ	-10.1266
▁СЛОЖНЕЕ	-10.1267
▁ОТКАЗАТЬСЯ	-10.1268
▁ВАЖНЕЕ	-10.1269
▁ПРОЖИТЬ	-10.1269
▁ВНАЧАЛЕ	-10.127
▁СРОЧНО	-10.127
▁СЛУШАЙТЕ	-10.1273
▁ПРЕЗЕНТАЦИИ	-10.1274
▁ПРОДАВАТЬ	-10.1274
▁ИГРУШКИ	-10.1275
▁КОМПЬЮТЕРН	-10.1276
▁ВЫСТУПАТЬ	-10.1278
▁МАШИНУ	-10.1282
▁ВПЕРЕДИ	-10.1283
▁БОЛЬШОГО	-10.1283
▁ОТКРЫТИЯ	-10.1283
▁ЦЕЛЕЙ	-10.1284
▁ПЕЧАТИ	-10.1288
▁РУКА	-10.1296
▁НАХОДИТЬСЯ	-10.1297
▁ПРИЗНАКИ	-10.1301
▁СРЕДНЕМ	-10.1301
▁ГОЛОВА	-10.1301
▁ВЫГЛЯДЯ	-10.1304
▁ОТЕЛЬ	-10.1307
▁ЧИТАЮТ	-10.1311
▁ЗАКОНЫ	-10.1313
ТРИ	-10.1317
▁БОЛИ	-10.1323
▁ДОВЕРИЕ	-10.1338
▁ПРОИЗВЕДЕНИЕ	-10.1338
▁ПРОСТАЯ	-10.1339
▁МУЗЫКАЛЬНЫ	-10.134
▁ВЫХОДИТЬ	-10.1343
▁РИМСК	-10.1348
▁ДЕСЯТИ	-10.1355
▁КОМПЬЮТЕРЫ	-10.1356
▁ПРИВЕДУ	-10.1358
▁АРХИТЕКТОР	-10.1365
▁ПРИДУМАЛИ	-10.1369
▁КАЗАХСТАНЕ	-10.1375
▁СОВЕТ	-10.1378
▁ИНФОРМАЦИОННЫ	-10.138
▁ЖЕНСКИ	-10.1387
▁РЕЖИМ	-10.1393
▁ТРУБК	-10.1399
▁СЕТЬ	-10.1403
ШЕ	-10.141
▁ИНСТРУМЕНТЫ	-10.1412
▁ПОЛИТИЧЕСКИ	-10.1422
НЕЕ	-10.1428
ОСТАВИТЬ	-10.1432
▁БЕС	-10.1443
▁ПРОВЕЛ	-10.1446
▁ТЕРМЕНВОКСА	-10.1451
▁МОЛОД	-10.1457
▁РАБОТАЛИ	-10.1463
▁ОТВЕЧАЮ	-10.1465
▁ОБРАЗА	-10.1472
▁ДРУЗЬЯМ	-10.1478
▁ПАРТНР	-10.1492
АРЕНЬ	-10.1494
ПИТЬ	-10.15
▁ВНЕ	-10.1502
▁УСТРОЕН	-10.1523
▁ЖИВУ	-10.1525
▁ТЕАТР	-10.1535
▁КРУПН	-10.1536
▁ПРЕКРАСН	-10.1543
▁ПОЛУЧАЕТ	-10.1545
▁МЛ	-10.1552
▁МАН	-10.1552
▁ПАРА	-10.1566
ИШЬ	-10.1568
БА	-10.1573
▁ЗДОРОВЫЕ	-10.1585
ЕТЕ	-10.1591
▁ФИЛЬМА	-10.1593
▁ПРЕПАРАТ	-10.1598
▁СВЯЗАННЫ	-10.1605
▁ХА	-10.1611
▁КРАСНЫ	-10.1614
▁АМЕРИКАНСКО	-10.1626
▁ОРГАНИЗМЕ	-10.1639
▁ЗЛО	-10.1643
ЩИЙ	-10.1645
АЛЬНО	-10.1655
ДУ	-10.1673
▁СМОТРИ	-10.1675
▁МАРК	-10.1681
▁ЦИКЛ	-10.1693
ЩА	-10.1697
▁КЛЕТКА	-10.17
▁МЕНЯЮТ	-10.171
▁ПЯТ	-10.1711
▁ФУТБОЛ	-10.1722
▁МИЛЛЕНИУМ	-10.1728
▁РЕСУРС	-10.1731
УЕТ	-10.1742
▁РАССКАЗ	-10.1745
▁ВОСПИТЫВА	-10.175
▁ПОДПИСЬ	-10.1758
▁НОЧЬ	-10.176
▁МАРКЕТИНГ	-10.1761
▁ВСЕЛЕННАЯ	-10.1789
▁ПОРУССКИ	-10.1789
▁РЕАКЦИЮ	-10.1789
▁СМОТРЮ	-10.1789
▁СТАТИСТИКЕ	-10.1789
▁ПАМЯТНИК	-10.1789
▁ДНМ	-10.1789
▁ПРЕДСТАВЛЕНИЯ	-10.1789
▁ПАТРИОТИЗМ	-10.179
▁НЕПЛОХО	-10.179
▁ЗАНИМАЕТЕСЬ	-10.1791
НОВ	-10.1791
▁КИЛОМЕТРОВ	-10.1791
▁23	-10.1793
▁МЕСТНЫХ	-10.1793
▁ОТНОСЯТСЯ	-10.1793
▁ПРОДОЛЖИТЕЛЬН	-10.1794
▁ЛУЧШИХ	-10.1794
▁НИЖЕ	-10.1795
▁ПРИВЫЧКИ	-10.1796
▁ЗРЯ	-10.1799
▁НАБЛЮДАТЬ	-10.18
▁ЛИЧНОСТИ	-10.18
▁ПОКУПАЕТ	-10.18
▁ДНИ	-10.18
▁ЕДЫ	-10.1802
ЧНЫЙ	-10.1802
▁РЕЛИГИЯ	-10.1802
▁СТРУКТУРА	-10.1806
▁ОТДАТЬ	-10.1807
▁МЕНЯТЬСЯ	-10.1808
▁НАЧАЛОСЬ	-10.1808
▁ОКРУЖАЮЩИ	-10.1809
▁ЕЖЕДНЕВНО	-10.1809
▁ПРОЙДТ	-10.181
▁СТАРЫЕ	-10.1811
▁ПУТМ	-10.1812
▁ДЕЙСТВИЙ	-10.1812
▁ПРИЛОЖЕНИЕ	-10.1813
▁ОТЦА	-10.1816
▁ИСКРЕННЕ	-10.1817
▁СПОРТОМ	-10.1818
▁КОМАНДУ	-10.1818
АШЕЙ	-10.1819
▁СВЕРХУ	-10.182
▁ОРГАНИЗАЦИЯ	-10.182
▁ВИРТУАЛЬНОЙ	-10.1823
▁ИСКУССТВЕННО	-10.1824
▁МИЛЛИОНА	-10.1826
▁НАЧАЛАСЬ	-10.1827
▁ВЕРНУЛСЯ	-10.1835
▁ОСТАЛЬНОЕ	-10.1838
▁ВЫБИРАТЬ	-10.1839
▁СЛОЖНЫЙ	-10.1848
▁ПРОБЛЕМОЙ	-10.1854
▁ПЕРЕШЛ	-10.1855
▁ИДЕАЛЬНО	-10.1855
▁БЛИЗКИЕ	-10.1862
▁ВТОРОМ	-10.1865
▁ПОСЛЕДН	-10.1866
▁ЖИВОТНО	-10.1872
▁МЕТОДЫ	-10.1873
▁ТЕКСТЫ	-10.1873
▁ЧЛЕН	-10.188
▁ИНФОРМАЦИОННО	-10.188
▁ВЕК	-10.1895
▁ФАКТЫ	-10.1906
▁УЖАСНО	-10.1906
▁СООБЩЕСТВА	-10.1917
▁РАД	-10.192
▁УЧАСТИЕ	-10.1945
▁СОЗДАНИЕ	-10.1946
▁ИНВАЛИД	-10.1954
ПЫТАЮСЬ	-10.1954
▁ИМЕ	-10.1956
▁ПОЗИТИВНЫ	-10.196
▁СОВРЕМЕННЫЙ	-10.196
ГИ	-10.1972
▁ПОРА	-10.1989
▁ФОРМЕ	-10.1991
▁ОБЩЕСТВЕННО	-10.1992
▁СТАНОВИ	-10.1993
▁КАТЕГОРИ	-10.1993
▁МОДНО	-10.1995
▁ПОДАРИЛ	-10.2015
▁КУЛЬТУРНО	-10.2016
▁ИМЕЛ	-10.2016
▁ГЛАВНЫ	-10.202
▁ГОСУДАРСТВЕННО	-10.2021
ТРО	-10.2025
▁БОЛЬНО	-10.203
▁ПОДУМАЛИ	-10.2034
▁300	-10.2039
▁СЕМЬЙ	-10.2039
▁НАЧИНАЮ	-10.204
СТАЛА	-10.2054
▁ТЯЖЛЫ	-10.2054
▁ЛЮБИТЕ	-10.2066
▁ЛИДЕР	-10.2068
▁ПОКАЗАЛИ	-10.2075
▁ДЕЛОМ	-10.2083
▁ВРАЧ	-10.2083
▁ЦЕН	-10.2096
▁ПОЛЯ	-10.2097
▁ИСТОРИЧЕСКО	-10.2115
▁ПРИВЫК	-10.2121
▁КАРТИНА	-10.2129
▁ГОЛУБО	-10.2129
▁РАБОЧИ	-10.2129
▁ПОЙДТ	-10.2134
▁Э	-10.2135
▁СОВЕРША	-10.2137
▁МОЛ	-10.2138
ИЛСЯ	-10.2141
▁МАЛЕНЬКОЕ	-10.2143
▁ПРЕВРАЩАЕТ	-10.2146
▁ЧУВСТВУЕТ	-10.2159
▁ОФИС	-10.2159
▁ЛЮБИЛ	-10.2165
▁ОТДЕЛ	-10.2167
▁ДЕ	-10.2167
▁ПОИСК	-10.2192
▁УВЕЛИЧИ	-10.2212
▁ПРЕСС	-10.2216
▁МИКРО	-10.2225
▁ЗАХОТЕЛ	-10.2225
▁ИДЕЕ	-10.2226
▁ЛЮБО	-10.2231
▁ПОТЕР	-10.2235
▁ЕЮ	-10.2236
▁САДИ	-10.2245
▁МАТЕМАТИК	-10.2253
ДЫ	-10.2253
▁ЭЛЕМЕНТ	-10.2257
▁ДОРОГО	-10.2262
▁ПРАВИТЕЛЬСТВО	-10.2278
▁ДОГОВОР	-10.2279
▁ПЛОД	-10.2302
▁ИНТЕЛЛЕКТУАЛЬН	-10.2305
▁НАНОЧАСТИЦ	-10.2306
▁ПОВОД	-10.2306
▁НАЛОГОВ	-10.2313
▁ИСПОЛЬЗУЕТ	-10.2328
▁КОСТЮМ	-10.2339
▁ПОЙДУ	-10.2341
▁РАЦИОНАЛЬНО	-10.2341
▁ИНФРАСТРУКТУР	-10.2344
▁МЫШЛЕНИЯ	-10.2344
▁ПОЛЬЗОВАТЕЛИ	-10.2344
▁ПОЧУВСТВОВАТЬ	-10.2344
▁РЕАКЦИИ	-10.2344
▁ФУНКЦИЯ	-10.2344
▁СЛУЧИТСЯ	-10.2344
▁ТАГИР	-10.2344
▁НЕМНОЖЕЧКО	-10.2344
▁ДВЕРЬ	-10.2344
▁СОЦСЕТЯХ	-10.2344
▁ВЫШЛИ	-10.2344
▁ДОБИТЬСЯ	-10.2344
▁ЯВЛЕНИЕ	-10.2344
▁ЖДТ	-10.2344
▁ОБЩАЕМСЯ	-10.2345
▁ХРАМ	-10.2345
▁ЭНЕРГИЯ	-10.2345
▁ДОСТИЖЕНИЯ	-10.2346
▁ИКОНА	-10.2347
▁СТАРЕНИЯ	-10.2347
▁РАЗНИЦУ	-10.2348
▁ОЧЕНЬОЧЕНЬ	-10.2349
▁НОВОСТИ	-10.2349
▁КРАСОТУ	-10.2349
▁ЕВРОПЫ	-10.235
▁РИСК	-10.235
▁ПОЛЬЗУЕТСЯ	-10.235
▁ПОКАЗАЛ	-10.2351
▁РЫНКА	-10.2352
▁ЧЕЛОВЕЧЕСТВА	-10.2352
▁ПОПЫТАТЬСЯ	-10.2352
▁ПОТРЕБЛЕНИЕ	-10.2353
▁СПРАВА	-10.2353
▁СВОЙСТВА	-10.2355
▁СРЕДНЕГО	-10.2355
▁ГРУППУ	-10.2356
▁ДЕВОЧЕК	-10.2357
▁РЕЧИ	-10.2358
▁БОЮСЬ	-10.2358
▁ПОМОГЛИ	-10.2359
▁УСЛОВНО	-10.2361
▁АМЕРИКИ	-10.2363
▁ПАЦИЕНТОВ	-10.2363
▁РЕКОМЕНДУЮ	-10.2364
▁АНАЛИТИК	-10.2365
▁НЕОЖИДАННО	-10.2365
▁ПРОСТРАНСТВА	-10.2367
▁РАССКАЗЫВАЮТ	-10.2369
▁ОБЪЯСНЯТЬ	-10.237
▁ЖИВОЙ	-10.2373
▁ВИДИМО	-10.2373
▁ПОВЕДЕНИЯ	-10.2375
▁ЕВРО	-10.2375
▁ПОКАЗЫВАЮТ	-10.2377
▁НОГ	-10.2378
▁БУ	-10.2378
▁СТЕРЕОТИПЫ	-10.2379
▁ТЕПЛО	-10.238
▁МАССОВО	-10.2382
▁ИСПОЛЬЗУЕТСЯ	-10.2382
▁БРОСИТЬ	-10.2384
▁СУТЬ	-10.2386
▁ОБЩЕГО	-10.2388
БЕРМ	-10.2388
▁ОТПРАВИТЬ	-10.2391
▁ИССЛЕДОВАНИЙ	-10.2392
▁МНОГОМ	-10.2396
▁МИЛЛИОНЫ	-10.2397
▁БОЛЬНИЦЕ	-10.2399
ОЧ	-10.2403
▁МАРТ	-10.2404
▁ПОЛНО	-10.2415
▁ПРОШЛИ	-10.2416
▁ОРГАНИЗМА	-10.2433
▁ВЛИЯТЬ	-10.2435
УС	-10.2438
▁ИЗУЧАЛ	-10.2454
▁СТОРОНЕ	-10.2472
ЮЩИЕ	-10.2473
▁БОГУ	-10.2474
▁СЕРДЦЕМ	-10.2477
▁УЧУ	-10.248
▁СТОРОНА	-10.248
▁ПРАВАМИ	-10.2488
▁НАПИСАЛИ	-10.2498
МОГУТ	-10.2509
▁СРАВНИ	-10.251
▁ЗАЛ	-10.251
▁НАУКЕ	-10.2512
▁ПРИНЯЛИ	-10.2516
▁ДУХ	-10.2517
▁УЛИЦ	-10.2519
СТА	-10.2522
▁ДОЛГ	-10.2522
▁НЕКОЕ	-10.2526
▁ДИКО	-10.2531
▁НАПРАВЛЕН	-10.2531
▁КАКОМ	-10.2532
▁ПРИЕХАЛА	-10.2533
▁КАТЕГОРИЯ	-10.2539
▁ВОЗНИКАЮ	-10.2539
▁УСЛОВИЯ	-10.2544
▁ГЛОБАЛЬНО	-10.2548
▁ПОНИМАНИ	-10.2555
▁СТАРШЕ	-10.2555
▁ЧТ	-10.2564
▁ПРОДАЖ	-10.2567
▁ПРОЕКТЕ	-10.2568
ЦЕВ	-10.2569
▁ДЕЛАЛА	-10.2581
▁НЕДО	-10.2584
▁ПРОЦЕНТ	-10.2587
▁ОБЫЧНОЙ	-10.259
▁ПОСЛЕДНЕ	-10.2605
ТОР	-10.2611
▁ЖСТКО	-10.2611
▁ДЕЛАЕТСЯ	-10.2612
МЕНИТЬ	-10.2614
▁НЕБО	-10.2617
ИКА	-10.2631
ИРУЕТ	-10.2639
ОВАЛИ	-10.2639
ЕННЫЕ	-10.2641
▁КОЛОКОЛА	-10.2652
СТАНУТ	-10.2652
▁ЛУЧШ	-10.2653
▁ЭКРАН	-10.2665
▁БАНК	-10.2673
▁КАРТ	-10.2674
▁ПОСТРОЕНИ	-10.2676
▁ЗНАКОМО	-10.2685
РАБОТАТЬ	-10.2703
▁ДАЛКИ	-10.2704
▁ЖЕЛАЮ	-10.2719
▁ТВОИ	-10.2719
▁ДОБАВИ	-10.2723
▁ОТВЕЧАЕТ	-10.2724
▁РАЙОН	-10.2729
▁БИЛЕТ	-10.2732
▁КОРОТКО	-10.2748
▁ПОЕХАЛ	-10.2751
▁СПЕЦИАЛИСТ	-10.2758
ИЧ	-10.2774
▁ИМЕЛИ	-10.2776
▁ВНЕШНИ	-10.2777
▁ХОДИТ	-10.2777
ПРОТИВ	-10.2792
▁УМЕЮ	-10.2801
▁СП	-10.2804
▁ИНТЕЛЛЕКТ	-10.2816
▁ТРАДИЦИОННЫ	-10.2821
▁ДАСТ	-10.2829
▁НАЗВАЛ	-10.2841
▁ПОСТУПИЛ	-10.2842
▁ДАННЫМ	-10.2846
▁ПРИМЕРУ	-10.2848
▁ОТКАЗЫВА	-10.285
▁УНИВЕРСИТЕТЕ	-10.2855
▁АК	-10.2856
▁ЗАБОТ	-10.2857
▁РОДИТЕЛЯМ	-10.2857
▁ПРЕДЛАГАЮ	-10.286
▁МЕЖДУНАРОДНЫ	-10.2861
▁НАСИЛИЕ	-10.2863
▁ТВОРЧЕСТВО	-10.2865
▁РАЗВОД	-10.2866
▁БРОСИЛ	-10.2868
▁НИЧЕМ	-10.2871
ТОК	-10.2876
▁МИФ	-10.2878
▁ТАЛАНТ	-10.2888
▁ПОСЛЕДСТВИЯ	-10.289
▁МАЛЫШ	-10.2893
▁РАЗНЫМ	-10.2897
▁ВОЛОС	-10.2898
▁КНОПК	-10.2902
▁РАК	-10.2907
▁КАСА	-10.2931
▁ИЗНАЧАЛЬНО	-10.2932
▁МУЗЫКОЙ	-10.2932
▁ПОЛЬЗОВАТЕЛЕЙ	-10.2932
▁ПОЧУВСТВОВАЛ	-10.2932
▁ЧИТАЕМ	-10.2932
▁ИССЛЕДОВАТЬ	-10.2932
▁БЛАГОТВОРИТЕЛЬН	-10.2932
▁ПОНРАВИЛОСЬ	-10.2932
▁СЦЕНУ	-10.2933
▁ОБЛАСТЬ	-10.2933
▁СПАСТИ	-10.2933
▁СМЕЛОСТЬ	-10.2934
▁ПЕРЕХОД	-10.2934
▁ИНТЕРЕСНЕЕ	-10.2935
▁ВЗРОСЛЫХ	-10.2936
▁ПЛАНИРОВАНИЯ	-10.2936
▁ОТЛИЧАЮТСЯ	-10.2936
▁ЗАБОЛЕВАНИЙ	-10.2937
▁ВРАГ	-10.2937
▁ВЕРИМ	-10.2937
▁ФУНКЦИИ	-10.2937
▁ПРОИСХОДИЛО	-10.2937
▁УМНЫЕ	-10.2937
▁ИЗОБРАЖЕНИЕ	-10.2938
▁ПОЛЕЗНО	-10.2939
▁НАПРАВЛЕНИЕ	-10.2939
▁РАБОТОЙ	-10.294
▁КРАСОТА	-10.2941
▁КУБИК	-10.2942
▁ОСТАВИЛ	-10.2942
▁РАДОСТИ	-10.2943
▁ЗНАЧЕНИЯ	-10.2944
▁ТОНН	-10.2944
▁УМИРАЮТ	-10.2945
▁ИСПОЛЬЗУЕМ	-10.2946
▁ДЕЛЬФИНОВ	-10.2946
▁ЛОЖЬ	-10.2947
▁НОРМЫ	-10.2948
▁ГОЛ	-10.2948
▁ДАЛЬНЕЙШЕМ	-10.295
▁ФОРМЫ	-10.2951
▁УПРАВЛЕНИЯ	-10.2952
▁УЧАСТНИКОВ	-10.2952
▁ГЕРОЕВ	-10.2955
▁ОРГАНОВ	-10.2955
▁КОМАНДЫ	-10.2956
▁ЧУВСТВУЮТ	-10.2958
▁СТРАНИЦЫ	-10.2958
▁ВИЗУАЛЬНЫ	-10.2958
▁УЧЕНИКИ	-10.2959
▁МАССА	-10.2959
▁КРОВИ	-10.2961
▁ПЛОЩАДИ	-10.2962
▁ВЕЩАМИ	-10.2962
▁ИНДУСТРИИ	-10.2963
▁СОБРАЛИ	-10.2964
▁ПАТРИОТ	-10.2965
▁ЖИТЕЛЕЙ	-10.2966
▁ОРГАНЫ	-10.2968
▁МОДЫ	-10.2969
▁ИСКУССТВЕННЫ	-10.2971
▁АКТИВНОСТЬ	-10.2973
▁ВЫХОДЯТ	-10.2979
▁ТРЕБУЮТ	-10.2981
▁МЕРОПРИЯТИЯХ	-10.2985
▁ОГРОМНЫМ	-10.299
▁ВЫВОДЫ	-10.2992
▁ЖИВИ	-10.2994
▁МАМУ	-10.2999
▁НЕОБХОДИМЫ	-10.2999
▁ЧАСЫ	-10.3
ЦА	-10.3
▁ОБНАРУЖИЛИ	-10.3003
▁УЧНЫЙ	-10.3005
▁МЕТРО	-10.3013
▁ИНТЕРЕСЫ	-10.3016
▁ДЕРЖАТЬ	-10.302
▁РА	-10.302
▁ГЕНЫ	-10.3023
▁ДЕСЯТК	-10.3026
ЛОВ	-10.3027
▁ЛЕЧИТЬ	-10.3028
▁ЛЮБИЛА	-10.3028
▁ЦЕНА	-10.303
▁АМЕРИКАНСКИ	-10.3034
▁УНИКАЛЬНО	-10.3034
▁УЧАСТВОВА	-10.3036
▁КАР	-10.304
УЧИ	-10.3051
▁НЕТУ	-10.3059
▁СПОСОБОМ	-10.306
▁РАННЕ	-10.3067
▁ПЛАНЕТ	-10.3071
▁РАЗБИРА	-10.3072
ТЕЛ	-10.3076
ВОЗ	-10.3085
▁ЧУВСТВУЕ	-10.3097
▁Н	-10.3103
▁ЛО	-10.3105
▁ОБЫЧНЫЕ	-10.3108
▁ШКОЛАХ	-10.311
▁ОЧЕРЕДНО	-10.311
▁ПОЛУЧЕНИ	-10.3112
▁ЧИТАЛИ	-10.3122
▁ОТНОШЕНИЙ	-10.3128
▁УШЛА	-10.3128
▁ЭКРАНЕ	-10.3139
▁ОБЪМ	-10.3142
▁ПРИМЕРОМ	-10.3147
▁СОВМЕСТНО	-10.315
▁СТЕН	-10.3151
▁ПАЦИЕНТ	-10.3154
▁УЧАСТНИК	-10.3155
▁МОБИЛЬНЫ	-10.3155
▁ВЕЛОСИПЕД	-10.3164
▁БЕР	-10.3166
НОС	-10.3196
▁ТЫСЯЧУ	-10.3217
▁ВОСПРИНИМАЕТ	-10.3218
▁ЗАКАНЧИВА	-10.3224
▁ЦИФРА	-10.3225
▁ЦВЕТА	-10.3267
▁ЦИФРОВ	-10.3281
ВОДИТЬ	-10.3287
▁ПОПАЛА	-10.3288
▁СЛАЙДЕ	-10.3292
▁СВОЯ	-10.3294
▁ИДИ	-10.3315
ЗЫ	-10.3335
▁ПОТЕРЯЛИ	-10.3337
▁ВСЯКО	-10.3337
▁ОБРАЩА	-10.3346
▁ИНСТРУМЕНТА	-10.3347
▁ПОМНИТ	-10.335
▁ПАКЕТ	-10.3354
▁РЕСТОРАН	-10.3356
▁ФРАЗ	-10.336
ОЙТИ	-10.3364
▁КЛУБ	-10.3371
▁ПУЗЫР	-10.3372
▁СЕМЕЙН	-10.3377
▁ЛИШ	-10.3399
ДЕЛ	-10.3424
▁ОКРУЖАЮЩ	-10.3429
▁ЗАХОДИТ	-10.3436
▁СТАЛКИВА	-10.3436
▁ЧИТАТЕЛ	-10.3437
▁ГОВОРИТЕ	-10.3441
▁ПРОЦЕССА	-10.3449
▁ЕДИН	-10.3454
▁ЭСТОНСКО	-10.3456
НЯТЬ	-10.3462
▁ЗАПАХ	-10.3463
▁ГРАФИК	-10.3463
▁СТЕРЕОТИП	-10.3464
▁ЕДИНСТВЕНН	-10.3467
▁ВЫСТУПАЛ	-10.3468
▁СЧАСТЛИВ	-10.3477
ЦЕ	-10.348
▁ОКНА	-10.3483
▁ПРЕЗЕНТАЦИЯ	-10.3487
ШКИ	-10.349
▁ЛИНИ	-10.3495
▁БАЗ	-10.3495
АЮТ	-10.3498
▁ДОСТА	-10.351
▁СТОЛКНУ	-10.3513
ОЧЕК	-10.3514
▁ЖИЛА	-10.3517
▁ПРОЧИТАЛ	-10.352
КАЯ	-10.3521
▁ПСИХОЛОГИ	-10.3525
▁СМЕРТЬ	-10.3531
▁УЧИТЕЛЬ	-10.3533
▁ПРИЗНА	-10.3533
▁ТЕСТ	-10.3538
▁РУКОВОДИТЕЛ	-10.354
▁ДЛИН	-10.3541
КИЕ	-10.3544
▁МУЗЫКАНТ	-10.3548
▁ИНФОРМАЦИЕЙ	-10.3557
▁КУХНЯ	-10.3557
▁ОБЪЯСНЮ	-10.3557
▁ПОРАЗНОМУ	-10.3557
▁СКУЛЬПТУР	-10.3557
▁СОЗНАНИИ	-10.3557
▁ТРУДОГОЛИК	-10.3557
▁ЭСТОНИЯ	-10.3557
▁СИДИМ	-10.3557
▁СПИКЕР	-10.3557
▁УДИВЛЯ	-10.3557
▁СООТВЕТСТВУЕ	-10.3557
▁ПРИРОДУ	-10.3557
▁ГЕРМАНИИ	-10.3557
▁ПЕРЕЖИЛ	-10.3558
▁ПРЕДСТАВИМ	-10.3558
▁ОБЩАЮТСЯ	-10.3558
▁СРЕДА	-10.3558
▁НАЗЫВАЮ	-10.3558
▁РАНЕЕ	-10.3559
▁ЗАБОТИТЬСЯ	-10.3559
▁УЛУЧШИТЬ	-10.3559
▁ВАЖЕН	-10.3559
▁ПОПРОБОВАЛ	-10.3559
▁ПРОДОЛЖАЕТ	-10.356
▁ОТНОСИТСЯ	-10.3561
▁ОСТАЛАСЬ	-10.3561
▁РЕЗКО	-10.3561
▁ОСТАТЬСЯ	-10.3561
▁ОТНОСИТЕЛЬНО	-10.3562
▁ВОСПРИНИМАЕМ	-10.3562
▁2012	-10.3562
▁ЗАМЕТИТЬ	-10.3563
▁РАБОЧЕ	-10.3563
▁ПОЛЬЗУЮТСЯ	-10.3564
▁КАРТИНКУ	-10.3564
▁ЗАКОНЧИТСЯ	-10.3564
▁ХРАНИТЬ	-10.3565
▁ПРОЧИТАТЬ	-10.3566
▁ПРЕОДОЛЕТЬ	-10.3566
▁УМЕРЛА	-10.3566
▁УВАЖАТЬ	-10.3568
▁ОКНО	-10.3569
▁МОГЛО	-10.3571
▁ЗАБЫТЬ	-10.3571
▁СЛЕДУЮЩИ	-10.3572
▁ЛОШАДИ	-10.3572
▁ОСНОВНЫЕ	-10.3572
ВШИХ	-10.3575
▁СУЩЕСТВОВАНИЯ	-10.3575
▁ИНДУСТРИЯ	-10.3576
▁СТРУКТУРЫ	-10.3578
▁КОНЦЕПЦИЯ	-10.3578
▁ПАПЫ	-10.3578
▁РУССКАЯ	-10.3581
▁ПЕРЕДАЧИ	-10.3584
▁ДРУЖ	-10.3586
▁2000	-10.3588
▁ФРАНЦИИ	-10.359
▁РИСОВАТЬ	-10.359
▁ПРЕДЛОЖЕНИЕ	-10.3591
▁СПЕЦИАЛЬН	-10.3595
▁УТВЕРЖДЕНИЕ	-10.3595
▁ЖЕРТВЫ	-10.3596
▁ЗАБЫЛИ	-10.3599
▁ДОРОГЕ	-10.36
▁ОЦЕНКА	-10.3602
▁КАРЬЕРУ	-10.3602
УЧИЛСЯ	-10.3603
▁МАСТЕР	-10.3603
▁СЧИТАЕТСЯ	-10.3603
▁УХОДЯТ	-10.3606
▁ЖЕРТВ	-10.3608
▁ОЦЕНИВАТЬ	-10.3609
▁БОГА	-10.3616
▁ПРИДТСЯ	-10.3618
▁ГРУСТНО	-10.3623
▁ОГРАНИЧЕННЫМ	-10.3623
▁ОСОЗНАЛ	-10.3628
ИМСЯ	-10.3628
▁ЧУЖ	-10.3629
РОМ	-10.3631
▁КОЛОССАЛЬНЫ	-10.3631
▁СПРОСИТЬ	-10.3635
▁УРОКИ	-10.3635
▁ГАЗА	-10.3636
▁ПРИЧИНЫ	-10.364
▁КОНТЕКСТЕ	-10.3645
▁СУЩЕСТВО	-10.3646
▁СТОЮ	-10.3647
▁КАРТЕ	-10.3649
▁ИЗВЕСТН	-10.3661
ВЫ	-10.3664
▁ПОДРОСТКОВ	-10.3668
▁ЭПОХА	-10.3669
▁СИГНАЛЫ	-10.3672
▁СМЕШНО	-10.3679
ПАДАЮТ	-10.3683
▁НАСТУПИЛ	-10.3685
▁ОТДЫХА	-10.3688
▁ВЛИЯЮ	-10.369
▁ЗНАКОМЫХ	-10.3701
▁ШЛИ	-10.3704
▁КЛИЕНТА	-10.3709
▁ОПЫТОМ	-10.3711
▁ВИДОВ	-10.3717
▁АКАДЕМИЧЕСК	-10.3717
▁ВЕРА	-10.3718
▁СВЕТЕ	-10.3719
▁СЧАСТЛИВЫМИ	-10.3725
▁КОНЦ	-10.3726
▁НАПИСАЛА	-10.3729
БЛ	-10.3734
РОДИЛИСЬ	-10.3745
▁ЧИТАЮ	-10.376
▁ЯЗЫКАХ	-10.377
▁ОТКРЫЛИ	-10.3773
▁ЛЕКАРСТВА	-10.3776
▁ВЫХОДНЫ	-10.3777
▁ОТНОСИ	-10.3777
▁СТРАШНОЕ	-10.3786
▁СПОСОБЫ	-10.3792
▁ЕДИНСТВЕННЫ	-10.3794
▁ПОПАЛ	-10.3797
▁СИТУАЦИЯХ	-10.3799
▁ВЕРН	-10.3805
КУЧУ	-10.3805
ИКИ	-10.3806
▁МОЗГЕ	-10.381
▁РЕАЛЬНЫ	-10.381
▁МАМЕ	-10.3815
НИЮ	-10.3837
ВАТЬ	-10.3842
▁ЭМОЦИОНАЛЬНО	-10.3843
▁ПОПЫТКА	-10.3846
▁МИЛЛИАРД	-10.3848
▁КОФЕЙН	-10.3853
▁ОСОЗНА	-10.3854
▁МОДА	-10.3862
▁ПРОХОДИЛ	-10.3866
▁ТАЛАНТЛИВЫ	-10.3866
▁ИСКУССТВОМ	-10.3867
▁ВЛАДЕ	-10.3878
▁ОБЫЧНЫ	-10.3885
▁ОТВЕТИЛ	-10.3896
▁МИЛЛИАРДА	-10.3897
▁ЗАМЕТ	-10.3899
▁ЭСТОНСК	-10.39
▁РУКЕ	-10.3909
▁СК	-10.3912
ДАВАТЬ	-10.3927
▁ПАШ	-10.3931
▁ВЗЯЛ	-10.3939
ИНГ	-10.3951
▁НЕБОЛЬШО	-10.3959
▁ОТДЕЛЬН	-10.3964
▁ДОЛГИ	-10.3969
▁КАКОМУ	-10.397
▁ЯЗЫКОВ	-10.3971
▁ФОТОГРАФ	-10.3987
▁ПРЕВРАЩА	-10.399
▁ГЛОБАЛЬНЫ	-10.3993
▁ПОЯВЛЕНИЕ	-10.3995
ЦИИ	-10.4006
ДР	-10.4021
ЖА	-10.4026
МОГЛА	-10.4035
▁ЗАДАЮТ	-10.4037
▁ФИЗИК	-10.4041
▁ГАРМОНИ	-10.4042
▁ПОЛУЧАЮ	-10.4044
АЦИИ	-10.405
▁ПРОГРАММИСТ	-10.4052
▁ПРОШ	-10.4059
ВЕН	-10.4069
▁СИДЯ	-10.4072
ЖУ	-10.408
▁СРАВНЕНИ	-10.4085
▁ЖЕНСК	-10.4094
▁ОТПУСК	-10.4107
▁СТИМУЛ	-10.4108
ГДЕ	-10.411
▁НАРОДА	-10.411
▁ТРУБ	-10.4118
▁ПОКАЗАН	-10.4124
▁СЕМЕЙ	-10.4137
▁ТЕЛЕФОНА	-10.4147
▁АВТОРИТЕТ	-10.415
ДАЙТЕ	-10.4159
▁ЧИСЛО	-10.4162
▁ПОМОГАЛ	-10.4176
▁ЭКЗАМЕН	-10.4183
▁АЛГОРИТМ	-10.4184
▁ОРГАН	-10.4192
▁МАНИПУЛИРУ	-10.4194
▁ЗАБОР	-10.4202
▁ОТКРЫТИЕ	-10.4206
▁ФОРМА	-10.4214
▁ПРЕСТУПНИК	-10.4216
▁ПОЯВЛЯ	-10.4217
▁ПРИЗНАТЬ	-10.4222
▁АККАУНТ	-10.4224
▁АНЕКДОТ	-10.4224
▁КИНЕМАТОГРАФ	-10.4224
▁ПОДДЕРЖКУ	-10.4224
▁ПОНЕДЕЛЬНИК	-10.4224
▁ПРИСУТСТВУЕТ	-10.4224
▁ТВОРЧЕСТВА	-10.4224
▁ТЕЗИС	-10.4224
▁КРИТИЧЕСКО	-10.4224
▁ДЕВЯТЬ	-10.4224
▁РАМКИ	-10.4224
▁ФОТОГРАФИЕЙ	-10.4224
▁ОПЕРАЦИЯ	-10.4224
▁ДЕТЯХ	-10.4224
▁НАХОДИТЕСЬ	-10.4224
▁СТОИМОСТЬ	-10.4225
▁ЗАМЕЧАТЕЛЬНЫЕ	-10.4225
▁ТОЧКУ	-10.4225
▁ПОПРОБУЕМ	-10.4225
▁УЧНОГО	-10.4225
▁ПРАВДЫ	-10.4225
▁СТРЕМИТЬСЯ	-10.4225
▁НЕИНТЕРЕСНО	-10.4225
▁РОГОВИЦЫ	-10.4226
▁ПЕРЕДАВАТЬ	-10.4228
▁ВЫРОСЛА	-10.4228
▁РАЗГОВАРИВАЛ	-10.4228
▁СОЕДИНННЫ	-10.4228
ПРЕЖНЕМ	-10.4229
▁НАПРЯМУЮ	-10.4229
▁ТЕХНОЛОГИЮ	-10.4229
▁ВОВРЕМЯ	-10.423
▁ФОКУС	-10.423
▁АДРЕС	-10.423
▁ФАМИЛИ	-10.423
▁ТРУДА	-10.423
▁ПРИЗЫВАЮ	-10.4231
▁УСЛЫШАТЬ	-10.4231
▁ИЗМЕНЯЕТСЯ	-10.4232
▁ВЫРОСЛИ	-10.4232
▁СОЦСЕТИ	-10.4234
▁ПОВЕРИТЬ	-10.4234
▁ЕВРОПУ	-10.4234
▁СТОЛЬ	-10.4235
▁АРХИТЕКТУРУ	-10.4236
▁ЗАСТАВЛЯЕТ	-10.4237
▁СТИЛЬ	-10.4237
▁СОТРУДНИКОВ	-10.4238
ОЧКИ	-10.4241
▁ВИНЫ	-10.4241
▁ОКАЗЫВАЕТ	-10.4242
▁НОГАМИ	-10.4242
▁РОЖДАЕТСЯ	-10.4243
▁ЗАРАБАТЫВАТЬ	-10.4243
▁ИНВАЛИДНОСТЬЮ	-10.4243
▁УМЕЕМ	-10.4245
▁СДЕЛАНЫ	-10.4248
▁ГРУБО	-10.4248
▁ЗАНЯТИЯ	-10.425
▁ПЕРЕДАТЬ	-10.4252
▁ОТКРЫТЫ	-10.4252
▁УЧИМ	-10.4253
▁ДУШУ	-10.4254
▁КОНТРОЛЬ	-10.4257
▁УСПЕШНЫМ	-10.4257
▁ДУМАЕШЬ	-10.4257
▁СЛУЧАЕТСЯ	-10.4259
▁СЛЕДСТВИЕ	-10.4259
ПЛО	-10.4261
ОСТЬЮ	-10.4262
▁ПОЛОВИНОЙ	-10.4264
▁СЛУЧАЯХ	-10.4265
▁НАРОДОВ	-10.4265
▁СТЕНЫ	-10.4268
▁ОПРЕДЕЛЯЮТ	-10.4268
▁ВОЛОСЫ	-10.4269
▁СОЗДАМ	-10.427
▁ТАКСИ	-10.427
▁ЕДА	-10.4273
▁ПРОВОДИТЬ	-10.4275
▁ЗНАЧИТЕЛЬНО	-10.4275
▁АРХИТЕКТОРЫ	-10.4276
▁КВАРТИРУ	-10.4276
▁МИЛ	-10.4276
▁ИСХОДЯ	-10.4279
▁ПРИЯТНЫ	-10.428
▁СЛУЧАЕВ	-10.4282
▁СПИСКИ	-10.4285
▁УБЕДИТЬ	-10.4287
▁НАЛИЧИЕ	-10.4289
▁БУМАГИ	-10.429
▁ВЕРНУТЬ	-10.4293
▁ОЧЕВИДНО	-10.4293
▁ЗАРАБОТАЛ	-10.4294
▁ПОЗВОЛИЛ	-10.4294
▁ГЕРОИ	-10.4295
▁БЛАГО	-10.4297
▁ПРЯМ	-10.4301
▁ПРИМЕНЯТЬ	-10.4301
ДИТЬ	-10.4305
СТАНОВИМСЯ	-10.4311
▁ЛИЗА	-10.4313
ЧИТ	-10.4322
▁ВСТРЕТИЛ	-10.4323
▁ПРЕДЛАГАЮТ	-10.4328
▁БРАК	-10.4335
▁МАТЕРИАЛ	-10.4337
▁РОМАН	-10.4337
▁ПРОБЛЕМЕ	-10.4342
РАВ	-10.4345
▁ТЯЖЛО	-10.4347
▁ГЛУБОКИ	-10.4349
▁РЕША	-10.4352
▁ПОЕХАЛИ	-10.4353
▁БЕГАТЬ	-10.4355
▁НАУК	-10.4356
▁ПРОЦЕССОВ	-10.4363
▁ВОЗДУХА	-10.4372
▁СЫНА	-10.4374
▁ТУР	-10.4383
ИСТ	-10.4384
▁ТРАТИТЬ	-10.4388
▁КОЛИЧЕСТВЕ	-10.4388
▁СТАВИЛ	-10.4389
▁МУСОРА	-10.44
▁ОЧКИ	-10.4402
▁ПОСТАВИЛИ	-10.4416
▁РАЗРАБОТАЛ	-10.4423
▁СЛОВУ	-10.4425
ЛЕТНИ	-10.4429
▁ДОПОЛНИТЕЛЬНЫ	-10.444
ИЛОСЬ	-10.4441
▁РАСХОД	-10.4443
▁ТРАДИЦИОННО	-10.4449
▁УДОВОЛЬСТВИЕМ	-10.4451
▁ВКЛЮЧАЕТ	-10.4466
▁ТРАТИТ	-10.4469
▁ХОДИТЕ	-10.4471
▁ГОТОВА	-10.4472
▁ГОСТИ	-10.4473
▁ЦЕНТРА	-10.4478
▁СОН	-10.4489
КОР	-10.4494
ХОТЕЛОСЬ	-10.4495
▁МИНУТУ	-10.4496
▁ЖЕНЩИНАМ	-10.4506
▁МЕТОДИК	-10.4513
▁ОТКРЫТО	-10.4516
▁ОБЫЧН	-10.4519
▁ХУДОЖЕСТВЕННЫ	-10.452
▁РАЗВИТЫ	-10.452
▁ВЗРЫВ	-10.4528
▁БЛИЖ	-10.4536
▁НАЦИОНАЛЬНО	-10.4538
▁ШТУК	-10.4538
▁ОБРАЗОВАНИЕМ	-10.4548
▁ШКОЛЬН	-10.456
▁ЧЕЛОВЕЧЕСК	-10.4579
ШКА	-10.4589
ИМИ	-10.4591
▁ИЗВЕСТНЫЙ	-10.4597
ТУР	-10.46
▁ПОЛИТИЧЕСК	-10.4605
ДО	-10.4617
▁ПРОДУКТА	-10.464
▁ДОМАШНЕ	-10.4642
▁ШУТКА	-10.4649
▁МОЗГИ	-10.466
ВЯЗАНЫ	-10.466
▁ЗАНЯТ	-10.4676
▁СТРЕСС	-10.4688
▁КОНТРАСТ	-10.4694
▁ВНЕШНИМ	-10.4696
ТЕР	-10.4702
ЩИХ	-10.4703
ЖЕН	-10.4704
▁ПРЕДСТАВЛЯЕТ	-10.4707
▁ТРЕТЬ	-10.4718
ШН	-10.4722
▁КУЧ	-10.4731
▁МАГАЗИНЕ	-10.4735
▁ОБЩЕЕ	-10.4746
▁ГАЗ	-10.4748
▁ПРОВОДИТ	-10.4753
▁КОН	-10.4754
▁КЛАССНЫ	-10.4756
▁КУПИЛ	-10.4766
▁ЖИВОТ	-10.4772
▁ОБИД	-10.478
▁ИНТЕРЕСУЕТ	-10.4781
▁УСЛУГ	-10.4784
ПЛ	-10.4787
ЛОЖИТЬ	-10.4787
▁ВСПОМИНАЮ	-10.4803
АШУ	-10.4806
▁КОМФОРТНО	-10.4807
ДАТСЯ	-10.4817
▁ПРОСТИТ	-10.4818
▁ЛИШНИ	-10.4822
▁ДИПЛОМ	-10.4829
▁ЧУЖИ	-10.4835
▁УЩЕРБ	-10.4841
▁ВСПОМИНА	-10.4841
▁АЛЕКСАНДР	-10.4843
▁УЧНЫМ	-10.4847
▁ЖИВОТНЫМ	-10.4849
▁ФОРМУ	-10.4853
▁ЗРЕНИЕ	-10.4867
▁РОДИОН	-10.4877
▁КВАРТИР	-10.4883
▁БОГАТЫ	-10.4883
▁ПРИЧИНЕ	-10.4886
СПОСОБЕН	-10.4887
ГЛЯДЯ	-10.4891
▁КОНФЛИКТ	-10.4892
▁НОРМА	-10.4895
▁ГРУДНО	-10.4899
▁ПИТА	-10.4906
ВЕЛА	-10.4907
▁РОССИЯ	-10.4907
▁ДИАГНОЗ	-10.4913
▁СОЛИ	-10.4915
▁УГРОЗ	-10.4916
▁СКОРОСТЬ	-10.4918
▁АКТИВНЫ	-10.4919
▁ПОТЕНЦИАЛ	-10.4922
▁МОД	-10.4922
▁ЗАНИМАЕТ	-10.4925
БЛИЖЕ	-10.4927
▁ГЛОБАЛЬН	-10.4928
▁ОКРУЖАЮЩИМ	-10.4934
▁МУЗЫКАЛЬНО	-10.4934
▁МЯЧ	-10.4936
▁ИМПУЛЬС	-10.4938
▁1015	-10.4938
▁АВТОМОБИЛЬ	-10.4938
▁БАЛУЮЩИЕСЯ	-10.4938
▁ДЖИНСЫ	-10.4938
▁ДОЛЬШЕ	-10.4938
▁ЕЖЕГОДНО	-10.4938
▁КНИЖКУ	-10.4938
▁КОМПАНИЕЙ	-10.4938
▁МОСКВУ	-10.4938
▁НЕОБЯЗАТЕЛЬНО	-10.4938
▁ОДНОКЛАССНИК	-10.4938
▁ПОДПИСИ	-10.4938
▁ПОДРОБНЕЕ	-10.4938
▁ПРОФЕССИЮ	-10.4938
▁РЕЙТИНГ	-10.4938
▁ОТЧАСТИ	-10.4938
▁ПОПРОСИЛ	-10.4938
▁КУХНЕ	-10.4938
▁СУДЬБЫ	-10.4938
▁ГОВОРИШЬ	-10.4938
▁ДЕВОЧКУ	-10.4938
▁ПРИРОДА	-10.4938
▁ЭКОНОМИКА	-10.4938
▁БОЛЕЗНИ	-10.4938
▁ПРИНЦИПИАЛЬНО	-10.4938
▁ИСПОЛЬЗОВАНИЯ	-10.4938
▁ЗАГЛЯНУТЬ	-10.4939
▁УСИЛИЯ	-10.4939
▁ПОСТРАДАВШИЕ	-10.4939
▁ЛЮБИШЬ	-10.4939
▁ПОЛУЧАЛОСЬ	-10.4939
▁ЗАДУМАЙТЕСЬ	-10.4939
▁АНАЛИЗИРОВАТЬ	-10.4939
▁ПИТАНИЯ	-10.4939
▁НЕФТЬ	-10.494
▁КОНТРОЛИРОВАТЬ	-10.494
▁ОСТАЛЬНЫХ	-10.494
▁ОРГАНИЗОВАТЬ	-10.494
▁ПОЛЬЗУЕТЕСЬ	-10.494
▁КУРИТЬ	-10.494
▁ДУМАЙТЕ	-10.494
▁ЛУЧШИЕ	-10.494
▁ЕЗДИТЬ	-10.4941
ННОГО	-10.4941
▁СТАЛКИВАЕМСЯ	-10.4942
▁БОЙТЕСЬ	-10.4942
▁КРАСОТЫ	-10.4943
ВР	-10.4943
▁РУССКОГО	-10.4943
▁ЗАДУМАТЬСЯ	-10.4943
▁ЗАКАНЧИВАЕТСЯ	-10.4944
▁ВОДЕ	-10.4944
▁ЗАЛОЖЕН	-10.4945
▁ПРОВЕРИТЬ	-10.4946
▁СЛЕДУЮЩЕМ	-10.4947
▁КОТИКОВ	-10.4948
▁ГОЛОВОЙ	-10.4948
▁НАСТОЯЩЕЙ	-10.4948
▁БОЛЬНИЦЫ	-10.4949
▁ДОСТУПНО	-10.4949
▁ПЕРЕЙТИ	-10.495
▁ПРИНИМАЕТ	-10.495
▁СТРАШНАЯ	-10.495
▁ТЕЛУ	-10.4951
▁СЕРЬЗНАЯ	-10.4952
▁ОПИРА	-10.4952
▁КРОВЬ	-10.4952
▁ЗАНИМАЛИСЬ	-10.4952
▁ПРЕДПОЛАГА	-10.4953
▁ПРОБОВАЛ	-10.4953
▁ОСОБЕННОСТИ	-10.4955
▁2030	-10.4955
▁ДЕЙСТВУЕТ	-10.4955
▁ПЕРЕДАТСЯ	-10.4955
▁КРАСИВЫЙ	-10.4955
▁КОНКУРЕНЦИИ	-10.4955
▁РОДСТВЕННИКИ	-10.4955
▁СЛУЧАИ	-10.4956
ПРИНТЕР	-10.4957
▁СТРАДАЮТ	-10.4958
▁ДОВЕРЯТЬ	-10.4959
▁ВУЗ	-10.496
▁ВРАЧА	-10.496
▁ОБЩЕСТВЕННЫ	-10.4962
▁ЦИВИЛИЗАЦИИ	-10.4963
▁ПРАКТИКИ	-10.4963
▁СПЕЦИАЛИСТОВ	-10.4964
▁ВАЖН	-10.4964
▁ПРОЦЕНТОВ	-10.4964
▁ИГРАЮТ	-10.4965
▁АТМОСФЕРУ	-10.4966
▁РАСТУТ	-10.4967
▁СКОРОСТИ	-10.4969
▁ПРОИЗВЕДЕНИЯ	-10.497
▁СТРУКТУРУ	-10.4972
▁РОДНОЙ	-10.4973
▁БЕСПЛАТНО	-10.4973
▁ВОДОЙ	-10.4975
▁ПАРНИ	-10.4976
ТРА	-10.4979
▁ПРОДОЛЖАЕТСЯ	-10.4981
▁ЦЕПОЧКА	-10.4981
▁ВЫШЕЛ	-10.4983
▁БЛИЗКИМИ	-10.4984
▁ОТКРЫЛ	-10.4984
СЕЛ	-10.4987
▁БЕРЕГУ	-10.4987
НЕСУТ	-10.4988
▁ОБСУЖДА	-10.4988
▁УМЕЛ	-10.4989
▁ЭЛЕМЕНТЫ	-10.4989
▁ДЕРЕВНЕ	-10.4994
▁ПРАКТИКЕ	-10.4994
▁ЗАРПЛАТА	-10.4995
▁УРОК	-10.4995
▁ПРЕДСТАВИЛИ	-10.4996
▁ЧЕРТЫ	-10.4997
▁СТАРАЮСЬ	-10.4999
▁ПОПАДАЕТ	-10.5
▁МУЛЬТИК	-10.5002
▁МЕДИЦИНА	-10.5002
▁ФЕСТИВАЛЬ	-10.5005
▁ПОМОГУТ	-10.5008
▁ЧУДЕСНЫ	-10.5008
▁СТАВЯТ	-10.501
▁ПОИСКАХ	-10.501
▁ЗНАКОМСТВ	-10.501
▁РОБОТЫ	-10.5016
▁ПОДВЕРГА	-10.5017
▁ИНСТАГРАМЕ	-10.5019
▁КАЖДЫ	-10.502
▁ЧАТ	-10.5022
▁КОРМИТЬ	-10.5022
▁ЧЕМУТО	-10.5026
▁НОВОМ	-10.5026
▁БОЛЕЮ	-10.5028
▁ЛЕСУ	-10.5035
▁ВИЗУАЛЬНО	-10.5035
▁ПАРАЛЛЕЛЬНО	-10.5035
▁ЯВЛЕНИЯ	-10.5036
▁МУКА	-10.5043
▁ПРОХОДИЛИ	-10.5044
▁ПОТЕРЯЛ	-10.5044
ДАЮТ	-10.5047
▁ПРОГРАММА	-10.5049
▁УЛЫБА	-10.5055
▁ПОЛУ	-10.5056
▁ПОЙМТЕ	-10.5056
ЖЕ	-10.5057
▁КАТЕГОРИИ	-10.506
▁НИЗКО	-10.5063
▁ПРОШЛА	-10.5063
▁ВОПРОСА	-10.5067
▁ЖЕРТВА	-10.5074
▁ЛИШНЕ	-10.5078
▁СПОСОБОВ	-10.5079
▁ШКОЛ	-10.5082
▁СКАЗКА	-10.5084
▁СЛОЖНЫЕ	-10.5084
▁ВЛЕВО	-10.5085
▁ЗЕРКАЛО	-10.5092
КЛАДЫВАТЬ	-10.5093
▁РАБОЧИЙ	-10.5096
▁ПРЕДПОЛОЖИ	-10.5097
ЧКИ	-10.5103
▁ПРОВОДЯТ	-10.5104
▁ОТЛИЧНЫ	-10.5107
▁ПОСТРОИЛ	-10.511
▁ВОЙНУ	-10.5112
▁МОСКОВСКО	-10.5119
▁ТРАНЗИСТОР	-10.5124
▁ПРОВОДИ	-10.5134
▁НЕГАТИВНЫЕ	-10.5135
▁СОБИРАЮТ	-10.5139
▁ТЕХНОЛОГИЧЕСКИ	-10.5139
▁ЖЕНЩИНЕ	-10.5145
▁СВОБОДНЫ	-10.515
▁АНТРОПОЛОГ	-10.5156
▁ГЛАВ	-10.5163
▁БУДУЩИМ	-10.5163
▁РЕАЛЬНЫЕ	-10.5164
▁ПИТЬ	-10.5166
▁ПОТЕРЯТЬ	-10.517
▁СМЕ	-10.5171
▁КУЛЬТУР	-10.5173
▁ПРОДЛИ	-10.5179
▁СЧТУ	-10.5182
▁НЕГАТИВНЫ	-10.5188
▁ПЛОХОГО	-10.5188
▁ОГОНЬ	-10.52
▁ХЛЕБА	-10.5209
▁ПЛОХОЙ	-10.5211
▁ЛЮБИМЫМ	-10.5212
▁ОДИНАКОВО	-10.5217
▁ЛЕЖАЛ	-10.5221
ВЕЛИ	-10.5225
▁ПОВТОР	-10.5225
▁ОТЛИЧА	-10.5229
▁РОД	-10.523
▁БЛ	-10.5236
▁НАБЛЮДАЮ	-10.5241
▁ЖЕЛА	-10.5249
▁ВЕРНМ	-10.525
▁РАЗУМЕ	-10.5258
▁ВОПРОСОМ	-10.5259
▁УЧИТЫВА	-10.527
▁МАЛЫ	-10.5271
▁БИЗНЕСЕ	-10.5274
▁ЛИСТ	-10.5279
ТОРУЮ	-10.5281
▁НОРМАЛЬНЫ	-10.5282
▁УХОД	-10.5292
▁ГЕНА	-10.531
▁РЕГИОН	-10.5324
▁ЭКСПЕРТ	-10.5335
▁РУ	-10.5348
▁СЕКСУАЛЬНО	-10.5351
АЕТСЯ	-10.5363
▁СОЮЗ	-10.5364
▁МИРОВЫ	-10.5365
▁ЗАД	-10.5372
▁ЗАЩИЩА	-10.5376
▁ГОРОДУ	-10.538
▁ЭТАПЕ	-10.5385
ПУСТИТЬ	-10.5387
▁СОЗДАЛА	-10.5402
▁ВОЗНИК	-10.5407
ПИСЫВАТЬ	-10.5425
ПРО	-10.5437
▁ПОИСКА	-10.5442
▁ЗАС	-10.5469
▁ЛУН	-10.5472
ВОДЯТ	-10.5472
▁ДНЕВНИК	-10.5476
▁ПОЗВОЛ	-10.548
ЧУ	-10.5487
▁КОЛЛЕГ	-10.5502
ЫН	-10.5508
▁ЛЕТОМ	-10.5509
ННЫМ	-10.5512
ОСТАВЛЯЕТ	-10.5514
▁ВРЕД	-10.5522
▁ПЕРЕЖИВА	-10.5523
▁ПОДХОДИЛ	-10.5529
▁ПРИСОЕДИНИ	-10.5542
▁ОЗРА	-10.5551
▁ПРИЕЗЖАЛ	-10.5551
▁БР	-10.5552
▁АНТИ	-10.5552
▁ПОХОЖ	-10.5565
▁СЕРИ	-10.557
▁СТИХИ	-10.5574
ЮЩЕЙ	-10.5576
АТЕЛЬ	-10.5578
▁ТУРИСТИЧЕСК	-10.5583
▁МУЛЬТФИЛЬМ	-10.559
▁ГЛАВНО	-10.5592
КЛАДЫВА	-10.5594
▁СИЛЬНЫМ	-10.5594
▁НАЗЫВАЛИ	-10.5595
ЧЕСК	-10.56
▁БРЕНД	-10.5612
ЬЮ	-10.5619
▁МЕРОПРИЯТИЯ	-10.5646
РАБ	-10.5647
БИРАЮТ	-10.5648
▁НАЧИНАТЬ	-10.5653
▁ФИЗИЧЕСКИМ	-10.5655
▁НАУЧН	-10.5657
ДАВАЛИ	-10.566
▁СКАНДАЛ	-10.5664
▁ДВОЙН	-10.5672
НГ	-10.5678
▁ЛЕ	-10.5681
▁УСПЕЛ	-10.5682
▁МОЛЕКУЛ	-10.5686
ИЛО	-10.5686
▁РОДИТЕЛЬ	-10.5693
▁ПОДАР	-10.5693
▁ПРИНЕСЛ	-10.5694
▁ГОТОВИТЬ	-10.5694
▁ПЕЧАТЬ	-10.5694
▁ВЕРОЯТНО	-10.5703
▁АУДИТОРИЯ	-10.5707
▁ДЕКАБР	-10.5707
▁ЛОГИЧНО	-10.5707
▁ОТМЕТИТЬ	-10.5707
▁ПОИГРАТЬ	-10.5707
▁ПОТРЕБНОСТЬ	-10.5707
▁ПРИСУТСТВУЮЩИ	-10.5707
▁РАБОТОДАТЕЛ	-10.5707
▁ИНТЕРФЕЙС	-10.5707
▁СОПРОТИВЛЯ	-10.5707
▁ИМПЕРАТОР	-10.5707
▁ЛОКАЛЬНО	-10.5707
▁КЛЕТКЕ	-10.5708
▁НИЧТО	-10.5708
▁МЫСЛЕЙ	-10.5708
▁СОСУД	-10.5708
▁СПРАВИТЬСЯ	-10.5708
▁ТИРАН	-10.5708
▁ЛАБОРАТОРИИ	-10.5708
▁ФРАНКЛИН	-10.5708
▁СРЕДНЕВЕКОВЬЕ	-10.5708
▁СЛУЧИЛАСЬ	-10.5708
▁АКЦИИ	-10.5708
▁ИСТОРИК	-10.5708
▁ИЗДАНИЯ	-10.5708
▁ЯРОСТЬ	-10.5708
▁СЛЫШИМ	-10.5708
▁УДАР	-10.5708
▁ПОЧВ	-10.5708
▁ОСТАНЕТСЯ	-10.5708
▁ПООБЩАТЬСЯ	-10.5708
▁УВЕЛИЧИВАЕТ	-10.5709
▁СУЩЕСТВОВАТЬ	-10.5709
▁НАСТОЯЩЕГО	-10.5709
▁МОЛОДЕЦ	-10.5709
▁РЕАГИРУЕТ	-10.5709
▁КАРТИНКЕ	-10.571
▁ВОСПИТАНИЕ	-10.571
▁ЕДЯТ	-10.571
▁РОДНЫХ	-10.571
▁ПЛОХИЕ	-10.5711
▁КАРМАН	-10.5711
▁ФОТОГРАФИЙ	-10.5711
▁ВЗАИМОДЕЙСТВОВА	-10.5711
▁ВВЕРХ	-10.5711
▁ИЗУЧАЕМ	-10.5711
▁ФОРМИРОВАНИ	-10.5712
▁СРОК	-10.5713
▁КАРЬЕР	-10.5714
▁ПИТАТЬСЯ	-10.5714
▁РАЗВИВАЮТСЯ	-10.5714
▁ВЗГЛЯНУ	-10.5714
▁УЧБУ	-10.5714
▁ВЕТЕР	-10.5715
▁ПРИБЫЛЬ	-10.5715
▁ЧРЕЗВЫЧАЙНО	-10.5715
▁РАЗБИРАТЬСЯ	-10.5715
▁ПОЛОЖЕНИЕ	-10.5716
▁ОТДОХНУТЬ	-10.5716
▁ПОТРЕБЛЕНИЯ	-10.5716
▁ПРИДУТ	-10.5716
▁ПОКОЛЕНИЮ	-10.5716
▁НАСТОЯЩЕЕ	-10.5716
▁ВЫЙДЕТ	-10.5717
▁СОСЕДНЕ	-10.5718
▁ВОЗНИКЛИ	-10.5718
▁РЕАЛИЗАЦИИ	-10.5719
▁ПРИВОДЯТ	-10.572
▁ДОКАЗАТЬ	-10.572
▁ЗАПАС	-10.572
▁ТРУДНОСТИ	-10.5721
ЕРЫ	-10.5721
▁АТАКА	-10.5722
▁МАТЬ	-10.5723
▁МОРЯ	-10.5724
▁СОЛНЫ	-10.5724
▁АЛЕКСЕЙ	-10.5724
▁ОСЕНЬ	-10.5725
▁ЭВОЛЮЦИИ	-10.5726
▁СПРОСИЛ	-10.5727
▁СЛЫШУ	-10.5728
▁42	-10.5729
▁ЦИФРЫ	-10.573
▁СТАНДАРТЫ	-10.573
▁ПРЕДЛАГАЕТ	-10.5731
▁КИСЛОРОДА	-10.5733
▁ЗАВИСИМОСТЬ	-10.5733
▁ЭМОЦИЯМИ	-10.5736
▁КОЛЯСКЕ	-10.5737
▁ВЫРАЖЕНИЕ	-10.5738
▁ПЕРСОНАЛЬНЫ	-10.5738
▁ЕДЕТ	-10.5738
▁МНЕНИЮ	-10.5738
▁ТЕОРЕТИЧЕСКИ	-10.5739
▁ПОКУПКИ	-10.574
▁ПРОХОДЯТ	-10.574
▁ЛАЙКОВ	-10.5742
▁МОЛЕКУЛЫ	-10.5747
▁БРЕНДЫ	-10.5747
▁ВЗРОСЛЫМ	-10.5748
▁СБОР	-10.5749
▁МАТЕРИАЛЫ	-10.5752
▁РОТ	-10.5752
▁ПРОДА	-10.5761
▁КОЛЛЕГАМИ	-10.5761
▁НАВЫКОВ	-10.5761
БЕГУТ	-10.5766
▁АМЕРИКЕ	-10.5767
▁ПРОСИЛ	-10.5768
▁СЧАСТЛИВОЙ	-10.5774
▁КЛИМАТА	-10.5776
▁ДЕТАЛЬ	-10.5776
▁ПОТЕНЦИАЛЬНО	-10.5777
▁ФРАЗУ	-10.5778
▁АЭРОПОРТ	-10.5779
▁ОБНАРУЖИЛ	-10.578
▁СКАЖУТ	-10.5782
▁УДИВИТЕЛЬН	-10.5783
▁ЗВЗДЫ	-10.5785
▁ИНДИВИДУАЛЬНО	-10.5787
▁ПРИД	-10.5788
▁КОПИЯ	-10.5788
▁ВЫЗЫВАЮТ	-10.579
▁ПРИНЯЛА	-10.5792
▁ПОЛОВИНЫ	-10.5795
▁ХОРОШЕМ	-10.5795
НОСИТЬ	-10.5799
▁ФАКТОВ	-10.5799
▁ТРАТИ	-10.58
▁ЗАПОМИНА	-10.5802
▁СЛЕП	-10.5803
▁ВИРУСА	-10.5804
▁ПОШЛО	-10.5806
ИЗАЦИЯ	-10.5806
НКИ	-10.5808
▁ВАРИАНТЫ	-10.581
▁УСПЕШН	-10.5812
▁ЭСТОНСКОМ	-10.5814
▁ПОМОГАЛИ	-10.5814
ЕХАЛА	-10.5815
▁ЖЕНЩИНОЙ	-10.5815
▁УДИВЛЕНИЕ	-10.5815
▁ИГРАЛИ	-10.5816
▁ИГР	-10.582
▁ДУШЕ	-10.5822
▁ОСНОВАНИЯ	-10.5827
▁ПОДДЕРЖИВАЕТ	-10.583
▁СТАРАЯ	-10.5832
▁АЛЛ	-10.5833
▁ВОСПРИНИМАЮТ	-10.5834
▁НАХОДЯ	-10.5834
▁СВОБОДЕ	-10.5836
▁РАДА	-10.5839
▁СТРУКТУРЕ	-10.584
▁ИНСТРУМЕНТОМ	-10.5841
▁ТВОЯ	-10.5846
▁ЧРН	-10.5846
ЛОЖИЛИ	-10.5847
▁РЕАЛЬНОСТЬЮ	-10.5847
▁РУССКИЕ	-10.5854
▁СОЛНЕЧНЫ	-10.5856
▁ПИСАЛА	-10.5857
▁ПР	-10.5858
▁УСПЕШНЫМИ	-10.5859
▁ПОСМОТРЕЛИ	-10.5859
ЩАЯ	-10.5865
▁ТЕЛЕФОНЫ	-10.5865
▁НАСЛЕДИЕ	-10.5866
▁ЭКСПЕРИМЕНТЫ	-10.5867
▁ДИСК	-10.5881
▁ЯЗЫКОМ	-10.5887
▁СПОРТИВНЫ	-10.5888
▁АГА	-10.589
РАМ	-10.5891
▁ОБСТОЯТЕЛЬСТВА	-10.5892
▁ДОКУМЕНТ	-10.5896
▁СМЫСЛОВ	-10.5897
▁ОБРАЗУ	-10.5903
▁НОСИТЬ	-10.5903
▁ФАКТУ	-10.5908
▁ЭЛЕКТРОННО	-10.5911
АЕМСЯ	-10.5912
▁СОЛНЫЕ	-10.5912
▁ПРОШЛ	-10.5913
▁ДАЙ	-10.5922
НЯТЬСЯ	-10.5923
▁ЧУВСТВ	-10.593
▁ОТКРЫЛА	-10.5943
▁ОТЧТ	-10.5949
▁ЛОЖ	-10.5953
АЛАСЬ	-10.5958
▁СЛО	-10.5973
▁УЙТИ	-10.5974
▁КОНКУРС	-10.5982
▁БАБ	-10.5992
▁ЖЕНЩИНУ	-10.5993
▁ГОСУДАРСТВ	-10.5995
▁АНДРЕ	-10.5997
▁РОСТА	-10.5999
▁ДРУГОМУ	-10.6005
▁БА	-10.6007
▁ЦЕНТРАЛЬНО	-10.6013
ТКИ	-10.6016
СКО	-10.6018
НОМУ	-10.6021
НИКОВ	-10.6028
▁ВХОД	-10.6028
РОС	-10.603
ННОЕ	-10.604
▁ПЛАНЕТА	-10.6041
▁СНИМ	-10.6049
ОВИЧ	-10.6057
▁ВЕЛИК	-10.6059
▁УПАЛ	-10.6069
РАТНО	-10.6073
▁ЧЕЛОВЕКЕ	-10.6076
▁НАСТОЯЩИМ	-10.6082
▁РЕЗУЛЬТАТА	-10.6099
▁ПРОДОЛЖИ	-10.6101
▁КОЛИЧЕСТВ	-10.6106
▁ОСТАНУ	-10.6112
▁ПРИЧИНАМ	-10.6126
▁ЕВРОПЕЙСКИ	-10.6127
▁ОБЕД	-10.6135
ЩИЕ	-10.6138
▁НЕСТ	-10.6141
▁ВОЗМОЖНЫ	-10.6144
▁ПРАВИЛ	-10.615
▁ЗАКОНЧИЛА	-10.6152
14	-10.6168
ВИН	-10.6177
▁СТРАХИ	-10.6181
▁ДВУМ	-10.6181
▁ПЛОТНО	-10.6184
▁ОПЫТУ	-10.6184
▁САЙТЕ	-10.6193
▁УМИРА	-10.6196
▁МОСТ	-10.6216
▁ПРИНЯЛ	-10.6227
▁ПОСТАРА	-10.6229
БЕГАТЬ	-10.6232
▁ЗАШЛ	-10.6238
▁ЗНАК	-10.6238
▁ФИНАНСОВО	-10.6241
НИК	-10.6242
▁ПРОВЕРЯ	-10.6243
РЯ	-10.6247
АНЫ	-10.6256
СКУЮ	-10.6257
▁БЕРЕГ	-10.6262
▁РЕК	-10.6262
▁ШУМ	-10.6264
▁ШАГИ	-10.6267
▁ГОДАМИ	-10.6277
▁ЦЕЛЫ	-10.6278
▁ШИРОКО	-10.6301
▁ОРГАНИЗАЦИ	-10.6306
▁СОСЕД	-10.6308
ВАР	-10.6309
▁АГРЕССИ	-10.6311
▁ИСПОЛНИ	-10.6314
▁СПАС	-10.6325
ПИШИ	-10.6329
▁ЗАКОНЧИЛ	-10.633
▁ВОЛНУЕТ	-10.6336
▁УШЛ	-10.6338
ИЩЕ	-10.6341
▁ЗАНЯТИЕ	-10.6341
▁ВОЕННЫ	-10.6344
▁ЛЮБЫМ	-10.6345
▁ВЫБРОС	-10.6355
▁ПРОФЕССОР	-10.639
▁ПРЕДСТАВИТЕЛ	-10.6392
▁КАДР	-10.6393
▁ОСНОВА	-10.6394
ЗУ	-10.6397
▁ПОНИМА	-10.6405
▁КАЛАЧ	-10.6409
▁МНОГОЕ	-10.6415
АЖ	-10.6424
ИЗМ	-10.6426
▁ЗАКОНА	-10.6428
▁СТАВИТ	-10.6436
▁СОБИРА	-10.6437
▁СТОП	-10.644
▁КОНТЕНТ	-10.6443
▁ХОЛОДИЛЬНИК	-10.6443
▁ТОВАРИЩ	-10.6444
▁НАЧАЛЬНИК	-10.6448
▁ОБЕЩАЛ	-10.6448
▁СУПРУГ	-10.6453
▁НЕБОЛЬШ	-10.6455
▁ТВОРЧЕСКО	-10.6466
▁ГРУЗ	-10.6475
СКИ	-10.6477
▁ПЕРЕЙД	-10.6477
▁УМА	-10.6482
▁ПЕРСОНАЛ	-10.6483
▁ТЕКСТА	-10.6487
▁СИМВОЛ	-10.6491
▁ПРЕДСТАВЛЕН	-10.6494
▁ПОЯС	-10.6498
НСКОГО	-10.6499
▁ГЕР	-10.6499
▁МЫШЦ	-10.6502
▁КАНАЛ	-10.6507
▁ЗАЩИТИТЬ	-10.6509
▁ДЕЛЬФИН	-10.651
▁ТОЛСТ	-10.6514
▁ВОССТАНОВИТЬ	-10.6515
▁ОСОЗНАННО	-10.6519
▁ЖУРНАЛ	-10.6522
▁ОШИБ	-10.6522
▁ФЕСТИВАЛ	-10.6522
▁ЭЛИТА	-10.6527
▁ПОВЫША	-10.6527
▁ПРИЛОЖЕНИЯ	-10.6529
▁ИСТОРИЧЕСК	-10.6532
ЧАЮТ	-10.6539
▁РАДИКАЛ	-10.6539
▁ОПАСНО	-10.6539
▁ДИСЦИПЛИН	-10.6539
▁КОНСТИТУЦИ	-10.6541
▁ГАРДЕРОБ	-10.6541
▁ВАКУУМ	-10.6541
▁ВПОСЛЕДСТВИИ	-10.6541
▁ДЕВУШЕК	-10.6541
▁КОРПОРАЦИИ	-10.6541
▁МОСКВЫ	-10.6541
▁МУЗЫКЕ	-10.6541
▁НЕПРЕРЫВНО	-10.6541
▁ОКОНЧАНИ	-10.6541
▁ОПЕРАЦИЮ	-10.6541
▁ПОБЕДА	-10.6541
▁ПОБОЛЬШЕ	-10.6541
▁ПРОИЗОЙТИ	-10.6541
▁РАССВЕТ	-10.6541
▁РЕДАКЦИ	-10.6541
▁СУДЬБА	-10.6541
▁ТЕОРИЮ	-10.6541
▁ХВАТИТ	-10.6541
▁ЭРАТОСФЕН	-10.6541
▁ПАМЯТЬ	-10.6541
▁ШКАФ	-10.6541
▁ЗАРАБАТЫВАЮТ	-10.6541
▁ИСТОРИЕЙ	-10.6541
▁ПОСЧИТАТЬ	-10.6541
▁ЛЕЧЕНИЕ	-10.6541
▁ОРИЕНТИРОВАТЬСЯ	-10.6541
▁ПРЕСТУПЛЕНИЯ	-10.6541
▁СОЛНЦА	-10.6541
▁ЦЕННОСТЕЙ	-10.6541
▁ЭКОНОМИКИ	-10.6541
▁ЛГКИЕ	-10.6541
▁ДЕТСТВО	-10.6541
▁НАРИСОВАЛ	-10.6541
▁ЧРТ	-10.6541
▁ОБРАЗОВАНИЮ	-10.6541
▁КАЛЛИГРАФИЯ	-10.6541
▁ПОГОВОРИМ	-10.6542
▁ПОЗНА	-10.6542
▁ТАНЕЦ	-10.6542
▁СПОКОЙНЫ	-10.6542
▁ВЫЯСНЯЕТСЯ	-10.6542
▁СЛУХ	-10.6542
▁РАЗМНОЖАТЬСЯ	-10.6542
▁ГЕРОЯ	-10.6542
▁РАДИУС	-10.6542
▁ТЕРРИТОРИЮ	-10.6542
▁ПРЕДСКАЗАТЬ	-10.6542
▁ЛЖИ	-10.6543
▁ОКРУЖАЕТ	-10.6543
▁ПОЗИЦИЮ	-10.6543
▁ВОЗНИКЛО	-10.6543
▁ПРЕДПРИЯТИЯ	-10.6543
▁ТВОРИТЬ	-10.6543
▁ПЕРИОДИЧЕСКИ	-10.6543
АЮТСЯ	-10.6544
▁СЛОЖНАЯ	-10.6544
▁КАБИНЕТ	-10.6544
▁ЗАМЕЧАТЕЛЬНАЯ	-10.6545
▁ОСТАЮТСЯ	-10.6545
▁ПЫЛЬ	-10.6545
▁СТРОЙНЫЕ	-10.6545
▁ПРОЦЕДУРА	-10.6545
▁МИКРОБОВ	-10.6545
▁2011	-10.6546
▁СЧАСТЛИВЕЕ	-10.6546
▁НАПОМИНАЕТ	-10.6546
▁ЖИВОЕ	-10.6547
▁ОЖИДАЕТ	-10.6548
▁ОПЕРАТОР	-10.6548
▁ПЛАТФОРМ	-10.6548
▁ЗАРПЛАТУ	-10.6549
▁СТАЛКИВАЛИСЬ	-10.6549
▁СУЩЕСТВЕННО	-10.655
▁СЛЕДОВАТЬ	-10.6551
▁УНИКАЛЬНАЯ	-10.6551
▁ОКОНЧИЛ	-10.6552
▁ИДЕАЛЬНЫ	-10.6552
▁ЛЕНТ	-10.6553
▁ПРИНИМАЕМ	-10.6553
▁ЛЮБИМОЕ	-10.6554
▁ВЫИГРАЛ	-10.6554
▁ВТОРЫМ	-10.6555
▁СЛЕДУЮЩЕЙ	-10.6555
▁ВОЛОНТРОВ	-10.6555
▁ПРИЗНАКОВ	-10.6556
▁КРЕАТИВНОСТЬ	-10.6556
▁ИЗУЧАЕТ	-10.6556
▁НАЦИОНАЛЬНОСТИ	-10.6556
▁ИЗУЧЕНИЯ	-10.6556
▁ПОЗВОНИТЬ	-10.6557
▁ОНЛАЙН	-10.6557
▁СОСЕДЕЙ	-10.6557
▁ПАРНЯ	-10.6559
▁ДОЧКА	-10.6559
▁ОГРОМНЫЕ	-10.656
▁УСТАНОВКА	-10.6561
▁ПОСТУПКИ	-10.6562
▁КРАСНАЯ	-10.6562
▁ПАЛОЧК	-10.6563
▁СПОСОБНА	-10.6564
▁УШЛО	-10.6564
▁ВСЕВОЗМОЖНЫ	-10.6567
ИСКИ	-10.6567
▁ОБОРУДОВАНИЕ	-10.6568
▁ФОРМИРУЕТСЯ	-10.6569
▁ЗАЛЕЗ	-10.6569
▁ВЕДУЩИ	-10.657
▁ПАСПОРТ	-10.6572
▁150	-10.6572
▁БЕЖАТЬ	-10.6573
▁ИНВАЛИДОВ	-10.6573
▁РЕКЛАМУ	-10.6574
ЛОК	-10.6575
▁ИСКАЛА	-10.6576
▁ПОДГОТОВКИ	-10.6578
▁ПРОИЗВОДЯТ	-10.6578
▁ПРЕДСТАВЛЯ	-10.6578
▁ДОНЕСТИ	-10.6579
▁ПРИНИМА	-10.6581
▁БОЛ	-10.6582
▁СРЕДСТВАМИ	-10.6584
▁ЧАСТИЦЫ	-10.6584
▁ОСОЗНАНИ	-10.6587
КЛЮЧАЯ	-10.6589
▁ШЛО	-10.6589
▁ДАЛК	-10.659
▁ПОНЯТНЫ	-10.659
▁НАЛОГОВЫ	-10.6592
СТРОИМ	-10.6592
ОВАЯ	-10.6592
▁ЗДОРОВ	-10.6593
НИЕМ	-10.6594
▁ПОПРОБУЮ	-10.6594
▁ЗАБЫЛА	-10.6594
▁ПОПУЛЯРНЫ	-10.6594
▁ЖИВЫХ	-10.6595
▁ЗАНИМАЮТ	-10.6596
▁МИФЫ	-10.6598
▁УЛИЦЫ	-10.66
▁ИНТЕЛЛЕКТУАЛЬНЫ	-10.66
▁ОБЪЕКТОВ	-10.6605
▁ЧЕТЫРХ	-10.6606
▁КОМФОРТА	-10.6607
▁ПОВЕРХНОСТИ	-10.6607
▁Ц	-10.6613
▁СОЕДИНЕНИ	-10.6613
▁ОХРАН	-10.6616
▁УЧИТСЯ	-10.6616
▁КУРСЫ	-10.662
▁СОВМЕСТИТЬ	-10.6621
▁МЕТОДОМ	-10.6621
▁СОТРУДНИКИ	-10.6621
▁УСТРОЙСТВА	-10.6622
▁ТРАВМ	-10.6622
▁ГЕНЕТИКА	-10.6623
▁ВПРАВО	-10.6623
ЕЛА	-10.6624
▁МЕЧТЕ	-10.6624
▁ЗДОРОВЫМ	-10.6624
▁СПОСОБА	-10.6625
▁КАЗАХСТАНА	-10.6626
▁ЭКСПЕРИМЕНТОВ	-10.6631
▁УШЛИ	-10.6634
▁ПРОЖИВА	-10.6638
▁МУЖЧИНАМ	-10.6638
▁КОР	-10.664
ВЯЗ	-10.664
▁РАССТОЯНИЕ	-10.6641
▁СОЮЗА	-10.6642
▁ПАРИЖЕ	-10.6644
▁ТЕХНОЛОГИЯМИ	-10.6645
▁ЯСНО	-10.6648
▁УСЛУГИ	-10.6648
▁ОБЪЕКТЫ	-10.665
▁КУПИЛИ	-10.6651
▁КЛЕТКАХ	-10.6654
▁НЕКИМ	-10.6655
▁ХОЛОДНО	-10.6656
▁СЕСТЬ	-10.6657
СТАЛИСЬ	-10.6666
ХОДЯТ	-10.6667
▁ПРИНЯТИЕ	-10.6668
▁ФИНАНСОВОЙ	-10.6669
▁ШАГОВ	-10.6676
▁ФОНЕ	-10.6678
▁ПИК	-10.6679
▁ВЕЩЕСТВО	-10.6682
▁ЛУЧШЕМУ	-10.6683
МАН	-10.6683
ПРОСИТЬ	-10.6686
▁НОРМАЛЬНЫЙ	-10.6688
▁УКРАИНЕ	-10.6688
▁ВЫРОС	-10.669
▁РОЛИК	-10.6692
▁ОКРУЖЕНИЕ	-10.6692
▁ПРИНИМАЮТ	-10.6702
▁ТУРИСТИЧЕСКИ	-10.6705
▁ПОВТОРЯ	-10.6709
ЩЕГО	-10.6714
▁ОЗР	-10.6714
▁КОМАНДЕ	-10.6718
▁БИОЛОГИЧЕСКИ	-10.6722
▁ИНТЕРЕСНЫМИ	-10.6722
▁ВИЗ	-10.6724
▁УЧТ	-10.673
▁БЕЗОПАСНО	-10.673
ЖАТЬ	-10.6731
▁БАНКА	-10.6743
▁ПРОГРЕССА	-10.6747
▁ПРОЯВЛЯ	-10.6748
▁КОНКРЕТНОМ	-10.6751
ПРИДУМЫВАТЬ	-10.6752
▁МАТЕРИАЛЬНЫ	-10.6755
▁СЕРВИС	-10.6755
▁ПОКАЗАТЬСЯ	-10.6758
▁НЕПРИЯТНО	-10.6758
▁ДИРЕКТОРА	-10.6758
▁ПРОИСХОДИТЬ	-10.6769
▁ФИНАНСОВЫ	-10.677
ДОР	-10.6771
▁ОДЕТЫ	-10.6774
▁ОБЕСПЕЧИВА	-10.6778
▁ЗВУКИ	-10.678
▁ПРОЕКТОМ	-10.678
▁ИНТЕРЕСНЫМ	-10.6781
▁ЭЙ	-10.6783
▁ОТКРЫВАТЬ	-10.6785
ПАЛ	-10.6788
▁МОЛОЧНО	-10.6791
НЕСЛИ	-10.6793
▁ОП	-10.6795
▁БЫВАЛ	-10.6805
▁ОСНОВАНИ	-10.6806
▁ПОИСКОВ	-10.6808
ЖН	-10.6809
ЮЩАЯ	-10.6814
ЧК	-10.6819
▁МНЕНИЯ	-10.6821
▁СТРОГО	-10.6833
▁ТЯЖЛ	-10.6839
▁СОБСТВЕННЫМ	-10.6841
▁ИНДИВИДУАЛЬНЫ	-10.6842
▁СОВЕТСКИ	-10.6843
▁МЕЧТАЛИ	-10.6845
▁СФЕР	-10.6848
▁УГЛЕКИСЛО	-10.6849
▁СВЯТО	-10.6851
ЕЛО	-10.6859
▁ГОЛОСА	-10.6863
ЗВ	-10.6864
▁РЕПОСТ	-10.6868
▁ПЛА	-10.687
▁СЕВЕР	-10.6873
▁МОЗГУ	-10.6881
▁ЦВЕТОВ	-10.6885
▁ЯКОБ	-10.6885
▁СТОРОН	-10.6888
▁НАУЧИЛ	-10.6898
▁ИНСТИТУТА	-10.6903
▁КУРСЕ	-10.6916
▁ПСИХОЛОГ	-10.6925
▁ПОЕЗД	-10.6925
▁АНГЛИЙСКО	-10.6927
▁ДОКУМЕНТАЛЬНО	-10.694
▁КВАДРАТ	-10.6941
▁ПРИЕЗЖА	-10.6949
▁МОЛОДЖН	-10.6952
ЕНЬКО	-10.6953
ОВО	-10.6955
▁УБРАТЬ	-10.696
▁ЗВОНА	-10.6968
ЦИЯ	-10.6972
ТАН	-10.6974
▁ЖИЗНЕННО	-10.6981
▁ПРАВЫ	-10.6994
▁ВЕЛИКО	-10.6995
ЧЕК	-10.7002
▁ПОБЕДИ	-10.7008
▁ГРАНИЦЕ	-10.701
▁МАТЕРИАЛЬНО	-10.701
▁ГОЛОД	-10.702
▁ПРАВИЛАМ	-10.7032
▁ЧУВСТВОМ	-10.7033
▁ПОПЫТК	-10.7038
▁ОТНОШЕНИЯХ	-10.7039
▁КАЗАХСТАН	-10.7041
▁ЯПОНИ	-10.7044
▁ПОЛА	-10.7047
▁ПОХОЖА	-10.7047
ВЛЕЧЬ	-10.7064
▁ВСТРЕЧАЮ	-10.7066
▁АНАЛИЗ	-10.7067
▁НОС	-10.7067
▁ПРОДОЛЖА	-10.7069
▁СЮЖЕТ	-10.7071
ВАТЬСЯ	-10.7083
СТАЛИ	-10.7086
ЗНАВАТЬ	-10.7098
▁КАЙФ	-10.7099
▁ИЗОБРАЗИ	-10.7106
▁КОГДАЛИБО	-10.711
▁КЛИНИК	-10.7113
▁ПРОДОЛЖАЕ	-10.7116
▁ПЕРЕМЕН	-10.7125
▁СТРАНИЦ	-10.7127
▁СУЩЕСТВУЮЩИ	-10.7131
ЧКА	-10.7142
ПАДАЕТ	-10.7147
▁ОКАЗЫВА	-10.7148
▁ТЕЛОМ	-10.715
ВИТ	-10.7153
▁21	-10.7156
НИКИ	-10.7172
▁СЧИТАЛИ	-10.7173
ЛЕТНЕ	-10.7176
ЗВАТЬ	-10.718
▁ЧЕТЫР	-10.718
▁УЧАСТИ	-10.7181
▁ДВОР	-10.7198
▁НАДЕЛ	-10.7205
ВЗ	-10.7213
▁АВТОРА	-10.7215
ТИВ	-10.7216
НЕТ	-10.7218
▁ЧИСТ	-10.7223
▁УЧИТ	-10.7224
▁ДИАЛОГА	-10.723
▁ЧЕЛОВЕЧЕСКИ	-10.723
▁ЗАДУМА	-10.7232
▁ПРЕВРАТИТЬ	-10.7258
▁КОНЕЧН	-10.727
ЛЕТН	-10.7274
▁СТРОЧК	-10.7276
▁ТАНЦА	-10.7277
▁БУМАГ	-10.7284
▁ТОРГОВ	-10.7297
▁ЭМОЦИОНАЛЬНЫ	-10.7302
ННОЙ	-10.7314
ЕННО	-10.7316
▁ИГРАЛ	-10.7328
▁КНИГЕ	-10.7329
▁ТРОКАР	-10.733
▁РОЖДАЮТ	-10.7332
СИТЬ	-10.7333
▁БЛОГ	-10.7334
▁КЛАССИЧЕСКИ	-10.7337
▁ДОСТ	-10.7341
▁КАРНАВАЛ	-10.7343
▁ФОРМУЛ	-10.7347
СКА	-10.7349
▁ИДТЕ	-10.7355
▁ГЕНЕТИК	-10.7361
▁ПРОСТЫМ	-10.7361
▁ВЕДУ	-10.7366
▁ПОЗВОНИЛ	-10.7367
▁БИОЛОГИ	-10.7368
▁ПОЛИЦИ	-10.7371
▁СОЗДА	-10.7372
▁ОРУЖИЕ	-10.7375
▁ЖЕСТ	-10.7378
▁ШТАТ	-10.7382
▁МУЗЫКАЛЬН	-10.7382
▁РАБОТНИК	-10.7384
▁ДИ	-10.7393
▁СВЕРХ	-10.7396
▁ПОПУЛЯРНЫМ	-10.7397
ЗОВ	-10.7406
▁СУББОТ	-10.7406
▁КАПИТАЛ	-10.7417
ПУСТИЛИ	-10.7429
▁КАНДИДАТ	-10.7429
▁ПАРАДОКС	-10.7433
▁ПОКАЗЫВАЮ	-10.7435
▁СТОЛЕТИЯ	-10.7435
▁ОЖИДАЛ	-10.7438
▁ПРЫГА	-10.7442
▁ПЛАТЬЕ	-10.7444
▁КОЛЛЕДЖ	-10.7445
▁РАССКАЖИ	-10.7445
▁ПОДРОБНО	-10.7447
▁ФЕНОМЕН	-10.7447
▁БУХГАЛТЕР	-10.7448
▁ЭТАПА	-10.745
▁ПРЕКРАТИ	-10.745
▁АРГУМЕНТ	-10.745
▁БУДИЛЬНИК	-10.745
▁ЖИТОМИР	-10.745
▁ИСПЫТАНИЯ	-10.745
▁КОМПРОМИСС	-10.745
▁ОБЪЯСНИЛ	-10.745
▁ОДНОЗНАЧНО	-10.745
▁ОТРАСЛИ	-10.745
▁ПЕЧЬ	-10.745
▁ПОТРЕБИТЕЛЯ	-10.745
▁РЕАГИРОВАТЬ	-10.745
▁СЕКТАНТЫ	-10.745
▁СИТУАЦИЙ	-10.745
▁СООТВЕТСТВОВАТЬ	-10.745
▁ФАКУЛЬТЕТ	-10.745
▁ЦЕРКОВЬ	-10.745
▁ПИЩУ	-10.745
▁СТЕПЕНЬ	-10.745
▁УВИДИШЬ	-10.745
▁ПОЧИТАТЬ	-10.745
▁ДЕРЕВО	-10.745
▁ЕДИМ	-10.745
▁РАЗНООБРАЗНЫ	-10.745
▁МОЧЕВО	-10.745
▁ХОТЕТЬ	-10.745
▁МЕДАЛЬ	-10.745
▁ПОМИДОР	-10.745
▁ТЕРЯЕМ	-10.745
▁ИМЕНЕМ	-10.745
▁БЕШЕНСТВО	-10.745
▁ИННОВАЦИИ	-10.745
▁РАЗВИТИЮ	-10.745
▁ОСМАН	-10.745
▁ИЗУЧИТЬ	-10.745
▁ЖЕСТОКО	-10.745
▁ВЫУЧИТЬ	-10.745
▁РАЗВИТИИ	-10.745
▁ЯВЛЯЮСЬ	-10.7451
▁ИЗОБРАЖЕНИЯ	-10.7451
▁СЕГОДНЯШНЕГО	-10.7452
▁БЛИН	-10.7452
▁КОРОТКИЙ	-10.7452
▁ХИМИЧЕСКИ	-10.7452
▁БАНАЛЬНОСТИ	-10.7452
▁ЗАВИС	-10.7453
▁УЧИТЕЛЕМ	-10.7453
▁СОТРУДНИЧЕСТВО	-10.7453
▁ПРИГЛАШАЮТ	-10.7453
▁ПЛИТ	-10.7454
▁ИЗБАВИТЬСЯ	-10.7454
▁СПРАВЛЯТЬСЯ	-10.7454
▁РОДНЫЕ	-10.7454
▁ПРОИЗВОДИТЬ	-10.7454
▁ПЕРЕСТАНЬ	-10.7455
▁МОТИВАЦИЯ	-10.7455
▁РОДСТВЕННИКОВ	-10.7455
▁ОШИБКА	-10.7455
▁ПОМОГЛО	-10.7455
▁ПОЗИЦИИ	-10.7457
▁ВДОХНОВЛЯЕТ	-10.7457
▁СТАЛКИВАЮТСЯ	-10.7457
▁ПРЕЗЕНТАЦИЮ	-10.7457
▁ФАЙЛ	-10.7457
▁ФИЗИЧЕСКОЕ	-10.7458
▁УМНЫХ	-10.7458
▁СТАРОСТИ	-10.7459
▁ПЛОЩАДЬ	-10.7459
▁ПРОТИВОПОЛОЖН	-10.7459
▁ЗАВИСЕТЬ	-10.7459
▁УМНЫЙ	-10.746
▁ПОЛУЧИТЕ	-10.7461
▁УМИРАЕТ	-10.7461
▁ПОДДЕРЖИВАТЬ	-10.7461
▁АРХИТЕКТУРЫ	-10.7462
▁ПРИЗНАНИЕ	-10.7462
▁ОБЛАДАЮТ	-10.7463
▁ДВЕРИ	-10.7463
▁ВЫЛЕЧИТЬ	-10.7464
▁ОБЩЕСТВУ	-10.7464
▁ПЛОЩАДКА	-10.7465
АННАЯ	-10.7466
▁ЛЕКАРСТВО	-10.7467
▁ТРЕБОВАНИЯ	-10.7468
▁КОМНАТУ	-10.747
▁КОНТРАКТ	-10.7471
▁ШОУ	-10.7472
▁СОЧЕТАНИ	-10.7472
▁ЗУБЫ	-10.7472
▁ДЕРЕВНИ	-10.7473
▁ЗЕЛНАЯ	-10.7473
▁ПОЙДМ	-10.7474
▁ЗЛ	-10.7475
▁ДУХОВНОГО	-10.7477
▁БЫТОВО	-10.7479
▁РАЗРЕШЕНИ	-10.7479
▁АРМИЯ	-10.748
▁МИССИЯ	-10.748
▁ПРЕМИИ	-10.7481
▁ПРЕПОДАВАТЕЛИ	-10.7481
▁ЧУЖОЙ	-10.7482
▁ИДЕАЛЫ	-10.7482
▁СОХРАНЯТЬ	-10.7482
▁КОММУНИКАЦИЯ	-10.7484
▁РЫБУ	-10.7485
▁МАССУ	-10.7487
▁ВЫУЧИЛ	-10.7487
▁ПОЛЕТЕЛ	-10.7487
▁НАЙДМ	-10.7487
▁НАХОДИЛ	-10.7488
▁НОСИМ	-10.7489
▁ВРАЧОМ	-10.7489
▁СКОРОСТЬЮ	-10.749
▁ДОСТИЖЕНИЕ	-10.749
▁СЕСТРА	-10.7491
▁УСТРОЕНО	-10.7492
▁ИСКУССТВЕ	-10.7493
▁УПРАЖНЕНИЯ	-10.7494
▁ЕСТ	-10.7495
▁БЕЛКОВ	-10.7498
▁ТОВАРОВ	-10.7498
▁НАЗВАНИЯ	-10.7498
▁ГРАНИЦУ	-10.7499
▁ДЕФИЦИТ	-10.7499
▁ТРЕНИНГИ	-10.75
▁СКАЗАНО	-10.7501
▁УХОДИЛИ	-10.7501
▁ПОДДЕРЖИВАЮТ	-10.7502
▁СТОЯТЬ	-10.7503
▁МОБИЛЬНО	-10.7504
▁ГЛУБИНУ	-10.7504
▁ВЕКОВ	-10.7505
▁СТРАДАНИ	-10.7506
▁ДАВЛЕНИЕ	-10.7507
▁РЕКЛАМА	-10.7508
▁ЧАСТИЧК	-10.7508
▁ЛЕНТУ	-10.7512
▁ТЕСТЫ	-10.7513
▁ЗАКРЫВАЕТ	-10.7513
▁ВАРИАНТОВ	-10.7514
▁ВЕРСИИ	-10.7515
▁ДРЕВНЕ	-10.7516
▁НЕПОНЯТНЫЕ	-10.7516
▁ИЗМЕНЕНИЙ	-10.7517
▁МЕДИЦИНСКО	-10.7518
▁СОЗДАНИ	-10.7521
▁СДЕЛАНА	-10.7527
▁ПЕРСОНАЛЬНО	-10.7531
▁ЗАДЕРЖК	-10.7536
▁НОВОМУ	-10.7536
▁СТЕНУ	-10.7537
▁СЛЕДИТЬ	-10.7538
▁СКРИПК	-10.754
▁НАУКУ	-10.7541
▁ХУДОЖНИКОВ	-10.7542
▁ПЛАНИРОВАТЬ	-10.7544
▁ТРУДОМ	-10.7547
▁ВЕРУ	-10.755
▁ФУНДАМЕНТАЛЬНЫ	-10.7554
▁АГРЕССИИ	-10.7556
▁НАЗЫВАЮТСЯ	-10.7562
▁ВИРУСОВ	-10.7562
ПРОШ	-10.7564
▁ЗАКОНУ	-10.7565
▁СЫР	-10.7566
ВАТ	-10.7573
СТУПАЮТ	-10.7575
▁ПОВАР	-10.758
▁ЛИЦ	-10.7581
▁ВНИЗ	-10.7583
▁ТОП	-10.7583
▁ЛЮБИМОЙ	-10.7585
▁МАШИНЕ	-10.7587
▁УЧАСТНИКИ	-10.7588
▁РАДОСТНО	-10.759
▁СТАРО	-10.759
▁СТРАХОМ	-10.7591
▁ЗАНЯЛ	-10.7598
ПУСКАТЬ	-10.7601
▁КЛИНИЧЕСКИ	-10.7603
▁МАТЕМАТИКИ	-10.7603
▁ЛЮБИЛИ	-10.7608
▁ПРОВОДИЛИ	-10.7611
▁ПРОРАБОТАЛ	-10.7612
▁КРУПНЕЙШИ	-10.7615
▁РОДИН	-10.7619
ЧЕН	-10.7621
▁НАЗВАНИЕМ	-10.7622
▁ЖЕНА	-10.7624
▁ЛЮБОВЬЮ	-10.7624
▁ДИКИ	-10.7625
▁БАЗОВЫ	-10.7628
▁РАЗУМА	-10.7631
▁ЛИНИЯ	-10.7631
▁ЗДОРОВЬЕМ	-10.7632
▁СПЕЦИАЛИСТА	-10.7633
▁ПОПАДА	-10.7635
▁СТРАШНОГО	-10.7639
▁ЛЮБОМУ	-10.764
▁МАЛ	-10.7646
▁ПРАВДУ	-10.7647
▁ПОЛОЖИТЬ	-10.7658
▁БУКВ	-10.7659
▁ДВОРЕ	-10.7663
▁ДОРОГОЙ	-10.7663
▁РАСПОЛОЖЕН	-10.7664
▁ОБЪМА	-10.7665
▁МАШ	-10.7666
▁ЕСТЕСТВЕННЫМ	-10.7667
▁СОГЛАС	-10.7671
▁СМЫСЛЫ	-10.7673
▁КРУГОСВЕТНО	-10.7674
▁ОБЩЕСТВЕНН	-10.768
▁ОСНОВАН	-10.7681
▁НАЗВАЛИ	-10.7682
АС	-10.7686
▁БЕЛ	-10.7691
▁ОСОБ	-10.7705
▁СПРАШИВАЛ	-10.7714
▁МИНУТЫ	-10.7717
▁СТР	-10.7718
▁УВЕРЕННЫМ	-10.7724
▁ВИДА	-10.7726
▁ЛИШНИМ	-10.7731
▁АНАЛИЗИРУ	-10.7741
ЮРИСТЫ	-10.7745
▁НАБЛЮДАЛ	-10.7745
ПОР	-10.7746
▁СОТРУДНИК	-10.7747
▁ПОПАЛИ	-10.7757
▁ЛИЦЕ	-10.7758
▁ДОРОГА	-10.7758
▁ПСИХОЛОГИЧЕСКИ	-10.7759
БРАЛИ	-10.7762
ЕСТЬ	-10.7765
▁НАЗЫВА	-10.7769
КЛА	-10.7771
▁ЖЕНЩИНАМИ	-10.7771
▁ЗАПАДНО	-10.7773
▁ТАЛЛИНА	-10.7782
▁ТОТАЛЬНО	-10.7789
АТЬСЯ	-10.7793
▁КРЕС	-10.7799
НИКА	-10.7805
▁ДОВЕРЯ	-10.7807
▁НЕСЧАСТНЫ	-10.7807
▁НАЧНУТ	-10.7812
▁РАЗУ	-10.7812
▁УЙДТ	-10.7815
▁ОТКРОЕТ	-10.7816
▁ПЕРЕДАЮТ	-10.7837
▁ВЗ	-10.784
▁ПЛЕЧ	-10.7846
▁ОТПРАВИЛ	-10.7851
СЫ	-10.7855
▁СКЛАД	-10.7859
▁СМОТРЕЛА	-10.7865
▁ПАЦИЕНТА	-10.7866
▁НАБЛЮДЕНИЯ	-10.7871
▁ПРАВОМ	-10.7886
▁31	-10.7894
▁ВНЕШН	-10.7898
▁ИРРАЦИОНАЛЬН	-10.7898
ИЗМА	-10.7908
▁СЯДЬ	-10.7912
▁ОБРАТН	-10.7913
▁УЖИН	-10.7913
▁ПОЛИТИК	-10.7914
▁ПОСТОЯННЫ	-10.7916
▁УРА	-10.7919
БИТ	-10.7937
▁ПРИВЕЛ	-10.7938
▁ОБЩЕСТВОМ	-10.7939
▁ОБСТОЯТЕЛЬСТВ	-10.7941
▁КРАС	-10.7941
▁МАЛЬЧИКА	-10.7941
▁ВЫДАТ	-10.7954
▁РАЗГОВОРА	-10.7958
▁КАЗАХСК	-10.7966
▁ПУБЛИЧНО	-10.7969
▁ПРОВАЛ	-10.7976
▁ОБЕ	-10.7981
▁ПЕРЕХОДИ	-10.7987
▁ПОЛУЧАЛ	-10.7991
▁БЕД	-10.7991
ЛИЗ	-10.7993
▁ЧЕТВРТ	-10.7994
▁СЫГРА	-10.8002
АЛЬ	-10.8006
▁НАЧНИ	-10.8011
▁КОМАНД	-10.8021
БОР	-10.8021
▁ЖИВТЕ	-10.8021
▁КЛЮЧЕВО	-10.8022
▁КОММЕНТАРИ	-10.8027
▁БЕДН	-10.8033
▁УДАЧНО	-10.8039
ВЕРНУТЬ	-10.8041
▁ГЛУБИН	-10.8042
ЧНАЯ	-10.8042
▁УС	-10.8043
▁ШЕ	-10.8053
АРЕ	-10.8056
▁ПРЕИМУЩЕСТВ	-10.8056
▁АКТИВНОЙ	-10.8061
▁ЭЛЕКТРО	-10.8064
УЕТСЯ	-10.8066
▁РЕФЛЕКСИ	-10.8079
ЧЕСКИЕ	-10.8087
▁УДИВИТЕЛЬНОЕ	-10.8098
▁ДЕТСК	-10.8104
▁ДОСТУПНЫМ	-10.8107
▁ПЕЧАЛЬ	-10.8108
▁АРТИСТ	-10.8114
▁СПИН	-10.8125
▁ПОЙМ	-10.8127
▁ОБЪЕДИНЯЕ	-10.813
▁ЮЖНО	-10.8138
▁КОЛОНИ	-10.8139
▁ГОСУДАРСТВЕННЫ	-10.8144
▁СЛЕДУЮЩ	-10.8153
▁СТРАШНЫ	-10.8162
▁МЕДИЦИН	-10.8166
▁СОСТАВЛЯ	-10.8171
ЩИК	-10.8173
▁ПОДРОСТК	-10.8182
▁СПИСК	-10.8187
▁ДИЗАЙНЕРА	-10.8195
▁СЛОЖ	-10.8201
РОД	-10.8203
▁ИЗМЕНИЛ	-10.8206
▁СТРЕМИТ	-10.8212
▁НАПИСАН	-10.8213
▁РАДИО	-10.8213
▁САН	-10.8221
▁З	-10.8221
▁ТОЛП	-10.8224
▁ИДУ	-10.8229
▁ГУГЛ	-10.823
▁РАБ	-10.8234
▁ЗАПИС	-10.8236
▁ЗАКОНЧИ	-10.8242
▁ПРОВОДИЛ	-10.8249
ЕННЫХ	-10.8255
▁ЗВУКА	-10.8257
▁АМЕРИКАНСК	-10.8258
▁КЛИЕНТ	-10.8268
▁РЕКОМЕНДАЦИ	-10.8282
▁КОЛЛЕКЦИ	-10.829
ПАЛА	-10.8295
РЕД	-10.8297
ДАТЬ	-10.8299
▁ИГРЕ	-10.8303
НРАВИТЬСЯ	-10.8303
▁КЛИМАТ	-10.8304
▁КИЛОГРАММ	-10.8305
ЕДЕМ	-10.8306
▁МЕДИЦИНСКИ	-10.8306
ВЛИЯТЬ	-10.8307
▁МОДУ	-10.8308
12	-10.8311
▁ДР	-10.8313
ШЛОСЬ	-10.8318
ГОРОД	-10.8318
▁ВДОХНОВЛЯ	-10.8325
▁ВЕРНО	-10.8331
▁ЯЗЫКИ	-10.8336
▁ПИШУ	-10.8339
ТРЕМЯ	-10.8344
КУЮ	-10.835
▁ПРОСМОТР	-10.8352
▁СТАРТАП	-10.8358
▁ОХОТ	-10.8363
▁НАСТУПИТ	-10.8363
ФОР	-10.8371
▁МУЗЕЕ	-10.8372
ЯВЛЕНИЯ	-10.8376
▁КИТАЙ	-10.8377
▁СТЕП	-10.8378
▁РАВНЫ	-10.8384
▁СТИХОТВОРЕНИ	-10.839
СТО	-10.8391
▁ВЫСОТ	-10.8391
▁ЗАБОЛЕВАНИЕ	-10.8393
▁34	-10.8395
▁ИНИЦИАТИВ	-10.8407
▁ПЛАСТ	-10.8409
▁ЦЕНЕ	-10.8413
▁ЛОНДОН	-10.8415
▁ПЕР	-10.8417
▁ВЕЛИКОБРИТАНИ	-10.8418
ХОДИШЬ	-10.8419
▁ФОРМИРУЕТ	-10.8421
▁ИНВАЛИДНОСТЬ	-10.8425
▁ПРИРОДНЫ	-10.8426
▁ДОЧЕР	-10.8426
▁ЦАР	-10.8427
▁ГОРМОН	-10.8434
▁НАДЕЖД	-10.8436
▁АРТ	-10.8439
ДАСТСЯ	-10.845
▁БЕЛАРУСИ	-10.845
▁ВНИМАТЕЛЬНО	-10.845
▁ВОСПОМИНАНИЯ	-10.845
▁ДЕТАЛЕЙ	-10.845
▁ИНТУИТИВНО	-10.845
▁МОСКВА	-10.845
▁НРАВИЛОСЬ	-10.845
▁НРАВЯТСЯ	-10.845
▁ОБУВЬ	-10.845
▁ОДЕЖДЕ	-10.845
▁ОДЕЖДОЙ	-10.845
▁ПИСЕМ	-10.845
▁ПОНЯТЕН	-10.845
▁ПРИНАДЛЕЖИТ	-10.845
▁ПРИСУТСТВУЮТ	-10.845
▁СОЦИУМ	-10.845
▁СТАТИСТИКИ	-10.845
▁ТРЕНИРОВКИ	-10.845
▁УТВЕРЖДАЮ	-10.845
▁ФУНКЦИЮ	-10.845
▁ШТРАФ	-10.845
▁ДЕВЯТИ	-10.845
▁ОБОРОТ	-10.845
▁ДЕВОЧКОЙ	-10.845
▁ПРИРОДОЙ	-10.845
▁СЛУЧИТЬСЯ	-10.845
▁УМРТ	-10.845
▁ВЫШЛО	-10.845
▁ВОПЛОТИ	-10.845
▁ЛГКИХ	-10.845
▁БЫСТРЕНЬКО	-10.845
▁ЖЕЛЕЗЫ	-10.845
▁ИСПЫТАТЬ	-10.845
▁СЕРДЦА	-10.845
▁СТАТЕЙ	-10.845
▁СТОЛКНОВЕНИ	-10.845
▁ИНСТРУКЦИ	-10.845
▁КАНАД	-10.845
▁ПРОДЛЕНИ	-10.845
▁ЗВЕЗДЫ	-10.845
▁ОБРАЗОВАНИИ	-10.845
▁НЕЛЕГКО	-10.845
▁СЦЕНЫ	-10.845
▁СТРЕМИТЕЛЬНО	-10.845
▁УХАЖИВА	-10.845
▁ХУДЕТЬ	-10.845
▁ВЫСКАЗЫВАНИЕ	-10.8451
▁ЖДМ	-10.8451
▁РАСПЕЧАТАТЬ	-10.8451
▁ГНЕВ	-10.8451
▁НАРИСОВАН	-10.8451
▁ПЕСОК	-10.8451
▁ЖЕЛАТЕЛЬНО	-10.8451
▁ПОСУД	-10.8451
▁3040	-10.8451
▁БЛЮДО	-10.8451
▁ВЕРНУЛАСЬ	-10.8451
▁ПРЕСТУПНОСТИ	-10.8452
▁ВОЛНЕНИЕ	-10.8452
▁ДЫХАНИЯ	-10.8452
▁СНЕГ	-10.8452
▁ЗАПОМНИТЬ	-10.8453
ЕЧТО	-10.8453
▁ОБЩЕНИИ	-10.8453
▁АЛКОГОЛЬ	-10.8453
▁ИСПЫТАЛ	-10.8453
РОПОЛЬ	-10.8453
▁45	-10.8453
▁ОПАСНОСТЬ	-10.8453
▁ЦЕЛИКОМ	-10.8454
▁ОПАСНОСТИ	-10.8454
▁ОТХОДОВ	-10.8454
▁ПОЙМУТ	-10.8455
▁ФЕДЕРАЦИИ	-10.8455
▁ПРОСЯТ	-10.8455
▁СЛЫШАТЬ	-10.8455
▁РОГОВИЦА	-10.8456
▁ЗВУЧАЛО	-10.8456
▁НАХОЖУСЬ	-10.8456
▁ОПУХОЛЬ	-10.8457
▁ВОЗНИКЛА	-10.8457
▁МЕБЕЛЬ	-10.8457
▁ДОСТИЖЕНИЙ	-10.8458
▁НАДЕТЬ	-10.8458
▁ДВИЖЕТСЯ	-10.8458
▁ГРУППОЙ	-10.8458
▁НАПОМНЮ	-10.8458
▁ОСТАВАЛОСЬ	-10.846
▁ПРОЧИ	-10.8461
СТЕЙ	-10.8461
▁ВНУК	-10.8462
▁ВРЕМЕННО	-10.8462
▁ПРЕДСТАВЛЯЕМ	-10.8462
▁ДРУЖИТЬ	-10.8463
▁ДЕПРЕССИЕЙ	-10.8463
▁СЛУШАЕТ	-10.8464
▁ВЫБИРАЕМ	-10.8464
▁ВЫБИРАЕТ	-10.8464
▁ОТДЕЛЬНОСТИ	-10.8464
▁КОМНАТЫ	-10.8466
▁ПОПУЛЯРНОСТЬ	-10.8466
▁ВСТРЕЧАЮТСЯ	-10.8466
▁СПАСАТЬ	-10.8466
▁ЗАИНТЕРЕСОВАН	-10.8467
▁СОБРАЛИСЬ	-10.8467
▁ПРЕСТУПНОСТЬ	-10.8468
▁ОТКРЫТЫМ	-10.8468
▁НАЖИМА	-10.8469
▁НАСТОЯЩЕМ	-10.8469
РЕЗ	-10.847
▁ПОЗВОЛЯТ	-10.847
▁СОБЫТИЙ	-10.8471
▁КЛИЕНТОВ	-10.8471
▁БАНАЛЬНОСТЬ	-10.8472
▁МУЖСКАЯ	-10.8472
▁ПОТРЯСАЮЩЕ	-10.8472
▁СВОЙСТВО	-10.8472
▁ОСОБЕННОСТЬ	-10.8472
▁ЭКО	-10.8473
▁ГАДЖЕТЫ	-10.8473
▁ЭКОНОМИСТЫ	-10.8473
▁СКВОЗЬ	-10.8474
МЕНТ	-10.8476
▁ДОКУМЕНТОВ	-10.8477
▁ПОСТУПИТЬ	-10.8478
▁ПРЕДЫДУЩЕГО	-10.8478
▁ПРИВЫЧКА	-10.8479
▁ТРАНЗИСТОРОВ	-10.8479
▁ЗАМЕТНО	-10.8479
▁УРОКОВ	-10.8479
▁ПРИГЛАСИЛИ	-10.8479
▁ДАНЯ	-10.848
▁БЕРУТ	-10.8483
▁БОЛИТ	-10.8484
▁ДЕНЬГАМИ	-10.8484
ИРУ	-10.8485
▁ЭРЫ	-10.8488
▁СЛОЖНОСТИ	-10.8488
▁ТЕКУЩИ	-10.8488
▁ИСПЫТЫВАЕТ	-10.8488
▁ДВАЖДЫ	-10.8491
▁КИРЕНСКИ	-10.8492
▁ЭКОЛОГИИ	-10.8493
▁ИНДИИ	-10.8495
▁АЗИИ	-10.8496
▁СИСТЕМОЙ	-10.8497
▁ГОТОВИТЬСЯ	-10.8498
▁ДОРОГАЯ	-10.8498
▁СМЕРТЬЮ	-10.8499
РОСЛО	-10.8499
▁ПОМОГАЕ	-10.8504
▁ШАГА	-10.8505
▁ВИДЕНИЕ	-10.8506
▁ЛУЧШИМ	-10.8507
▁СОБЫТИЕ	-10.8507
▁ОГРАНИЧЕНИЯ	-10.8508
▁СКАЗКУ	-10.8508
▁ПЕКАРН	-10.8508
▁ПОЛИТИКУ	-10.8509
▁ПРАВИТЕЛЬСТВА	-10.851
▁РУКОЙ	-10.8511
▁ВЫРАЗИТЬ	-10.8512
▁РУССКИМ	-10.8513
▁КЛЮЧОМ	-10.8514
▁АКАДЕМИИ	-10.8514
▁СТРАНИЦУ	-10.8514
▁АТМОСФЕРА	-10.8515
▁СФЕРУ	-10.8516
УСЬ	-10.8516
▁НЕПРОСТО	-10.8516
▁ПРЕДЫДУЩЕ	-10.8517
▁ПРЕВЫША	-10.8517
▁ФАКТОРОМ	-10.8517
▁ПАЦИЕНТЫ	-10.8517
▁ТРЕБУЕТСЯ	-10.8519
▁ПИТЕР	-10.852
▁СПЕЦИАЛИСТЫ	-10.852
▁ЛИТЕРАТУРЕ	-10.8521
▁ВЕРОЯТНОСТЬЮ	-10.8521
▁СРЕДСТВ	-10.8522
▁МАСКИ	-10.8523
▁МАЛЕНЬКИМИ	-10.8524
▁ЯВНО	-10.8524
▁СТАНУ	-10.8525
▁ВЕЩЕСТВА	-10.8525
▁СИЛОЙ	-10.8526
▁ГЕРОЙ	-10.8527
ИЧЕСКАЯ	-10.8529
▁ЛИЧНОСТНЫ	-10.8529
▁ФРАНЦУЗСКИ	-10.8531
▁КОМНАТЕ	-10.8532
▁ЛЕЖА	-10.8532
БЬЮТ	-10.8533
▁РАСС	-10.8533
▁РАБОТАЛО	-10.8536
▁БЕРТСЯ	-10.8539
▁ЧАЙ	-10.8542
БОЛЬШАЯ	-10.8544
▁ЗАДАЧЕЙ	-10.8545
▁ДИЗАЙНЕРЫ	-10.8545
▁СОЛЬ	-10.8546
▁ИСПОЛЬЗУЮТСЯ	-10.8547
▁ЖЕНЯ	-10.8547
▁КНИГАМИ	-10.8549
▁РАЗНОЕ	-10.855
▁КУЛЬТУРУ	-10.8551
▁СООТВЕТСТВУЮЩИ	-10.8553
▁ТЕХНИКИ	-10.8555
▁ОТКРЫТ	-10.8558
▁КОФЕИН	-10.856
▁СЛЕДУЮЩИМ	-10.856
▁ФУТБОЛУ	-10.8561
▁ОБРАТИТЕ	-10.8561
▁ОБЩАЯ	-10.8562
ЮРЕ	-10.8562
▁БРИТАНСКИ	-10.8563
▁ХУДОЖНИКОМ	-10.8563
▁ДАЛЬНИ	-10.8563
▁ЗАПИСАТЬ	-10.8564
▁НЕПРИЯТНЫ	-10.8567
▁ПАРК	-10.8567
▁ПЕРЕРЫВА	-10.8568
▁ГЕНЕТИЧЕСКИ	-10.8568
▁ИГРАЛА	-10.857
▁ТЕЛЕФОНОМ	-10.8572
▁ЭСКИМОС	-10.8574
▁ЦЕННОСТЬЮ	-10.8575
▁ПРИНЦИПЫ	-10.8576
▁БЛАГОДАРНОСТЬ	-10.8577
▁СТРАШНЫЙ	-10.8579
▁РАЗВИТЬ	-10.8582
▁ТЕХНИКА	-10.8583
ДЕШЬ	-10.8583
▁ШТУКИ	-10.8586
▁ПРОСИЛИ	-10.859
▁ЧЕЛОВЕЧЕСКИЙ	-10.8592
▁ФИЗИКИ	-10.8593
▁ФЕЙСБУКЕ	-10.8596
▁УТРЕННИ	-10.8597
▁УДА	-10.8597
▁МАСШТАБА	-10.8598
▁ГОРЫ	-10.8603
▁ЖИВЫЕ	-10.8608
▁ПТИЧК	-10.8609
▁НАЦИОНАЛЬНЫЕ	-10.861
▁ЧИТАТЕЛЯМ	-10.861
▁ОРГАНИЗОВАЛИ	-10.8611
▁ФИЛОСОФСКИ	-10.8612
▁СЛЫШИТЕ	-10.8618
▁СТАНЕТЕ	-10.8622
СТАВЬТЕ	-10.8623
▁ОЛЯ	-10.8625
ПОД	-10.8626
▁ДОШЛ	-10.8627
▁СТИЛЕ	-10.8627
▁МОЩНЫ	-10.8631
ХОДИЛА	-10.8633
▁ВЫЗЫВА	-10.8637
▁ПОСТУПИЛА	-10.8641
▁ПУТЕШЕСТВИЯХ	-10.8641
▁ПЛАНОВ	-10.8642
▁КЛАССНЫЙ	-10.8644
▁ПРОГРАММЕ	-10.8647
▁РУССКИ	-10.8647
▁УЕХАЛ	-10.8652
▁ПАРКЕ	-10.8655
КАЖУТСЯ	-10.8661
▁СЕМИ	-10.8665
ОС	-10.8669
▁ОСТАВЛЯЕТ	-10.8669
▁ПАРТНРА	-10.8676
▁ДОСТИГ	-10.8677
▁ОСТАНОВИТЬ	-10.868
▁ЛЕТАЛ	-10.868
▁КОРМ	-10.8681
ГЛА	-10.8681
▁МЕТРА	-10.8685
▁ПОИСКИ	-10.8689
▁АТАКИ	-10.8693
▁НИЗКИМ	-10.8702
▁СОВЕРШ	-10.8704
▁СПОРТСМЕН	-10.8704
ОЧКА	-10.8714
▁ДОБАВЛЯЕТ	-10.8722
▁ПОБО	-10.8722
СКР	-10.8723
▁СКАЗК	-10.8725
ТЕКАЕТ	-10.8725
▁МАЛЫША	-10.8727
АЦИЯ	-10.8733
▁ДОМИК	-10.8737
▁ХЛОП	-10.874
▁РАЗВИТИЕМ	-10.8746
▁ВЕЧЕРА	-10.8748
▁МЕЛКИ	-10.876
КОГО	-10.8762
ОВЫЙ	-10.8766
▁ЗУБНЫ	-10.8768
ЕСС	-10.8777
▁ОБЪЯСНЕНИЕ	-10.8785
▁РЕСТОРАНЕ	-10.8795
▁ОСТА	-10.8801
▁НЕОБХОДИМОСТЬ	-10.8808
▁ТОЛКА	-10.8812
▁ТАЛЛИНЕ	-10.8817
▁КРА	-10.8818
▁ЧУ	-10.8818
▁ПАССИВНО	-10.8821
▁СЛОЖНОГО	-10.8824
▁РАБОТАЕТЕ	-10.8824
▁ВЗРОСЛ	-10.8828
▁ИДЕАЛЬН	-10.883
НЯЛ	-10.8839
▁ОФИСЕ	-10.8843
▁СУЩЕСТВ	-10.8853
▁БАБУШК	-10.8855
▁СРЕДНЕВЕКОВЫ	-10.8855
▁СУДА	-10.8862
▁ПАС	-10.8865
▁МЕР	-10.8866
▁ОС	-10.8867
▁ПОКАЗЫВАЛ	-10.8867
▁НИК	-10.8868
▁ГРАНИЦ	-10.8871
▁ПЕРСОНАЖА	-10.8876
ДУМАЕМ	-10.8884
▁МИРОВОМ	-10.8888
▁СЕКСЕ	-10.8891
▁ПОСВЯТИ	-10.8894
▁РЕШАЮТ	-10.8895
▁РАЗОМ	-10.8897
▁СТАРТ	-10.8897
▁ЗЕЛН	-10.8904
ЧНЫХ	-10.891
▁АНГЛИЙСК	-10.891
▁ПРОДОЛЖАЮТ	-10.8913
▁ДЕТСКОМ	-10.8913
▁САМОЛТЕ	-10.8914
▁ЗАПАД	-10.8917
▁КРЕАТИВН	-10.8918
▁ПОДХОДА	-10.892
▁КОЛОКОЛ	-10.8925
▁ДЛИННЫ	-10.8926
▁ДУМА	-10.893
НЕЙ	-10.8938
▁НАР	-10.8941
▁ОБЪЕДИНИТЬ	-10.8942
▁ПАЛЬЦ	-10.8944
▁ОБРАТИЛ	-10.8946
КАР	-10.8959
▁УПОМЯНУ	-10.8961
▁БАР	-10.8972
▁СФЕРА	-10.8973
ПИСАНИЯ	-10.8974
▁СЛОЖНЫ	-10.8979
▁УДИВИТЕЛЬНЫМ	-10.898
▁КАП	-10.898
▁ЗАПИСЫВА	-10.8986
▁БОРЬБЕ	-10.8986
▁СЛУША	-10.8993
▁КРАСИВОЙ	-10.8998
▁СДЕЛАН	-10.9
▁БЕЗОПАСНЫ	-10.9006
▁ПОЛУЧАЛИ	-10.9009
ЖД	-10.9012
▁АГРЕССИВНО	-10.9019
▁ПРОИЗВОДСТВ	-10.902
▁ОСТРОВА	-10.9025
▁ПРОГРАММ	-10.9029
▁ПОДОБНЫМ	-10.9033
СОН	-10.9042
▁УПРАВЛЯЕТ	-10.9047
ДАЧУ	-10.9055
▁НАЧИНАЛ	-10.9071
▁ЗАКРЫТЫ	-10.9072
▁КРЫМ	-10.9079
ЦИ	-10.9081
▁УЖАСНЫ	-10.9084
▁ПЕРЕХОДИТ	-10.9089
▁БИЛ	-10.9089
▁МЕСТНО	-10.9096
ЛИН	-10.9099
▁ОЩУЩА	-10.9101
▁ПЕДАГОГ	-10.9102
▁ЭР	-10.9107
▁УЗБЕКСК	-10.9114
▁МАР	-10.9119
▁ДЕВУШК	-10.9121
▁КОМПЬЮТЕРА	-10.913
БР	-10.9137
▁БАНКОВ	-10.9139
▁РЕЖИССР	-10.9142
▁ОБА	-10.9143
ОДНО	-10.9145
▁ПАН	-10.9159
АК	-10.9168
▁ПОДОЗРЕВА	-10.9175
▁ДУХА	-10.9176
МОДЕЛЬ	-10.9181
▁ПОСЛЕДНИХ	-10.9201
▁ПРЕДСТАВЛЯЮТ	-10.9202
ОЧКУ	-10.9206
▁АКТИВН	-10.9209
▁ЭПОХ	-10.9211
▁ПРОСТОГО	-10.9215
КАЗАТЬ	-10.9217
▁СЧАСТЛИВА	-10.9221
▁КИНОТЕАТР	-10.9226
▁КАТА	-10.9236
▁НАСТОЯЩИ	-10.9237
▁МОМЕНТЕ	-10.9238
▁НЕОБХОДИМ	-10.924
▁ВКУСА	-10.9247
▁ПРОДАЛ	-10.925
▁ОТДЫХ	-10.9251
▁ШУТК	-10.9251
▁ИСПОЛНЯ	-10.9259
▁ВЫЙД	-10.9261
▁НАУЧИЛИ	-10.9262
▁РО	-10.9263
▁ЛЕКЦИ	-10.9266
▁АППАРАТ	-10.9271
▁ЗАМЕН	-10.9274
▁ЗАКОНАМ	-10.9284
▁ПРЕДСТАВЛЯЮ	-10.9285
▁ГОТОВИЛИ	-10.9293
ДУМА	-10.9302
▁ПУТЕШЕСТВУ	-10.9304
▁ПЛАТ	-10.9312
▁ПРЕДСТА	-10.9319
▁КИТ	-10.9324
▁ВОСПИТАН	-10.9325
ЮЩИМ	-10.9332
▁ПОДОБНО	-10.9338
▁ВАН	-10.9342
РОН	-10.9343
▁ЗЕМНО	-10.9349
▁БОГАТ	-10.9351
▁ПЕСН	-10.9362
НЮ	-10.9367
▁КОЛ	-10.9372
▁ИСП	-10.9373
▁СРЕДСТВО	-10.9375
▁ВОС	-10.9386
▁НАСТОЯЩ	-10.9393
▁МЕНЯЛИСЬ	-10.9407
СТВЕ	-10.9408
▁ЛИЧН	-10.9409
▁СТОЛИЦ	-10.9415
ОВЫХ	-10.9421
▁ПОЯВ	-10.9423
ЖАЛ	-10.9424
ОД	-10.9428
▁ВКЛЮЧА	-10.9429
▁КОНЦЕПЦИ	-10.9431
▁ПРЕДСТАВИТЕЛЯМ	-10.9443
▁ПЛАСТИК	-10.9444
▁МУТАЦИ	-10.9445
▁ТУБЕРКУЛЗ	-10.9445
▁ПРИЕЗЖАЮ	-10.9445
▁ВНУТРЕНН	-10.9449
▁БУДУЩЕ	-10.945
▁ЭКЗОПЛАНЕТ	-10.9455
▁КОМФОРТ	-10.9464
▁ТКАН	-10.9465
▁ПОРАЗИЛ	-10.9469
▁ВЫЯСНИЛ	-10.947
ИЧЕСКИЕ	-10.947
▁МЕТАФОР	-10.9471
▁ПРЕДСТАВИЛ	-10.9471
СЧАСТЛИВ	-10.9471
▁МИССИ	-10.9472
▁ЭФФЕКТИВНЫ	-10.9474
▁ДВО	-10.9476
▁НЕОБХОДИМА	-10.948
▁ЗАРЯД	-10.9481
▁КНИЖКА	-10.9481
▁ШЕСТО	-10.9487
ЧЕСКИЙ	-10.9491
▁УНИКАЛЬНЫ	-10.9494
ОВОГО	-10.9495
▁БАНАН	-10.9496
▁ПРИОРИТЕТ	-10.9497
▁ИДЕАЛ	-10.95
▁СЛУЧАЯ	-10.9505
▁ЛОШАДЬ	-10.9512
▁ОДЕВА	-10.9512
▁ГИПОТЕЗ	-10.9516
▁ШРИФТ	-10.9522
▁СЕРИАЛ	-10.9524
▁МИНУС	-10.9528
▁АГЕНТ	-10.9531
▁ЭЛЕКТРОНИК	-10.9533
ЦИЮ	-10.9534
▁СУЩЕСТВОВАЛ	-10.9534
▁ВЗАИМОДЕЙСТВУ	-10.9536
▁УЧЕБНИК	-10.9538
ЛЬНЫЕ	-10.9539
▁СОХРАНИ	-10.9541
▁НЕНУЖНЫ	-10.9545
РКИ	-10.9546
▁ЖОР	-10.9547
БИВАЮТ	-10.9547
ИЕСЯ	-10.9547
▁ПОСЛ	-10.955
▁СОГЛАСИ	-10.955
▁РЕАЛЬН	-10.9551
МЕСТИТЬ	-10.9555
▁ТРАНС	-10.9559
▁СЕМЕЙНЫ	-10.956
▁ДИАМЕТР	-10.9561
▁ИНФЕКЦИ	-10.9561
▁ФАНАТ	-10.9561
▁БАСКЕТБОЛ	-10.9561
▁БЕСПОЛЕЗН	-10.9561
▁ДЕПАРТАМЕНТ	-10.9561
▁ДИССЕРТАЦИ	-10.9561
▁ЗДРАВООХРАНЕНИЯ	-10.9561
▁ИНТЕРНЕТМАГАЗИН	-10.9561
▁ИСПОРТИТЬ	-10.9561
▁КОШМАР	-10.9561
▁МЕТАБОЛИЗМ	-10.9561
▁НАВСЕГДА	-10.9561
▁НАРКОТИК	-10.9561
▁НЕВИДИМЫ	-10.9561
▁НЕЙРОГЕНЕЗ	-10.9561
▁ОЗЕРА	-10.9561
▁ОПТИМИЗ	-10.9561
▁ПИЦЦ	-10.9561
▁ПЛАЧЕТ	-10.9561
▁ПРЕДПРИНИМАТЕЛИ	-10.9561
▁ПРЕДСТОИТ	-10.9561
▁ПРЕМЬЕР	-10.9561
▁ПРИВЫЧЕК	-10.9561
▁ПУБЛИКАЦИ	-10.9561
▁РАСПРОСТРАНИ	-10.9561
▁РЕГИСТРАЦИИ	-10.9561
▁РОССИЮ	-10.9561
▁СИМВОЛИЗИРУ	-10.9561
▁СОЛДАТ	-10.9561
▁СПЕЦСЛУЖБ	-10.9561
▁СУЩНОСТЬ	-10.9561
▁ТЕНДЕНЦИЮ	-10.9561
▁ФОРТЕПИАНО	-10.9561
▁ЭФИР	-10.9561
▁ЯЙЦЕКЛЕТК	-10.9561
▁ИЗНУТРИ	-10.9561
▁ПЛАНШЕТ	-10.9561
▁СОТРУДНИЧА	-10.9561
▁СЦЕНАРИЙ	-10.9561
▁ТРАЧУ	-10.9561
▁СТВОЛОВ	-10.9561
▁ДЕВОЧКЕ	-10.9561
▁ЯИЧКО	-10.9561
▁АУТИЗМ	-10.9561
▁ЛЕЧЕНИЯ	-10.9561
▁НАРВЕ	-10.9561
▁ОСТАНОВК	-10.9561
▁ПОЛУТОРА	-10.9561
▁ОТПЕЧАТОК	-10.9561
▁ТАНЦЫ	-10.9561
▁ВЕРНУЛИСЬ	-10.9561
▁ГОРЯЧ	-10.9561
▁УВАЖАЕМЫ	-10.9561
▁ЮМОР	-10.9561
▁ВИКТОР	-10.9561
▁НАСИЛУ	-10.9561
▁МАССИВ	-10.9561
▁БЛЮДА	-10.9562
▁ФАНТАСТИЧЕСКОЕ	-10.9562
▁ПАЛЕЦ	-10.9562
▁БИБЛИОТЕКИ	-10.9562
▁ПРИВЕДТ	-10.9562
▁ПОВЕСТК	-10.9562
▁ВОСПОЛЬЗОВАТЬСЯ	-10.9562
▁УЗКО	-10.9562
▁ИЗОБРЕТЕНИЕ	-10.9562
▁СЪЕСТЬ	-10.9562
▁РЕЖЕ	-10.9563
▁ЯВЛЯЕМСЯ	-10.9563
▁НАХОДИЛИСЬ	-10.9563
▁ОКРУЖАЮТ	-10.9563
▁ИЗМЕРЯ	-10.9563
▁ФИЛОСОФИИ	-10.9563
▁БОЯЛСЯ	-10.9563
▁ПТИЦЫ	-10.9564
▁ОБЩАЛИСЬ	-10.9564
▁САХАР	-10.9564
▁ПОТРЕБНОСТЯМИ	-10.9564
▁ЗАПОВЕДНИК	-10.9564
▁ВЫРАСТЕТ	-10.9564
▁ДОЖДЬ	-10.9565
▁НАХОДКИ	-10.9565
▁ПРЕДКОВ	-10.9565
▁ОКАЗЫВАЕМСЯ	-10.9565
▁РАЦИОНАЛЬНЫ	-10.9565
▁ЛОШАДЕЙ	-10.9566
▁ОШИБОК	-10.9566
▁АГЕНТСТВ	-10.9566
▁ПОДОБРА	-10.9566
▁ОШИБКУ	-10.9567
▁НЕУДАЧ	-10.9567
▁ВЗРОСЛЫЙ	-10.9568
▁ЗАРПЛАТЫ	-10.9569
▁УСПЕВАЕМ	-10.9569
▁ДОВОЛЬНЫ	-10.9569
▁ИЗМЕНИЛАСЬ	-10.9569
▁УДАЛИТЬ	-10.9569
▁ГРАНЬ	-10.9569
▁ЗАКЛЮЧЕНИ	-10.9569
▁ИСПРАВИТЬ	-10.957
СТВУЕТ	-10.957
▁ЧАСТЕЙ	-10.957
▁ПОЛУЧАЕШЬ	-10.9571
▁ПИЛОТ	-10.9571
▁ЗИМОЙ	-10.9571
▁СКИДКУ	-10.9571
▁ПРИВЛЕКАТЕЛЬНО	-10.9572
▁ЗАДАНИЕ	-10.9572
▁ПОЗНАКОМИЛСЯ	-10.9572
▁ТУРИСТОВ	-10.9572
▁СТОЛКНУТЬСЯ	-10.9573
▁ТД	-10.9573
▁ПЛАТЯТ	-10.9573
▁ПРЕДЛОЖИТЬ	-10.9573
▁ОСТАЛЬНЫМ	-10.9574
▁ПОЗНАКОМИТЬСЯ	-10.9574
▁ВЗРОСЛОГО	-10.9574
▁ОЦЕНИТЬ	-10.9575
▁ГОДАХ	-10.9575
▁ОБЕСПЕЧЕНИ	-10.9575
▁СОБОР	-10.9576
▁УСПЕТЬ	-10.9577
▁ЦЕЛЕВ	-10.9577
▁УЧИТЕЛЕЙ	-10.9578
▁КУСО	-10.9579
▁ЭНЕРГЕТИЧЕСКИ	-10.9579
▁ПЕРЕЖИВАЕТ	-10.9579
▁ЯБЛОКИ	-10.9579
▁КАТАСТРОФА	-10.958
▁ВСТРЕЧАЕМСЯ	-10.958
▁ИЗУЧАЮТ	-10.958
▁ВЫПОЛНЯТЬ	-10.9581
▁ПРОФЕССИОНАЛИЗМ	-10.9581
▁ПРИНЯТИЯ	-10.9582
▁БЕЖАЛ	-10.9583
▁ФИЛЬМЕ	-10.9583
▁РОДИТЕЛЬСК	-10.9583
▁ЕДЕ	-10.9584
▁ДОСТОИНСТВА	-10.9584
▁ОТДАМ	-10.9584
▁НАВЕРХУ	-10.9585
▁БОЛЬНИЦУ	-10.9586
▁ОБЛАДАЕТ	-10.9586
▁СТРОЯТ	-10.9586
▁ТЕРЯЕТСЯ	-10.9586
▁ЖАЛЕТЬ	-10.9586
▁КОНФЕРЕНЦИЯ	-10.9587
▁КАНДИДАТОВ	-10.9587
▁КОРОЧЕ	-10.9588
▁ДАМА	-10.9589
▁ОЦЕНКИ	-10.959
▁ПЛАКАТЬ	-10.959
▁ПОМНЯТ	-10.959
▁ИВАН	-10.9591
▁ЧИТАТЕЛЕЙ	-10.9591
▁ОБРАБОТКИ	-10.9591
▁ПРЕДПОЧТЕНИЯ	-10.9592
▁КУСКИ	-10.9592
▁ГРАНИ	-10.9593
▁МАШИННО	-10.9593
▁НАСЕЛЕНИЕ	-10.9594
▁НЕПРАВДА	-10.9594
▁НЕОБХОДИМОСТИ	-10.9595
▁ОЧЕРЕДИ	-10.9596
▁ОТЕЛИ	-10.9596
▁ДЫХАНИЕ	-10.9596
▁СОБИРАЕТСЯ	-10.9597
▁ФОТОГРАФОВ	-10.9597
▁СФОРМИРОВАЛ	-10.9597
▁ИЗМЕНИЛСЯ	-10.9598
▁МИКРОБИОТА	-10.9599
▁АНГЛИИ	-10.9599
▁СИДЯЩИХ	-10.9599
▁СТЕРЕОТИПОВ	-10.9599
▁МАРКЕТОЛОГИ	-10.9599
▁МУЖЕМ	-10.96
▁КУДАНИБУДЬ	-10.9601
▁ВКЛАДЫВА	-10.9602
▁ЦЕПОЧКУ	-10.9605
▁ЗАКОНЧИЛСЯ	-10.9609
▁ПОДГОТОВКА	-10.961
СО	-10.9611
▁ИСКАЛИ	-10.9611
▁ПЕРЕМЕНЫ	-10.9612
▁СТЕНАХ	-10.9612
▁ТЕХНИКУ	-10.9613
ЮЩЕЕ	-10.9613
▁ЖУТКО	-10.9613
▁СЕРВИСЫ	-10.9614
▁ГОН	-10.9614
▁ЗАКАЗЧИК	-10.9615
▁ПРАКТИКА	-10.9618
▁ОБРАТИЛИ	-10.962
▁ВЫЖИТЬ	-10.9621
▁ЗАКВАСКА	-10.9621
▁РЕЛИГИИ	-10.9621
▁СПРАВЛЯЕТСЯ	-10.9622
▁ПРИНЕС	-10.9622
▁КОТИКИ	-10.9623
▁АТАКУЮТ	-10.9623
▁КОРНЕ	-10.9625
ШИВ	-10.9625
▁МАНГО	-10.9626
ОТЕН	-10.9626
▁НАХОДИТ	-10.9626
ИКОВ	-10.9627
▁РАЗНООБРАЗИЕ	-10.9627
▁СЛАБО	-10.9628
▁ПРИЗНАТЬСЯ	-10.9628
▁СЫНОМ	-10.9628
▁ЦЕННОСТЯМИ	-10.9628
▁ФАКТОРОВ	-10.9629
▁АЛГОРИТМЫ	-10.9629
▁ОТВЕТСТВЕННЫ	-10.963
▁ГЛУПО	-10.9631
▁ЖДАЛА	-10.9632
▁МУДР	-10.9632
▁ТАБЛЕТКИ	-10.9633
▁СОДЕРЖАТ	-10.9634
▁КОЛЛЕКЦИЯ	-10.9635
▁ПАРАЛИМПИЙСКИ	-10.9637
▁НОВОСТЬ	-10.9637
▁СНИМАЕТ	-10.9637
▁ПОВЕРХНОСТ	-10.9638
▁ПРОГРАММИРОВАНИ	-10.9638
РЯТ	-10.964
▁СПОРТИВНО	-10.964
▁СУММА	-10.9641
▁БОЛЕЗНЬЮ	-10.9644
▁МОЛОДЖЬЮ	-10.9644
▁ПРОФЕССИОНАЛЬН	-10.9645
▁ОБЪЕКТОМ	-10.9648
▁АКТИВ	-10.9649
▁ВСТРЕЧАЕТ	-10.9649
ПЛЕ	-10.9649
▁ПРОДОЛЖАЛИ	-10.9649
▁ПЛАСТИКА	-10.9653
ЖИТЬ	-10.9658
▁ОТКАЗАЛСЯ	-10.966
▁МЕТАФОРА	-10.9662
▁ЦВЕТОМ	-10.9662
▁ВРЕМЕННЫ	-10.9663
▁СВЕЖИ	-10.9666
▁ПЕТЬ	-10.9667
▁ПРЕДСТАВИТЕЛЬ	-10.9667
▁НАПОМИНА	-10.9668
▁МАРС	-10.9669
▁ПРОДОЛЖЕНИЕ	-10.967
▁ХЛЕБОМ	-10.9673
▁СИНИЙ	-10.9675
▁ОСТАНОВИ	-10.9676
▁ПАРЫ	-10.9677
ДЖ	-10.968
▁ПРИНЯТЫ	-10.968
▁УВЫ	-10.9681
▁ВРАЧУ	-10.9682
▁ИЗМЕНИЛИ	-10.9683
РЕЗАТЬ	-10.9683
▁ПРИЗНАН	-10.9686
▁ЛАГМАН	-10.9686
ИСТЫ	-10.9687
▁КОТИКА	-10.9688
▁ПРИВЕЛИ	-10.9689
▁БАХ	-10.9693
▁ПЕЧАТАТЬ	-10.9693
▁ВСТАВАТЬ	-10.9694
▁СПОСОБАМИ	-10.9695
▁ДАВИД	-10.9699
▁НЕС	-10.9702
▁ПОТРАТИЛ	-10.9703
▁КОНТИНЕНТА	-10.9704
▁КОММЕНТАРИЙ	-10.9705
▁СПУСТ	-10.9706
▁УЧНЫМИ	-10.971
▁КЛЮЧИ	-10.9715
▁ФИЗИКА	-10.9719
▁ГАРМОНИИ	-10.9722
▁СРЕДНЕЕ	-10.9722
▁ЛОКАЛЬНЫЕ	-10.9724
▁СТИВ	-10.9726
▁НРАВИТЬСЯ	-10.9728
ШИХ	-10.9736
▁ВИНОВАТЫ	-10.974
▁ИНСТРУМЕНТОВ	-10.9741
▁ПОЛОВИНУ	-10.9748
▁ОДИНАКОВЫЕ	-10.9751
▁ТЕЛЕСНО	-10.9753
▁ПАЛ	-10.976
▁СМЕЛЫ	-10.9766
ДОМ	-10.9767
▁УНИКАЛЬНЫЕ	-10.9769
▁РАЗНОГО	-10.977
▁БРЕНДОВ	-10.9775
▁КРИТИКУ	-10.9777
▁ЗНАКОМА	-10.9778
▁ОТВЕТОВ	-10.9782
▁СОМНЕНИЕ	-10.9783
▁ОКЕАНА	-10.9783
▁РАКА	-10.9785
▁НЕРВН	-10.9789
▁УКРАИН	-10.979
▁ИС	-10.9791
▁ДОМАШНИ	-10.9792
▁МАГАЗИНА	-10.9792
▁ЛОНДОНЕ	-10.9793
▁ДАНО	-10.9796
▁ЕДЕМ	-10.9797
▁ВЫГЛЯДЕЛИ	-10.9798
СТОКОВ	-10.9798
▁ОБСУЖДАЮТ	-10.9799
▁БЕЛЫ	-10.98
▁КЛЮЧЕВЫ	-10.98
ПОЛЗ	-10.9801
▁МЫСЛИТЬ	-10.9801
▁ПАП	-10.9804
▁АКАДЕМИК	-10.9805
▁УСПЕХУ	-10.9807
▁БОЯ	-10.9809
▁ДЛИТЕЛЬН	-10.9813
▁ТОНКИ	-10.9817
▁КУПИТ	-10.9817
▁ДОМОВ	-10.9818
▁УЛИЦА	-10.9824
▁ВОЛОНТР	-10.983
ЛЕР	-10.9839
▁УЛУЧШЕНИЕ	-10.9839
▁УСЛОВИЕ	-10.9841
▁САШ	-10.9841
▁СТАНДАРТНЫ	-10.9842
▁МЫШИ	-10.9849
▁ГОРОДОМ	-10.9851
▁ОСТРО	-10.9853
▁КЛАССУ	-10.9858
▁ТРЕНЕРА	-10.9861
▁ОБСУЖДАЛ	-10.9865
▁РАСШИРИ	-10.9868
▁КОРОТК	-10.9872
▁МАЯ	-10.9878
ЮЩИХСЯ	-10.9878
ЗЫВАЕТ	-10.9878
▁СЧАСТЛИВЫХ	-10.988
▁ВЕСА	-10.988
▁МАРИ	-10.9881
▁СТОЯЛА	-10.9884
ИНДИВИДУАЛЬНОСТЬ	-10.9886
▁ПОЯВЛЕНИ	-10.989
БЕР	-10.9893
▁ЗВОНАР	-10.9896
▁КОММЕРЧЕСКИ	-10.9896
▁КАЧЕСТВЕННО	-10.9903
ИНУ	-10.9904
▁ЛИЧНЫМ	-10.9907
▁МУЖА	-10.9918
▁ОТКРЫТЫЕ	-10.9921
▁СТУДЕНТК	-10.9924
▁ПЕРВЫМИ	-10.9927
СТИТ	-10.9927
▁СОБАК	-10.9934
▁ИЗМЕНЕНИЯМ	-10.9942
СКИМ	-10.9943
▁ОПРЕДЕЛННЫМ	-10.9945
▁МЛАДШ	-10.9949
▁ПРИХОД	-10.9951
▁СОВРЕМЕННЫМ	-10.9954
▁БАН	-10.9954
▁ОБРАЩАЮТ	-10.9961
ШИТЬ	-10.9962
▁ОТКРЫВА	-10.9972
▁ВСПОМНИ	-10.9978
▁АТОМН	-10.9979
▁РАЗВИВА	-10.9984
БОЛЬШОЙ	-10.9989
▁СМС	-10.9989
▁ДОКАЗАН	-10.9989
▁ЖАР	-10.9995
▁ОБЪЕКТИВНО	-11
▁ШАНСА	-11.0004
▁ИЗУЧАЮ	-11.0006
▁ВАШИМИ	-11.0007
▁ПЕРИОДА	-11.0015
КИХ	-11.0015
▁УЗБЕКСКИ	-11.0029
ЕДВА	-11.0036
ИТЕЛЬНАЯ	-11.0042
▁ПУТЕШЕСТВЕННИК	-11.0042
▁НОСИТ	-11.0043
▁КОТ	-11.0045
КОН	-11.0049
▁ПОТРЯСАЮЩИ	-11.0054
РАЖ	-11.0055
▁ПОЛУЧЕН	-11.0059
▁ФОРМ	-11.0078
▁СТРУКТУР	-11.0087
▁ОТПРАВЛЯЛ	-11.0088
▁АД	-11.009
▁ЗАПРОС	-11.0091
ЕДИНОМЫШЛЕННИКОВ	-11.0093
▁ЛИЧНОЕ	-11.0098
КАМ	-11.0101
▁УСТ	-11.0104
▁МАСШТАБЕ	-11.0109
▁ВКУСНО	-11.0125
▁ЗНАМЕНИТЫ	-11.0131
▁ПРОСЫПА	-11.0133
▁РЕАЛЬНОМ	-11.014
▁БАНАЛЬНО	-11.0141
▁МНОГОМНОГО	-11.015
▁ГОДОМ	-11.0151
▁СРЕДН	-11.0163
ЛЕТИТ	-11.0168
▁ДОКТОРА	-11.0173
▁СТАТЬЮ	-11.0179
▁ПРИВЫЧНЫ	-11.0198
ТАТЬ	-11.0204
▁РАЗМЕРА	-11.0211
▁ОБЪЕДИНИ	-11.0215
▁УНИЧТОЖ	-11.0222
▁ИНТЕРЕСУ	-11.0223
▁ПОЖИЛО	-11.0234
▁ИРАН	-11.0234
▁ЭКОЛОГИЧЕСКО	-11.0251
▁ДУШ	-11.0256
▁МОЛОДЖНЫ	-11.0275
▁СЕВЕРНО	-11.0275
▁СПЕЦИАЛЬНОСТ	-11.0278
▁БЕЛК	-11.0278
▁ОПРЕДЕЛИЛ	-11.0279
▁ХУД	-11.0281
▁СТРАХА	-11.0283
▁ПРОДОЛЖАЮ	-11.0291
▁ХУДОЖЕСТВЕНН	-11.0293
▁ПОЭТ	-11.0296
СИЛИ	-11.0298
▁ВЛИЯ	-11.0308
▁ПСИХОЛОГИЧЕСК	-11.0308
▁ПОГРУЖА	-11.0319
СТРА	-11.0324
▁ОБЫЧНЫМ	-11.0324
▁СКАЗ	-11.0325
СНО	-11.0325
▁ЛЕКАРСТВ	-11.0331
СОТ	-11.0334
НУЛ	-11.0337
▁ТЕХНОЛОГИЧЕСКО	-11.0342
▁ЗАВОДЕ	-11.0345
▁ЕВРАЗИЙСК	-11.0345
▁СОВЕРШАЛ	-11.0345
▁ИСКУССТВ	-11.036
▁ОБМАНЫВА	-11.0364
▁АЛЬТЕРНАТИВ	-11.0371
▁НАБРАЛ	-11.038
▁ЗАЩИТ	-11.0381
▁ТРАВ	-11.0381
▁ОСОБЫМ	-11.0384
КАЗЫВАЮТ	-11.0385
▁УПРАВЛЕНИ	-11.0405
▁КАН	-11.0409
НИЦА	-11.0411
НИЗ	-11.0412
▁РАССКАЗЫВА	-11.0413
▁РАСХОДОВ	-11.0419
▁СФОРМУЛИРОВАН	-11.043
АЛИСЬ	-11.0442
▁ЗАВЕДЕНИ	-11.0448
ИРОВАНН	-11.045
▁НЕГАТИВ	-11.0461
▁ЖИЗНЕ	-11.0481
▁ОБРАЗОВА	-11.0485
▁УГОЛ	-11.0487
▁ОБЪЯСНЯЮ	-11.0488
▁ОБОШЛ	-11.0491
▁ОР	-11.0495
ДОЛГО	-11.0497
▁СОВЕРШИЛ	-11.0499
▁ПРОС	-11.0502
▁РАЗРЫВ	-11.0506
▁СТРОИТ	-11.0513
▁АРХИТЕКТУРНО	-11.0519
▁ТЕХНИК	-11.0521
ДЕСЯТ	-11.0525
▁МОМЕНТУ	-11.0526
▁ИНТЕРЕСН	-11.0527
▁ЭЛЕКТРОН	-11.0531
▁ДОСТУПНЫ	-11.0532
ПИТ	-11.0537
КАЧАТЬ	-11.054
ЯТЬСЯ	-11.0543
▁СИНИ	-11.0544
▁СЕГОДНЯШН	-11.0546
▁ПРИЗНАК	-11.0556
СЛА	-11.0559
▁ТАЙН	-11.0563
▁ВЕЛИКА	-11.0564
▁ШАР	-11.0564
▁НАХОДИЛА	-11.0565
▁ЗАПОЛНЕН	-11.0568
КОП	-11.0574
▁СОБИРАЕТ	-11.0577
▁ДОБАВИЛ	-11.0582
ТЯНУТЬ	-11.0585
▁СТРАТЕГИ	-11.0587
▁ДЕРЖАЛ	-11.0587
ХНЕТ	-11.0603
▁СЛЫШИТ	-11.0604
▁ОСВОБОДИ	-11.0607
▁ТРЕНД	-11.0614
▁СЛУШАЛ	-11.0616
10	-11.0618
ЫВАЮТ	-11.062
▁БЕЛО	-11.0625
▁ПЛАВА	-11.0626
▁ПОЙМТ	-11.0627
ДЕВАТЬ	-11.0631
КЛАДЫВАЕТСЯ	-11.0632
▁АГРЕССОР	-11.0634
▁ФОН	-11.0636
▁ОТКАЗ	-11.064
▁ЧЕРТ	-11.0641
РНЫЙ	-11.0641
КОРМИТЬ	-11.0651
ЖЕМ	-11.0652
▁СЖИГА	-11.0654
▁ГЕНЕТИЧЕСК	-11.0664
▁ПЕРЕРЫВ	-11.0664
▁ДЕПРЕССИ	-11.0664
▁ГОЛОСОВ	-11.0674
▁АКТУАЛЬНО	-11.0678
▁ПЕРЕСТАТ	-11.0679
▁НЬЮЙОРК	-11.0681
▁ОБМАН	-11.0683
▁КОМПОЗИТОР	-11.0686
▁ГАЗЕТ	-11.0689
ПРИ	-11.0695
РАБАТЫВАТЬ	-11.0696
▁СФОРМУЛИРОВА	-11.0696
▁СМЕЛО	-11.0697
▁ДНЕ	-11.0698
РАБАТЫВА	-11.0701
▁РУГА	-11.0701
▁РИСУНК	-11.0707
▁КОСМЕТИК	-11.0709
▁ПРИОБРЕТА	-11.071
▁ВЫРАЩИВА	-11.0711
▁ПРОШЛОЕ	-11.0714
▁АБСОЛЮТН	-11.0714
▁ДРОН	-11.0717
▁АКТИВИЗМ	-11.0717
ССР	-11.0719
▁ТАРТУ	-11.072
▁ЛГКО	-11.072
▁БРОСА	-11.0722
ЧАС	-11.0722
▁КРАСИВЫМ	-11.0723
▁КОВР	-11.0729
▁СОВЕТУЮ	-11.0732
ИТЕЛЬ	-11.0735
ЛЕВО	-11.0736
ДОРОЖ	-11.0738
▁МОЛОКО	-11.0741
▁НАЧИНАЛИ	-11.0741
▁ВЕРСИ	-11.0744
▁ПРОЯВЛЕНИ	-11.0746
ЛИЧНАЯ	-11.0746
▁ТЕМПЕРАТУР	-11.0747
▁СУММ	-11.0748
▁ЭМОЦИЯ	-11.0751
ВОДИТ	-11.0752
▁ПОСЛЕДСТВИ	-11.0753
▁ДАВАЛА	-11.0753
ВШИЕ	-11.0754
▁СТОЛКН	-11.0755
▁МАЛЕНЬКИМ	-11.0757
▁АВТО	-11.0758
▁ПОМОГАЮ	-11.0758
▁ЖАЛЕ	-11.0765
ОКАЖЕТСЯ	-11.0766
ЗОР	-11.0771
▁АЛЬБОМ	-11.0774
▁МАСК	-11.0774
ЩИТЕ	-11.0777
▁РОК	-11.0778
ЕНИЙ	-11.0779
▁СТРАСТЬ	-11.078
▁ЭФФЕКТИВНЫМ	-11.0783
▁ЧЕРВ	-11.0783
▁СПАЛ	-11.0784
▁СУЩЕСТВОВАНИ	-11.0785
▁МОНГОЛ	-11.0787
▁РАЗВИВАЕТ	-11.0788
▁НЕДАВН	-11.0789
▁ВРУ	-11.0791
▁ПРОЖИВ	-11.0793
▁ГРАММ	-11.0799
▁УБЕЖДЕН	-11.0804
▁ПОХОРОН	-11.0806
▁РАЦИОН	-11.0806
▁ШОК	-11.0807
▁ИНСТИНКТ	-11.0808
▁БЛЬШ	-11.0809
▁ТП	-11.0809
▁ГОРОЖАН	-11.081
▁РЕМОНТ	-11.081
▁ТРЕНИРУ	-11.081
ЛЕНИЕ	-11.0811
▁МЕЖ	-11.0811
▁КАЛЕНДАР	-11.0811
▁САКРАЛЬНО	-11.0811
▁ЭНЕРГОЭФФЕКТИВН	-11.0811
▁ВЗАИМООТНОШЕНИЯ	-11.0811
▁ВИЧСТАТУС	-11.0811
▁ГОСПОДА	-11.0811
▁ДЖИНСОВ	-11.0811
▁ДЖОБС	-11.0811
▁КАМПАНИ	-11.0811
▁КНИЖНО	-11.0811
▁КРИТИЧЕСКИ	-11.0811
▁КУЛАКИ	-11.0811
▁МЕЛОЧ	-11.0811
▁МЕТАЛЛОДЕТЕКТОР	-11.0811
▁ОГРОМЕН	-11.0811
▁ОРГАНИЗАТОР	-11.0811
▁ПЕРВОБЫТНЫ	-11.0811
▁ПЛАСТИЧНОСТЬ	-11.0811
▁ПОДДЕРЖКЕ	-11.0811
▁ПОДЪЕЗД	-11.0811
▁ПОЗДРАВЛЯ	-11.0811
▁ПОКУПОК	-11.0811
▁ПОНАЧАЛУ	-11.0811
▁ПОСЛУШАТЬ	-11.0811
▁ПОТРЕБНОСТЕЙ	-11.0811
▁ПРИМЕНЕНИЯ	-11.0811
▁ПРОЗВУЧАЛ	-11.0811
▁РАЗРАБОТАН	-11.0811
▁РЕКОРД	-11.0811
▁СИГАРЕТ	-11.0811
▁СТАДИИ	-11.0811
▁СТАТИСТИКУ	-11.0811
▁ТЕЛЕСКОП	-11.0811
▁ТЕНДЕНЦИИ	-11.0811
▁ЭЛЕКТРИЧЕСТВО	-11.0811
▁ЭСТОНИЮ	-11.0811
▁ГАРАЖ	-11.0811
▁ИЗМЕРЕНИЕ	-11.0811
▁ПОЛЮБИЛ	-11.0811
▁ТЕРПЕТЬ	-11.0811
▁УКРАЛ	-11.0811
▁ЩТКИ	-11.0811
▁ЖАЛОСТЬ	-11.0811
▁КРОВАТИ	-11.0811
▁ПРОИЗВОДИМ	-11.0811
▁УСТРОИТЬ	-11.0811
▁ФОРУМ	-11.0811
▁ЦИТАТ	-11.0811
▁ЭКОНОМИКЕ	-11.0811
▁ЖАЛКО	-11.0811
▁ХАРАКТЕРИСТИК	-11.0811
НЕЗАП	-11.0811
▁ИСПЫТАНИЕ	-11.0811
▁ИЗБИРАТЕЛЕЙ	-11.0811
▁АЛЕРТ	-11.0811
▁ПРОДВИЖЕНИ	-11.0811
▁МЕШАЮТ	-11.0811
▁РОБЕРТ	-11.0811
▁ВЗЛТ	-11.0811
▁ПРЕДИКТИВН	-11.0811
▁СПИРАЛЬ	-11.0811
▁СОСТАВЛЯЮЩАЯ	-11.0811
▁ПОЛОЖЕНИИ	-11.0811
▁ДОЧЕРЬЮ	-11.0811
▁НЕНАВИДЕТЬ	-11.0811
▁КОМПОЗИЦИИ	-11.0811
▁ЛЮСИ	-11.0811
▁ОШИБАТЬСЯ	-11.0811
▁СЛОЖИЛОСЬ	-11.0811
▁ПЛНК	-11.0812
▁СЕРЕБРА	-11.0812
▁КОМПОСТЕР	-11.0812
▁НЕМАЛО	-11.0812
▁ОКСАН	-11.0812
▁ОЖИДАНИЯ	-11.0812
▁УСИЛИЙ	-11.0812
▁МЕДИЦИНСКАЯ	-11.0812
▁ДРУЖБА	-11.0812
▁ИСПОЛНЕНИ	-11.0812
▁ВЕСЛЫ	-11.0812
▁НАЙДУТ	-11.0812
▁ПРОЧЕЕ	-11.0812
▁ФОРМИРОВАТЬ	-11.0812
▁ГРАД	-11.0812
▁УСТАНОВКУ	-11.0813
▁НЕФТЕ	-11.0813
▁БОИМСЯ	-11.0813
▁ДОГОВАРИВАТЬСЯ	-11.0813
▁ПРОМЫШЛЕННОСТИ	-11.0813
▁ПАРЛАМЕНТ	-11.0813
▁УЧАСТВУЮТ	-11.0813
▁РАСКРЫТЬ	-11.0814
▁РЕЛИГИОЗНО	-11.0814
▁СООБЩЕНИЯ	-11.0814
▁ПРОНИКАЕТ	-11.0814
▁ПЛОЩАДКУ	-11.0814
▁БРЕД	-11.0814
▁ЧАШКИ	-11.0814
▁УМНЕЕ	-11.0815
▁ВТОРЫЕ	-11.0815
▁ПОСЛУШАЙТЕ	-11.0815
▁ПРОЧЛ	-11.0815
▁ПРОЦЕДУРУ	-11.0815
▁СОРОК	-11.0815
▁СПРАШИВАЮ	-11.0816
▁ПРИВЛЕКА	-11.0816
▁ДОКАЗАЛ	-11.0816
▁НЕНАВИСТЬ	-11.0816
▁ГОСТЕЙ	-11.0817
▁ДЕЛИТЕСЬ	-11.0817
▁КОШКА	-11.0817
▁ГОРДОСТЬЮ	-11.0817
▁ВЕРНТСЯ	-11.0818
▁НОЯБРЯ	-11.0819
▁ВОЗНИКНОВЕНИ	-11.0819
▁ПОКУПАЮТ	-11.082
▁ЗАМЕЧАЕМ	-11.082
▁РАЗМЫШЛЕНИЯ	-11.082
▁ИЩЕМ	-11.0821
▁ДОБРОТОЙ	-11.0821
▁ИЗМЕРИТЬ	-11.0821
▁НАБЛЮДАЕМ	-11.0821
▁БЛАГОДАРНОСТИ	-11.0821
▁ПОКУПАТЕЛЕЙ	-11.0821
▁ЗАДУМАЛСЯ	-11.0822
▁ИЗМЕНИЛИСЬ	-11.0822
▁СТАЛКИВАЕТСЯ	-11.0822
▁МУСУЛЬМАН	-11.0822
▁ИГНОРИРОВА	-11.0822
▁НАГРУЗКИ	-11.0822
▁СЕРДЕЧКО	-11.0822
▁ИНТЕРВЬЮ	-11.0822
▁ПРИЛЕТЕЛ	-11.0822
▁ЗАЩИЩАЮТ	-11.0823
▁ЦЕЛОЕ	-11.0823
▁ПОБЫВАЛ	-11.0824
▁ЭВОЛЮЦИЯ	-11.0824
▁ИЗБЕЖАТЬ	-11.0824
▁СВОЙСТВЕННО	-11.0824
▁РАЗДЕЛИТЬ	-11.0825
▁ФАНТАЗИЯ	-11.0825
▁УДОБНЕЕ	-11.0825
▁ПРИБОР	-11.0826
▁ГАДЖЕТОВ	-11.0827
▁ПОТРОГАТЬ	-11.0827
▁КРИЧАТЬ	-11.0827
▁ОБМЕНИВА	-11.0827
▁УМЕРЕТЬ	-11.0827
▁СЛОВОСОЧЕТАНИЕ	-11.0827
▁ИЩУТ	-11.0827
▁КООПЕРАЦИ	-11.0827
▁КРАСН	-11.0827
▁МНОГОЧИСЛЕННЫ	-11.0827
▁ПРИЕЗЖАЕТ	-11.0827
▁ПРЕДПРИЯТИЕ	-11.0828
▁ВОСПИТЫВАЮТ	-11.0828
▁ПОБЕДЫ	-11.0828
▁ЧИТАТЕЛЬ	-11.0828
▁ПЕРЕЖИВАЕМ	-11.0828
▁ПРОЯВИТЬ	-11.0828
▁ЭЛЕКТРОННЫМ	-11.0828
▁НАТАША	-11.0829
▁ВЫЖИВАНИЯ	-11.083
▁МАНИПУЛЯЦИИ	-11.083
▁ИМПРИНТИНГА	-11.083
▁СРАВНИВАТЬ	-11.083
▁УЧБА	-11.083
▁ЗВОНОК	-11.0831
▁СВОБОДНЫМ	-11.0831
▁ЛОШАДЬМИ	-11.0832
▁ВСТРЕЧАТЬСЯ	-11.0832
▁НОЧАМ	-11.0832
▁ОЦЕНКУ	-11.0832
▁ОСТАЛЬНОГО	-11.0833
▁ТЕРРИТОРИЯ	-11.0833
▁ПОРОГ	-11.0833
▁ДУШОЙ	-11.0834
РЯДУ	-11.0834
▁ПРИЛОЖИТЬ	-11.0834
▁ОБИДНО	-11.0835
▁ВЕРОЯТНОСТИ	-11.0835
▁ЭГО	-11.0835
▁ИЗМЕНИТСЯ	-11.0835
▁ЛЕПИЛ	-11.0836
▁ПРЕОДОЛЕВА	-11.0836
▁ДЕВУШКОЙ	-11.0837
▁ДОВЕРИЯ	-11.0838
▁СУЩЕСТВОВАЛО	-11.0838
▁ОСОБЫ	-11.0838
▁ИГРАЮ	-11.0838
▁ВОЛНЫ	-11.0839
▁ЗАХОЧЕТСЯ	-11.0839
▁НАЗЫВАЛСЯ	-11.084
▁ШТАТОВ	-11.0841
▁ЕДИНИЦЫ	-11.0841
▁ПОДРЯД	-11.0841
▁ОСТАВИМ	-11.0841
▁ГЛУБЖЕ	-11.0841
▁СМЕХ	-11.0842
▁АССОЦИАЦИИ	-11.0842
▁СХЕМА	-11.0843
▁ПОДОБНОГО	-11.0845
▁ФАНТАЗИИ	-11.0845
▁ДУРАК	-11.0845
▁БИО	-11.0845
▁УСТРОЙСТВО	-11.0845
▁ПУЗЫРЕЙ	-11.0846
▁ФОТОНЫ	-11.0846
▁ЕЗД	-11.0847
▁ОДЕЯЛО	-11.0848
▁ЗАРАЗИТЬ	-11.0848
▁ПОДЧИНЯ	-11.0849
▁ВЫСТУПИТЬ	-11.0849
▁НАЦИОНАЛЬНЫ	-11.0851
▁ДЕМОН	-11.0853
▁ЗАЩИТЫ	-11.0853
▁ЗАБЫТ	-11.0853
▁ОБЪЕКТАМИ	-11.0854
▁ВОСТОКЕ	-11.0855
ТЕРЕТЬ	-11.0855
▁250	-11.0856
▁СКОПИРОВАТЬ	-11.0857
▁АГРЕССИЮ	-11.0857
▁ПЯТНИЦ	-11.0858
▁ОТМЕЧА	-11.0861
▁ЕЖЕДНЕВНЫ	-11.0861
▁ЛИДЕРОВ	-11.0861
▁ПРЕДПОЛОЖИТЬ	-11.0862
ВАЕТ	-11.0863
▁СТЕКЛО	-11.0863
▁РАССТОЯНИЯ	-11.0863
▁МЕДИЦИНЫ	-11.0863
▁РАКОМ	-11.0864
▁ДЕРЕВЯННЫ	-11.0865
▁СОМНЕНИЯ	-11.0865
▁БУКВЫ	-11.0866
▁ЛОДКИ	-11.0866
▁ЛЕНИНА	-11.0866
▁ПЕРЕДАЧА	-11.0867
▁КУКОЛ	-11.0867
▁ДЕНЕЖНЫ	-11.0869
▁НЕИЗВЕСТНО	-11.087
▁ЗАКОНОВ	-11.0871
▁ОГРАНИЧЕНИЙ	-11.0872
▁МОЩНО	-11.0872
▁ПАПУ	-11.0874
▁ВРЕДНЫХ	-11.0874
ТВЕ	-11.0875
▁КОЛЛЕГА	-11.0878
▁ЧЕЙ	-11.0879
▁НАЗОВМ	-11.0879
▁РОЗОВ	-11.0881
▁ДИЗАЙНЕРОМ	-11.0881
▁ЗВОНИТЬ	-11.0882
СЛЕДУЕТ	-11.0883
▁ШИРОКИ	-11.0885
▁ФИЗИОЛОГИЧЕСКИ	-11.0885
▁ТРАМП	-11.0887
▁МУЖИК	-11.0888
▁МАРКЕР	-11.0888
ЕНИЕМ	-11.0889
▁ВНЕШНЕМ	-11.089
▁ЗАДАТЬ	-11.0891
▁ИСТОЧНИКОВ	-11.0891
▁БЕЖИТ	-11.0891
▁ПРЕДРАССУДКИ	-11.0892
ЛЕЧУ	-11.0892
▁РАЗДЕЛЕНИ	-11.0892
▁БОЛЬНОГО	-11.0893
▁ЛЕНЬ	-11.0893
▁ВЕСОМ	-11.0897
▁ДЕЯТЕЛЬНОСТЬЮ	-11.0898
▁НАНОСИТ	-11.0898
▁ЧАСТНО	-11.0899
▁ЗВОННИЦ	-11.0902
▁ЗВУКОМ	-11.0902
▁РАВНЫХ	-11.0902
▁АВТОМОБИЛЕЙ	-11.0903
▁ГОСУДАРСТВУ	-11.0904
▁ДОСТОЙНА	-11.0904
▁РАССЛАБИТЬ	-11.0905
▁ЗАЩИТА	-11.0906
СОСТОЯНИЮ	-11.0907
ЙКИ	-11.0909
▁РАДЫ	-11.091
▁УЗНАЕТЕ	-11.0911
▁ГУБ	-11.0913
▁ТУБЕРКУЛЗА	-11.0916
▁ОБЩЕСТВЕННОМ	-11.0916
ЛФИ	-11.0918
▁ПЕСНИ	-11.0919
▁СЕКСУАЛЬНЫ	-11.092
▁ВАВИЛОНСК	-11.0921
▁ПРЕБЫВАНИ	-11.0923
▁ПОНЯТИЙ	-11.0924
ЗИИ	-11.0927
▁НЕДЕЛЯ	-11.0927
▁ПРОТИВО	-11.0929
▁РАЗЛИЧИ	-11.093
▁ИЗОБРЕ	-11.093
▁УГЛ	-11.093
▁КОЛЛЕКЦИИ	-11.0931
▁БЕСПЛАТНЫ	-11.0934
▁СЕКУНДЫ	-11.0934
▁ДЕЙСТВИЯМИ	-11.0934
▁РАССМАТРИВАТЬ	-11.0934
▁ИЗМЕНИЛА	-11.0936
▁КОТА	-11.0936
▁КАМЕРЫ	-11.0938
ЕДУТ	-11.0939
▁ЗНАКОМАЯ	-11.094
▁ПЛАТИТЬ	-11.0941
▁УВАЖЕНИЕ	-11.0941
▁КОМПЬЮТЕРОВ	-11.0943
▁ВЫЗОВЫ	-11.0943
▁МЕРОПРИЯТИЕ	-11.0944
▁ОДИНАКОВЫ	-11.0945
▁КЛИНИКИ	-11.0946
▁РОС	-11.0946
▁МЫСЛИТ	-11.0947
▁ТЕХНОЛОГИЧЕСК	-11.0947
▁НАЗОВ	-11.0947
▁МАЛЬЧИКОВ	-11.0948
▁СОГЛАСНЫ	-11.0948
▁ТМН	-11.0949
ННО	-11.0949
▁НАЗЫВАЕТ	-11.095
▁СТРЕМЯ	-11.0952
▁РАБОТНИКИ	-11.0954
▁ШУМА	-11.0955
▁ОБЕЩАЛИ	-11.0955
▁СТОЛКНУЛ	-11.0957
▁КОМПЬЮТЕРОМ	-11.0958
▁ОТКУДАТО	-11.0959
▁НАБЛЮДА	-11.0962
▁МАТЕМАТИЧЕСКИ	-11.0963
▁БЕРЕМЕННОСТ	-11.0964
▁ДОБАВИМ	-11.0964
▁МУЛЬТФИЛЬМА	-11.0965
▁УХОДА	-11.0969
▁ВЛАДЕЛ	-11.097
▁БАНКИ	-11.097
▁ЛУ	-11.0971
▁ПЕРЕСАДКЕ	-11.0972
▁ИЩУ	-11.0973
▁РАННИ	-11.0975
ОГРАФ	-11.0976
▁ПЕРЕВОДЫ	-11.0977
▁БЫСТРЫ	-11.0977
▁КРУТИТЬ	-11.0982
▁БЕРУ	-11.0982
▁УДИВИЛ	-11.0983
▁ЖЕНСКОЙ	-11.0985
▁ПРИДЕРЖИВА	-11.0988
▁ЧУДЕСНО	-11.0995
▁ЗАВОЕВАЛ	-11.0997
▁ГОЛОВАХ	-11.1
▁ПОСТУПАЕТ	-11.1001
▁СДАВАТЬ	-11.1002
▁ВЕРИТЕ	-11.1004
▁ПСИХОЛОГИИ	-11.1006
▁ФАБРИКА	-11.1008
▁АДАПТИРОВАТЬ	-11.1011
▁ПРОЧИТАЛИ	-11.1011
▁МОЛОДЫМИ	-11.1015
▁ИНТЕЛЛЕКТА	-11.1015
▁НАХОДЯТ	-11.1021
▁НЬЮЙОРКЕ	-11.1022
▁КЛАССИК	-11.1024
▁ПАДАЕТ	-11.1025
▁МОДНЫ	-11.1028
▁ПРОДАЖИ	-11.1029
▁ДУХОВНО	-11.1034
▁БИЗНЕСОМ	-11.1036
▁РАЗМЕРУ	-11.1041
▁НЕИЗБЕЖНО	-11.1042
▁СУЩЕСТВА	-11.1044
▁СОСТАВИЛ	-11.1044
СП	-11.1044
▁СТРОИЛИ	-11.1044
РАСТАЕТ	-11.1045
▁РЕКЛАМНЫ	-11.1047
СФЕРЫ	-11.1048
▁АНТРОПОЛОГИ	-11.1048
▁ШАРА	-11.1053
ЙДШЬ	-11.1054
▁ЗНАНИЯМИ	-11.1059
▁ПОДТВЕРЖДАЕТ	-11.1061
▁РЕЗ	-11.1062
▁ОПИСЫВАЮТ	-11.1063
▁КОНТАКТЫ	-11.1063
▁ЗАПАДЕ	-11.1066
▁ОФИЦИАЛЬНО	-11.107
▁УДАЧНЫ	-11.1072
▁РОЖ	-11.1072
▁ТВРДО	-11.1078
▁ПРИВЛЕЧЕН	-11.1083
▁БУДУЩ	-11.1084
▁ПРЕЗИДЕНТА	-11.1089
▁ОСНОВНЫМ	-11.109
ИЧНО	-11.1092
▁ВЕЛИКИХ	-11.1096
▁ОНКОЛОГИЧЕСКИ	-11.1099
▁НАНЯТЬ	-11.1101
▁ЛИЦОМ	-11.1104
▁ПРИВЫЧНО	-11.1107
ОРТ	-11.1111
▁ПОЕХАЛА	-11.1112
▁ПОСТА	-11.1116
▁ЛИДЕРА	-11.1117
▁НЕОБЫЧНЫ	-11.1119
▁СТАРШИ	-11.1121
▁ПОСЛЕДНЕЙ	-11.1122
КАЗЫВАТЬ	-11.1124
▁ЗАП	-11.1128
▁ВЗЯЛА	-11.1129
▁ФУТБОЛЬНЫ	-11.1132
▁ЗАКРЫТЬ	-11.1133
▁ПОЛНОЙ	-11.1137
▁ДИКТ	-11.1138
▁ПОЗИТИВНО	-11.1138
▁ИГРУШКА	-11.1139
ЕНТ	-11.1141
ШИЛИ	-11.1143
▁НАРУШАЮТ	-11.1144
▁ПЛАНУ	-11.1146
▁ОТРАЖАЕТ	-11.1147
▁КОНКУРСЕ	-11.1155
ЧАТ	-11.1156
▁ОГРАНИЧЕННО	-11.1161
▁ИНОМ	-11.1161
▁ОБНАРУЖИВА	-11.1166
▁ПОЛТ	-11.1169
УЙТЕ	-11.118
▁ТИПИЧНЫ	-11.118
▁РАЗДЕЛЯ	-11.1181
▁ЭЛЕКТРОННЫ	-11.1191
▁ВОПР	-11.1193
▁ПЕРЕЕХАЛ	-11.1193
▁НАНО	-11.1193
ЧУВСТВУЕШЬ	-11.1198
▁СМОТРЯ	-11.12
▁ТОЛК	-11.1202
ЕННОЙ	-11.121
▁УЧИТЫВАТЬ	-11.1212
▁НАКОПИ	-11.1215
РАСТИТЬ	-11.1222
▁ПРОДАТЬ	-11.1228
▁ЖЕНСКО	-11.1234
▁ВОСПИТЫВАЕТ	-11.1234
▁МАШИН	-11.124
▁ОСУЖДА	-11.1242
▁КУЛЬТУРН	-11.1244
▁РОДИТЬ	-11.1248
▁ЗДОРОВА	-11.1252
▁РАЗРУШИЛ	-11.1253
НОСИТ	-11.1254
▁СТАНДАРТ	-11.1254
▁КЛАДОВ	-11.1264
▁СТРАХОВ	-11.1267
▁АМЕРИКАНСКИЕ	-11.1271
▁ПРИБЛИЖА	-11.1272
▁ПРИЮТ	-11.1273
▁РАЗГОВАРИВАЮ	-11.1275
▁РУЧК	-11.1278
▁ТЕРАПИ	-11.1284
ВЕДЕНИЕ	-11.1287
▁ОТВЕЧАЕТЕ	-11.1291
▁ЖЕСТЬ	-11.1292
▁СМЕНИЛ	-11.1292
КЛАДЫВАЮТ	-11.13
▁ЖЕНИ	-11.1302
▁РАБОЧИЕ	-11.1305
▁КРУТ	-11.1314
▁ТРАВМА	-11.1314
ИРОВАЛА	-11.1315
▁ГОЛОВНО	-11.1317
▁КОНКУРСА	-11.132
▁РАССКАЗАЛИ	-11.1323
ЙМИТЕ	-11.1335
▁БЫТ	-11.1336
▁ГЛАВН	-11.1339
▁ЦИФР	-11.1339
СТАЮТ	-11.1357
▁ФИНИШ	-11.1358
▁НЕЗРЯЧИ	-11.1361
КАЗАНО	-11.1363
▁ДОБИРА	-11.1367
КОВА	-11.1372
РИС	-11.1373
▁ВЫСОКИМ	-11.1374
ЫВАЕМ	-11.1393
▁НЕКОТОРЫМ	-11.1402
▁ИНТЕРЕСНОГО	-11.1405
▁НАБЛЮДАЕТ	-11.141
▁МАЛЬЧИКИ	-11.141
▁ХОЛОДНЫ	-11.1412
▁КОНТРАГЕНТ	-11.1416
▁ПОДНЯЛ	-11.1416
ВАТО	-11.1417
▁ВОЛНОВАЛ	-11.1422
▁ВНУТРЕННЕЕ	-11.1428
▁ДАЮ	-11.143
▁НАХОД	-11.1431
▁ДОСТАЛ	-11.1436
СТРАИВАТЬ	-11.1439
▁ЮРИДИЧЕСКО	-11.144
▁ВЕРХНЕ	-11.1445
▁ТЕСТО	-11.1448
▁СНЯЛ	-11.1454
▁ПРАВАМ	-11.146
▁СТОЛЕ	-11.1463
▁ОБСУЖДАЕТ	-11.1465
ЬМ	-11.1466
▁ВОСПРИНИМА	-11.1475
▁МУЗЕЙНЫ	-11.1489
▁ПУСКА	-11.1489
▁СТРАШНЫМ	-11.1493
▁ЗВУКОВ	-11.1493
▁ИНТЕРНЕТУ	-11.1495
АТАТЬСЯ	-11.1496
▁СИЛЬН	-11.15
▁НЕГАТИВНО	-11.1501
▁РИСКА	-11.1502
ЛЕТЕЛ	-11.1503
▁НАХОЖУ	-11.1509
▁ИЗОБРАЖ	-11.1513
▁ГРУД	-11.1521
▁ОСТАЛ	-11.1525
▁ОГРОМНОМ	-11.1541
▁СОЗДАЛО	-11.1544
▁ОЛЕ	-11.1546
▁ММ	-11.1546
▁КИСЛОТ	-11.155
▁ОБРАЩАЕТ	-11.1552
▁ИССЛЕДОВАНИ	-11.1567
▁КОСМОСЕ	-11.157
ТЕЛЯМИ	-11.1573
▁ПОНЯТН	-11.1574
▁УНИВЕРСАЛЬН	-11.1582
▁СОБАКА	-11.1592
▁ИТОГ	-11.1597
▁ВКЛАДЫВАТЬ	-11.1598
▁БРАТА	-11.1599
БИЛ	-11.1601
▁СКРЫТЫ	-11.1609
▁ПОДДЕРЖА	-11.1609
СКОЕ	-11.161
▁ПРАВАХ	-11.1613
▁УЛУЧША	-11.1618
▁СОБСТВЕННОСТЬ	-11.1621
ВАЛОСЬ	-11.1622
▁ПРОДЛЕВА	-11.1627
▁ГОЛЛИВУД	-11.1628
▁АТМОСФЕР	-11.1628
▁КЛАССНОЕ	-11.1629
ОВАНИЕ	-11.1631
▁МЕЧТАХ	-11.1632
ИНКА	-11.1634
▁ОТКРОВЕНН	-11.1635
▁ПОЖАР	-11.1643
▁ВАУ	-11.1645
ГИБ	-11.1646
▁ШТАМП	-11.1646
▁ТАЙНО	-11.1647
▁СРЕДНЕВЕКОВ	-11.1651
▁ГОТОВО	-11.1658
▁МЛАДШЕ	-11.1663
▁ЗАКРЫТ	-11.167
▁ПЕЧАТН	-11.1675
▁ЖЕЛАНИ	-11.1675
▁ДЕСЯТ	-11.1682
▁ЧЕМПИОНАТ	-11.1686
▁МАСС	-11.169
▁ПЛЕЧА	-11.1695
▁МЕТР	-11.1699
▁СОЗДАВАЛ	-11.1702
ТЕЛЬН	-11.1704
▁ПОЛОЖИЛ	-11.1704
ЦЕН	-11.1706
ИРУЕТСЯ	-11.1716
▁ТАЛИ	-11.1716
▁МОЛЧА	-11.1721
ЧНОЙ	-11.1721
▁ЛУЧШЕМ	-11.1724
▁МЕТОДИКА	-11.1725
ТЕРП	-11.1726
▁ДИНАМИ	-11.1731
▁СВОБОДН	-11.1739
▁ПОСЫЛ	-11.174
▁ВСЕМИРНО	-11.1743
ИВАЕТСЯ	-11.1743
ШЬСЯ	-11.1743
▁ОГРАНИЧЕН	-11.1748
▁ФОТОГРАФА	-11.175
КЛЮЧАТЬ	-11.1751
▁ЗАВИСИМ	-11.1758
▁ЗАСТАВЛЯ	-11.176
▁БРАЛ	-11.1761
▁ПОНЯТИ	-11.1761
▁СЛОВАМ	-11.1768
ФАК	-11.1768
▁ОБЪЯСНЕНИ	-11.177
ЕХАЛИ	-11.177
ЖИВАЮТ	-11.1778
МОЛ	-11.178
▁СНИМАЛ	-11.179
▁СЕРВИСА	-11.1805
ОЧКАМИ	-11.1807
▁ЛЮ	-11.181
▁ПАКИСТАН	-11.1812
▁ДОБРОЖЕЛАТЕЛЬН	-11.182
▁МИЛЫ	-11.1821
СТРАИВАЮТ	-11.1828
▁УСЛОВИ	-11.1834
▁ТРАНЗИСТОРА	-11.1836
▁ВЫБИРА	-11.1841
▁ОЩУТИ	-11.1843
▁СОВЕТСК	-11.1845
ДЕЛЬ	-11.1852
РВА	-11.1854
▁СИГНАЛА	-11.1855
▁ПОСЕТИ	-11.1856
▁ПРИСОЕДИНЯ	-11.1857
ЩИКИ	-11.1859
▁СТАНДАРТНО	-11.1861
▁СТРЕССА	-11.1863
▁ГОС	-11.1863
ВЯЗЫВАЕТ	-11.1864
▁ТРАКТ	-11.1867
ЩЕМУ	-11.1873
ЙДТЕ	-11.1874
МЕШАТЬ	-11.1879
ШУЮ	-11.1881
▁ДОЛГА	-11.1884
▁ПОВЕ	-11.1885
▁УЛУЧШЕНИ	-11.1887
▁УМИРАЛ	-11.1889
▁БЛИЗКИ	-11.189
▁ПОЗА	-11.1891
СТВУ	-11.1891
▁РАСПРОСТРАНЯЕТ	-11.1894
▁ПРОГНОЗ	-11.1894
▁ВЫСТРАИВА	-11.1896
▁БЕСЕД	-11.1896
▁СОЗНАТЕЛЬН	-11.1898
▁АКАДЕМИЧЕСКИ	-11.1899
▁СОР	-11.191
СТОЯЩИЕ	-11.191
▁НАСТРОЕНИ	-11.192
ДЕЛИТЬ	-11.1921
▁ЗРИТЕЛЬ	-11.1922
▁ФАБРИК	-11.1925
▁ДЕВОЧКАМ	-11.1932
ЫВАЕТ	-11.1935
▁КОНТЕКСТ	-11.194
▁ФЕЙСБУК	-11.1946
МЕТРОВ	-11.1946
ТВО	-11.1948
▁БОК	-11.1949
▁ЧИНОВНИК	-11.1956
40	-11.1958
▁БУДУЩИ	-11.1959
▁ПЕЧАТА	-11.1961
БРАТЬ	-11.1965
▁ПРИДУМЫВА	-11.1966
▁МРТВО	-11.1973
▁ПОЛНОЦЕННО	-11.1973
▁УНИКАЛЬНЫМ	-11.1977
▁ОПРЕДЕЛЯ	-11.1979
▁ВЫСТУПАЮ	-11.1989
▁ПРЕСТУПН	-11.199
▁РОДДОМ	-11.1992
ЗОН	-11.2004
▁МОРАЛЬН	-11.2011
▁ЖИВЫ	-11.2014
▁УЗКИ	-11.2016
▁СЧИТА	-11.2019
▁ВЫРАЖА	-11.2024
▁ЗАКАНЧИВАЮ	-11.2027
▁ЖДАЛ	-11.2029
▁ЛОКАЛЬНЫ	-11.2031
▁ВЕРИТ	-11.2032
▁ПОДРУГ	-11.2036
▁НОРМ	-11.2036
▁ЗАМЕЧА	-11.2037
ПЕРЕ	-11.2038
▁УВИДИТ	-11.2038
▁ДОСТАТ	-11.2039
▁КОМИ	-11.2044
▁ТЕРМЕНВОКСЕ	-11.2046
▁ТАБЛЕТК	-11.2049
▁ВОЗЬМИ	-11.2051
▁СТРОЙ	-11.2055
ДЕЛАТЬ	-11.2059
▁УСТРОЙСТВ	-11.2061
АВЕЛ	-11.2062
▁КОММУНИКАЦИ	-11.2063
▁ПРИДУМАН	-11.2063
▁ВСТАТ	-11.2063
▁ЗАБЫЛ	-11.2065
▁ТЕПЛОМ	-11.2067
▁ХУДЕЮЩИ	-11.207
▁ИСХОДИТ	-11.2071
▁ПАРАДИГМ	-11.2076
ОХРАН	-11.2079
▁ОПРЕДЕЛЕНИ	-11.2079
▁ПРЕКРАСНЫМ	-11.2085
▁РАЗВАЛ	-11.209
▁ЧИСЛ	-11.2092
▁ЛИШЕНИ	-11.2094
РКА	-11.2097
▁КАЧЕСТВЕНН	-11.2098
ЗВУЧИТ	-11.21
▁СПРОС	-11.2101
▁МЕНЕДЖЕР	-11.2101
ОШЛА	-11.2102
▁ИЛЛЮЗИ	-11.2102
▁ОТПРАВИЛА	-11.2107
▁СПРАВЛЯ	-11.2107
▁ЦЕПОЧК	-11.2109
▁ОПИСАН	-11.2112
▁ПРИВОЗ	-11.2115
▁ДАНН	-11.2119
▁ВНУТРЕННИМ	-11.212
▁ПОДОЖДИ	-11.2121
▁ПОГОД	-11.2128
АЛСЯ	-11.213
▁ПРОТИВОРЕЧИ	-11.213
▁СООТВЕТСТВУЮ	-11.2131
▁ПРИЗ	-11.2132
▁СТРАДА	-11.2134
▁ПРЕДРАССУДК	-11.2136
▁ИМПЕРИ	-11.2143
▁УСПЕВА	-11.2145
▁НЫРЯ	-11.2146
ЭТО	-11.2146
▁РИСОВАЛ	-11.2146
▁ПУШКИН	-11.2146
▁ИНТЕРЕСОВАЛ	-11.2147
▁ЗРИТЕЛ	-11.2148
▁КИНОТЕАТРА	-11.2153
▁РЫБ	-11.2155
▁ОБЛИК	-11.2156
▁НЕСТАНДАРТНЫ	-11.2158
▁ВЫСТАВКА	-11.216
▁ПЛАТЬЯ	-11.216
▁ВЛАДЕЛЬЦ	-11.216
СТЫ	-11.2162
▁ЛЬВ	-11.2165
ПУСКАЙ	-11.2166
СТАН	-11.2167
▁СВЕТЛ	-11.2168
ТРЯС	-11.2168
ПОЛНИТЬ	-11.2169
▁ПРОБ	-11.2173
ВЕДЕНИЯ	-11.2177
▁ЛИЦЕНЗИ	-11.2182
▁АСПЕКТ	-11.2189
▁ПРОСН	-11.219
▁ГОСПОДИ	-11.2192
▁ПАВИЛЬОН	-11.2195
▁ЧЕМОДАН	-11.2195
▁ПОЗИТИВ	-11.2195
▁ПОП	-11.2199
ЦИЕЙ	-11.22
▁ПОЖИЛ	-11.22
▁МАГИ	-11.2204
▁ПОДГОТОВИТЬ	-11.2206
▁ИНТЕРЕСОВ	-11.2207
▁ЗАХОЧЕТ	-11.2207
▁ТЕРЯЕТ	-11.2207
▁РАЗОБРА	-11.2207
▁ТРЕНИРОВАТЬ	-11.2208
▁ОБЪЯСНЯЕТ	-11.2209
▁РЕКЛАМ	-11.2211
▁УБИЛ	-11.2211
▁СЛЕПОГЛУХИ	-11.2212
▁ПОДНИМАЕТ	-11.2213
▁ЛЕЗ	-11.2215
▁ПОВЛИЯЛ	-11.2216
ЕДИНЕ	-11.2216
▁УЗНАВ	-11.2216
▁СЕРО	-11.2217
▁ХАКЕР	-11.2217
ЗВАЛИ	-11.2218
▁ВСТРЕТИТЬ	-11.2222
▁ИМЕЕТЕ	-11.2223
НИЦЫ	-11.2224
▁УВЕРЕННО	-11.2226
▁ЗНАМЕНИТ	-11.2226
▁НЕЙРО	-11.2228
▁МАК	-11.2228
▁ПРОДАТ	-11.2229
▁ГРАНТ	-11.223
▁ЗВУЧАТ	-11.2231
ЬЯ	-11.2232
▁ИЗБАВИ	-11.2234
▁ОТДАТ	-11.2235
▁АРОМАТ	-11.2235
▁РАСПРОСТРАНЕН	-11.2236
▁БОЛОТ	-11.2236
▁СУБЪЕКТ	-11.2237
▁ЛЕГЕНД	-11.2238
▁ОЛИМПИАД	-11.2239
▁ПСИХО	-11.2239
▁СПЕКТР	-11.2239
▁ПРИТВОРЯ	-11.224
ПИШЕШЬ	-11.224
ТИХОНЕЧК	-11.224
▁АУДИТОРИЮ	-11.224
▁БАБУШЕК	-11.224
▁БАНГЛАДЕШ	-11.224
▁БЕЛОРУССИИ	-11.224
▁БУТЫЛК	-11.224
▁ВОЛШЕБСТВО	-11.224
▁ВОСКРЕСЕНЬЕ	-11.224
▁ВПРОЧЕМ	-11.224
▁ГИППОКАМП	-11.224
▁ГЛУХИХ	-11.224
▁ГРАФФИТИ	-11.224
▁ДОЛЖЕНСТВОВАНИЯ	-11.224
▁ДОСПЕХ	-11.224
▁ЗЕМЛЙ	-11.224
▁ИННОВАЦИЙ	-11.224
▁КОРПУС	-11.224
▁КУКУРУЗ	-11.224
▁МГНОВЕННО	-11.224
▁МЕДИТАЦИ	-11.224
▁НЕВЫНОСИМО	-11.224
▁НЕЗНАНИЯ	-11.224
▁НЕМНОГИЕ	-11.224
▁НЕЭФФЕКТИВНО	-11.224
▁ОБУЧЕНИИ	-11.224
▁ОСОБЕННОСТЯМИ	-11.224
▁ПИДЖАК	-11.224
▁ПИРАМИД	-11.224
▁ПОАНГЛИЙСКИ	-11.224
▁ПОДОЗРЕНИ	-11.224
▁ПОНРАВИТСЯ	-11.224
▁ПОТРЕБНОСТИ	-11.224
▁ПРЕДМЕСТЬЯ	-11.224
▁ПРИЕДЕТ	-11.224
▁ПРОДЮСЕР	-11.224
▁ПРОИСХОДЯЩИ	-11.224
▁ПРОМЕЖУТОК	-11.224
▁САНКТПЕТЕРБУРГ	-11.224
▁СЕНТЯБР	-11.224
▁СОБЕСЕДОВАНИ	-11.224
▁СОСРЕДОТОЧИТЬ	-11.224
▁СТЕРЖЕНЬ	-11.224
▁СТРЕМЛЕНИЕ	-11.224
▁ТВИТТЕР	-11.224
▁ТЕНДЕНЦИЯ	-11.224
▁ТРАСС	-11.224
▁ТРЕВОГ	-11.224
▁УВИЖУ	-11.224
▁УЗНАЮТ	-11.224
▁УЧАСТОК	-11.224
▁ФРАГМЕНТ	-11.224
▁ФРИРАЙТИНГ	-11.224
▁ШАББАТ	-11.224
▁ЭФФЕКТИВНЕЕ	-11.224
▁АЛЬТУРИСТ	-11.224
▁ВЛАДИМИР	-11.224
▁ГАСТРОЛ	-11.224
▁КОЛБАС	-11.224
▁НЕЗАМЕТНО	-11.224
▁ПОЛЧАСА	-11.224
▁ПОЛЬЗЫ	-11.224
▁ПРЕЗЕРВАТИВ	-11.224
▁ПРИНАДЛЕЖА	-11.224
▁ПРОИЗВЕСТИ	-11.224
▁АДДИТИВН	-11.224
▁ВУЛКАН	-11.224
▁ДЕРЕВА	-11.224
▁ИЗБРАН	-11.224
▁КРЫЛЬ	-11.224
▁ПОНОВОМУ	-11.224
▁ПОСВЯЩА	-11.224
▁ПОСТАНОВК	-11.224
▁ПРОКРАСТИНАЦИЯ	-11.224
▁УМЕНЬШЕН	-11.224
▁ФЛЕШК	-11.224
▁ЭСТЕТИК	-11.224
▁ШАПК	-11.224
▁ЕВРОСОЮЗ	-11.224
▁МАНИПУЛИРОВАТЬ	-11.224
▁АВТОМОБИЛИ	-11.224
▁БОЛЕЗНЕЙ	-11.224
▁ВОДИТЕЛЯ	-11.224
▁ОБЩАЮСЬ	-11.224
▁РОДИТЕЛЕМ	-11.224
▁УСТРАИВАЕТ	-11.224
▁УЧАСТК	-11.224
▁ВОДИТЕЛИ	-11.224
▁ШИКАРН	-11.224
▁АНТОН	-11.224
▁УПРАВЛЯЮЩИЙ	-11.224
▁БАШНЮ	-11.224
▁ПРАВДОЙ	-11.224
ТАСКИВА	-11.224
▁КАЛЛИГРАФИЕЙ	-11.224
▁ЯНВАР	-11.224
▁КОММУНИЦИРОВАТЬ	-11.224
▁МНОЮ	-11.224
▁ЗВЕНО	-11.224
▁УВИДЯТ	-11.224
▁КРОВАТК	-11.224
▁ПОСЕЩЕНИ	-11.224
▁ФЛЕЙТ	-11.224
▁КЛЕТКУ	-11.224
▁КОЧЕВНИКОВ	-11.224
▁СЪМКИ	-11.224
▁ТТЯ	-11.224
▁ГАИТ	-11.224
▁ПОЛИГОН	-11.224
▁ВЫСОКАЯ	-11.224
▁СРЕДОЙ	-11.224
▁ОСАНК	-11.224
▁ТОЧЕЧК	-11.224
▁СЛЕЗАМ	-11.224
ППИ	-11.224
▁ОЖИДАНИЙ	-11.224
▁ПОБЛАГОДАРИ	-11.224
▁СЕМИНАР	-11.224
▁НАСТРОИТЬ	-11.224
▁РАЗОЧАРОВАНИЕ	-11.224
▁РАЗБЕРМСЯ	-11.224
▁КОМФОРТНЕЕ	-11.224
▁ВНОВЬ	-11.224
▁ДЕВЯТО	-11.224
▁ДОТЯНУТЬСЯ	-11.224
▁ХАОС	-11.224
▁ЗВЕЗДА	-11.224
▁РЕДКИ	-11.224
▁ФОРМУЛИРОВК	-11.2241
▁МЛАДЕНЦЕВ	-11.2241
▁СЦЕНА	-11.2241
▁ГИБКОСТ	-11.2241
▁ПИВО	-11.2241
ДАЧА	-11.2241
▁СОДЕРЖИТ	-11.2241
▁БАЛЛОН	-11.2241
▁ИДШЬ	-11.2241
▁ЖЕЛЕЗА	-11.2241
▁ВЫСШИ	-11.2241
▁ВОСПИТАНИЯ	-11.2241
▁ДЕДУШКИ	-11.2241
▁УСТАНОВКИ	-11.2241
▁ПОЗНАНИЯ	-11.2241
▁ПОГИБАЕТ	-11.2241
▁ПРОПАСТЬ	-11.2241
▁ИСТИНА	-11.2242
▁НАПРАВЛЕНИИ	-11.2242
▁ВЫБРАСЫВАЮТ	-11.2242
▁АВАРИ	-11.2242
▁ВЫПИЛ	-11.2242
▁КАРДИНАЛЬНО	-11.2242
▁ОСУЩЕСТВИ	-11.2242
▁СПРОСИТЕ	-11.2242
ТИХОНЬК	-11.2242
▁МУРА	-11.2242
▁ПРОМЫШЛЕННОСТЬ	-11.2242
▁МОЛОДЦЫ	-11.2242
▁СЛЫШНО	-11.2242
▁ПРЕДОТВРАТИТЬ	-11.2242
▁ХОЗЯЙК	-11.2242
▁ПОТРЯСАЮЩАЯ	-11.2242
▁ПОВСЕДНЕВНОСТИ	-11.2242
▁РУССКОЕ	-11.2242
▁МОТИВИРУЕТ	-11.2242
▁ХОЛОД	-11.2243
▁ПОМЕНЯЛОСЬ	-11.2243
▁КОНЦЕНТРАЦИЯ	-11.2243
▁КРЕАТИВНОСТИ	-11.2243
▁ЭЛИТЫ	-11.2243
▁РАСПРОСТРАНЕНИЕ	-11.2243
▁УСТОЙЧИВЫ	-11.2243
▁ПРЕПЯТСТВИЕ	-11.2243
▁РЫБОК	-11.2243
ВШЕГО	-11.2243
▁СТАЛКИВАЮСЬ	-11.2243
▁СОЦСЕТЕЙ	-11.2244
▁СЛЕДУЮЩЕГО	-11.2244
▁ПРИЗНАНИЯ	-11.2244
▁МЕХАНИЧЕСКИ	-11.2244
▁ЧАСТИЧНО	-11.2244
▁ДЕСЯТИЛЕТИЯМИ	-11.2244
▁КАЗАТЬСЯ	-11.2244
▁УЧАСТВУЕТ	-11.2244
▁ОБЕСПЕЧИТЬ	-11.2244
▁СТУЛ	-11.2244
▁ДОБАВ	-11.2244
▁ФОТОАППАРАТ	-11.2244
▁БЕЗОПАСНОСТЬ	-11.2244
▁ДЫШАТЬ	-11.2245
▁ВСТРЕТИЛИСЬ	-11.2245
▁СТЕЙК	-11.2245
▁ПОЛЬЗУЮСЬ	-11.2245
▁ПРОСНУТЬСЯ	-11.2245
▁ЗАБУДЬ	-11.2245
▁КРУТЫЕ	-11.2245
▁ИЮЛЯ	-11.2246
ТЕЛЬНЫХ	-11.2246
▁СОМНЕВА	-11.2246
▁ЕВРАЗИИ	-11.2248
▁БРАЗИЛИИ	-11.2248
▁ДВАДЦАТИ	-11.2248
▁ДОРОЖЕ	-11.2248
▁ЖИВОПИСЬ	-11.2248
▁ПРОМЕДЛЕНИЯ	-11.2248
▁СПОРЯТ	-11.2248
▁КОПЕ	-11.2249
▁ГОРИТ	-11.2249
▁СТАКАН	-11.2249
▁БАССЕЙН	-11.2249
ШЕДШ	-11.225
▁ПОБЕЖДАЕТ	-11.225
▁ЦЕНТРАЛЬНАЯ	-11.225
▁ТОЛЩИН	-11.225
▁СТУДИЙ	-11.2251
▁ВОПЛОЩАТЬ	-11.2251
▁НЕДОСТАТКИ	-11.2251
▁ЛГКИМ	-11.2251
▁РЕШЕНИЮ	-11.2252
▁ОЖИДАЮТ	-11.2252
▁ГЛИН	-11.2252
▁ДЕРЕВНЮ	-11.2252
▁СТОИМ	-11.2252
▁ОРКЕСТР	-11.2253
▁ПИКАССО	-11.2253
▁ЛИТРОВ	-11.2253
▁ДЕШЕВЛЕ	-11.2253
▁СТОИЛО	-11.2253
▁ВОРОНК	-11.2253
▁ДЫШИТ	-11.2253
▁РАЗНИЦЫ	-11.2253
▁РУКОВОДСТВУ	-11.2254
▁БАЗАР	-11.2255
▁БИЗНЕСМЕН	-11.2255
▁НЕДЕЛЕ	-11.2255
▁ПРОВОЖУ	-11.2255
▁ПОЛОН	-11.2255
▁ОВОЩИ	-11.2255
▁БОГИН	-11.2255
▁НАПРЯГАЕТ	-11.2255
▁УЧЕНИКОВ	-11.2255
▁АЛМАТЫ	-11.2255
▁33	-11.2256
▁ПОЛЬЗУЙТЕСЬ	-11.2256
▁ВЕСНОЙ	-11.2256
ШЕК	-11.2256
ХОДИЛО	-11.2257
▁ПОГРУЗИТЬСЯ	-11.2258
▁ТРОГАТЬ	-11.2258
▁АНАЛИЗИРУЕТ	-11.2258
▁РАЗДРАЖЕНИЕ	-11.2258
▁МГНОВЕНИЕ	-11.2258
▁ИНТЕРЕСЕН	-11.2259
▁ПРОТИВОСТОЯ	-11.226
▁АЛЬФА	-11.2261
▁ПОСЛУЖИЛ	-11.2261
▁ТЕЛОМЕРАЗА	-11.2261
▁СОТРУДНИЧЕСТВА	-11.2261
▁НАЧИНАЛОСЬ	-11.2262
▁МИКРОБИОТЫ	-11.2262
▁СКИДКИ	-11.2262
▁ГАРАНТИ	-11.2263
▁СЕКСИЗМ	-11.2263
▁РУКОВОДИТЕЛЕМ	-11.2264
▁ТРОЕ	-11.2264
▁БЕЛОК	-11.2264
▁СОВПАДЕНИЯ	-11.2266
▁НАХОДКА	-11.2266
▁ПАПОЙ	-11.2268
ВИЛИ	-11.2268
▁ПРИВЫЧКАМИ	-11.2269
▁ИЗДАНИЕ	-11.2269
▁ПОХОДЫ	-11.2269
▁ПОДПИСАТЬ	-11.2269
▁ТУРИСТЫ	-11.2269
▁ИЗОБРЕЛИ	-11.2269
▁ВЫДЕЛИТЬ	-11.2269
▁НАБИРАТЬ	-11.2269
▁ОТЛИЧАТЬСЯ	-11.227
▁ВОЛЮ	-11.2271
▁КЕЙС	-11.2271
СКОРЕ	-11.2271
▁ОТКРЫВАЮТСЯ	-11.2271
▁ВЕД	-11.2272
▁ТЕСТИРОВАНИ	-11.2272
▁ЭСТЕТИЧЕСКИ	-11.2272
▁РОЖДА	-11.2273
▁СПРАШИВАЮТ	-11.2273
▁РЕЛИГИОЗНЫ	-11.2274
▁ПУЛЬСАРЫ	-11.2274
▁РЕШАЕМ	-11.2274
▁ПЕРФ	-11.2274
▁ПОГОВОРИЛИ	-11.2275
▁ЭНЕРГО	-11.2275
▁ЗАТРАТЫ	-11.2275
▁КОРОТКАЯ	-11.2275
▁ВСТРЕТИТЬСЯ	-11.2275
▁ПУСТОТА	-11.2276
▁ИЛОН	-11.2276
▁КРИЧАЛ	-11.2276
▁ЗАКОНОМЕРНОСТИ	-11.2277
▁ИСКЛЮЧЕНИЕМ	-11.2277
▁ГУЛЯТЬ	-11.2277
▁ПРИБЫЛИ	-11.2277
▁ИЛЛЮЗИЯ	-11.2278
▁МАГИЯ	-11.2278
▁ТОПЛИВ	-11.2278
▁МИФОЛОГИ	-11.2278
▁ГОЛОВЫ	-11.2278
▁НЕБЕ	-11.228
▁УЛЫБНУ	-11.2281
▁ДОСТОЙНО	-11.2282
▁НЕОЖИДАННЫ	-11.2282
▁САДИК	-11.2282
▁РЕКЛАМЫ	-11.2282
▁ПЛАНИРОВАЛ	-11.2283
▁УВЛЕЧЕНИЕ	-11.2284
▁ПУТ	-11.2284
▁ОЧИСТК	-11.2284
▁ДЕЙСТВУЮЩИ	-11.2284
▁УЧ	-11.2285
▁ПОЙДУТ	-11.2285
▁МАТЕРИАЛОВ	-11.2286
▁ФАНТАСТИЧЕСКИ	-11.2287
▁ПРЕДЛОЖЕНИЯ	-11.2288
▁ПРИМЕНИТЬ	-11.2288
▁ПОДВИГ	-11.2288
▁ТОЛСТАЯ	-11.2288
▁ПАЛАТУ	-11.2289
▁УРОКАХ	-11.2289
▁КУБ	-11.2289
▁ЭЛЕКТРОНЫ	-11.229
▁ГИТАРЕ	-11.229
▁РЕАНИМАЦИИ	-11.229
▁ПОВЕРИЛИ	-11.2291
▁ОБРАЩЕНИ	-11.2291
▁МОМЕНТОВ	-11.2291
▁ИСПОЛЬЗУЮ	-11.2292
▁СВЯЩЕННИК	-11.2292
▁ОБЛОЖК	-11.2292
▁СТРОИТЕЛЬН	-11.2292
▁ФОТОГРАФИРОВАТЬ	-11.2294
ШЕЛ	-11.2295
▁ГЕРМАНН	-11.2295
▁ВДОХНОВЕНИЕ	-11.2295
▁ГЕНЕРАЛЬНЫ	-11.2296
▁СВОЙСТВАМИ	-11.2296
▁ДОСТИГЛ	-11.2296
▁МОДЕЛЕЙ	-11.2298
▁МЕРЫ	-11.2298
▁ПРЕЖНИ	-11.2298
▁СТАРТАПЫ	-11.2299
▁ТРЕНИНГОВ	-11.2302
▁УГЛУ	-11.2302
▁КОРОВ	-11.2302
▁ЦИФРУ	-11.2303
▁ПРАВИЛЬНЫМ	-11.2304
КИНУЛ	-11.2305
▁ЭЛЕКТРИЧЕСКИЙ	-11.2305
▁ПРОВЕРКИ	-11.2305
▁ВЕРИЛА	-11.2306
ОГЕН	-11.2308
ЕЙШИ	-11.2308
▁РЕГИОНАЛЬНЫ	-11.2309
▁ЛЕГО	-11.2309
▁ИСКУССТВУ	-11.2309
▁ТЕЛЕФОНЕ	-11.231
▁ЮРИСТА	-11.231
▁ИСПЫТУЕМЫ	-11.231
▁МОЛЧАТЬ	-11.2311
▁КАНАЛЫ	-11.2312
▁ГРАФ	-11.2312
▁ГУМАНИТАРНЫ	-11.2312
▁ПРЕДСТАВЛЕНЫ	-11.2312
▁ПРОДАТСЯ	-11.2313
▁ГЛАВНОГО	-11.2313
▁СЛЕПОГЛУХИХ	-11.2313
▁ПОДАРИТЬ	-11.2314
НИЗИТЬ	-11.2315
▁СОБЕРМ	-11.2315
▁РЕШИЛАСЬ	-11.2316
▁ПРОЕХАТЬ	-11.2316
▁ДОВЕРИИ	-11.2317
▁ОТДЫХАТЬ	-11.2318
▁КАРЬЕРЫ	-11.2318
▁ОСТАВЛЯ	-11.232
▁БЕССМЫСЛЕННО	-11.2322
▁ДИВАНЕ	-11.2323
▁ФРИДАЙВИНГЕ	-11.2323
▁ШАБЛОН	-11.2324
▁ЦИВИЛИЗАЦИЯ	-11.2324
▁МЕМОВ	-11.2326
▁ВОЗДУХОМ	-11.2328
▁ЖИВОТНОГО	-11.2328
▁ОДИНОК	-11.2329
▁ЛИЦУ	-11.2332
НТЕР	-11.2334
▁РИСОВАЛИ	-11.2334
▁ПОДРУГИ	-11.2334
▁ОБНАРУЖЕНИ	-11.2335
▁ЖИВУЩИ	-11.2335
▁СТАТИСТИЧЕСКИ	-11.2335
▁ПРОСЬБ	-11.2336
▁ИНТЕРЕСНА	-11.2336
АЕТЕСЬ	-11.2337
▁ЖДАЛИ	-11.2337
▁ПРИНТЕР	-11.2339
▁ПЛАНИРОВАНИЕ	-11.234
▁ВЫРАЩИВАНИ	-11.2341
▁ЭЛЕКТРОД	-11.2342
ПОЛЕЗЕН	-11.2342
▁СЛЕДУ	-11.2342
▁МЕЧТАЮТ	-11.2343
▁ЖУРНАЛИСТОМ	-11.2344
▁ИСКЛЮЧ	-11.2344
▁СРАЖЕНИЯ	-11.2345
▁АРХИТЕКТУРЕ	-11.2345
▁СРЕДНЕ	-11.2345
▁ПЕРЕПИСК	-11.2346
▁ПЕРЕЕХАЛИ	-11.2347
▁ПРИВАТНЫ	-11.2349
ЗЕМ	-11.235
БУД	-11.235
▁ПРИМЕРАХ	-11.2351
▁ПРИХОДИЛО	-11.2351
▁ГОСУДАРСТВЕННЫХ	-11.2351
▁ВЫСОКОГО	-11.2352
▁РИСУЮТ	-11.2353
▁ПАРАМЕТР	-11.2353
▁РАССЛАБЛЕНИЕ	-11.2354
▁ГЕНИАЛЬНЫ	-11.2354
▁КИШЕЧНИКЕ	-11.2356
▁СИЛАМИ	-11.2359
ОГ	-11.2359
▁ДОСК	-11.2361
▁УЧЕБНИКИ	-11.2363
▁ПОВТОРИТЬ	-11.2363
▁ЧЬИ	-11.2363
▁КОНЦЕПЦИИ	-11.2364
▁ВОЛОНТРСТВО	-11.2365
▁ШТУКУ	-11.2365
▁СЛУШАЛИ	-11.2365
▁ПРИДУ	-11.2365
▁КУРСОВ	-11.2365
▁ЭПОХИ	-11.2367
▁КОСТ	-11.2368
▁КОСТР	-11.2369
▁КОФЕЙНЯ	-11.237
▁СОБАКИ	-11.2371
▁ПРИГОТОВИТЬ	-11.2372
ДИМА	-11.2375
ЖИВАЕТ	-11.2378
▁ВОЗРАСТОМ	-11.2379
▁ПРИНЕСТ	-11.238
▁КОМПЛЕКСЫ	-11.2383
▁ЭЛЕКТРОННЫЙ	-11.2383
РНОЕ	-11.2384
▁УМЕНЬШИ	-11.2385
▁ДОЙТИ	-11.2387
▁ЖИЗНЕЙ	-11.2389
▁КАЗАХ	-11.239
ПЛАНИРОВАТЬ	-11.239
▁ЗАПЛАТИЛ	-11.239
▁ЗАМЕТИТ	-11.239
▁КОРЕ	-11.2391
▁ДОПОЛНИТЕЛЬН	-11.2393
▁ЛИТЕРАТУРНО	-11.2393
▁МУТАЦИЯ	-11.2394
▁СЛЕПО	-11.2396
▁ИЛЛЮСТРАЦИЯ	-11.2397
ПЕЧАТАТЬ	-11.2397
▁ПОЛЕЗНЫЕ	-11.2397
БЫВАТЬ	-11.2398
▁ЗАГРЯЗНЕНИЕ	-11.24
▁БЕСКОНЕЧНЫ	-11.2402
▁ИДЕОЛОГИЯ	-11.2403
▁ШАРИКОВ	-11.2407
▁ТОВАРИЩИ	-11.2408
▁ПОМЕЩЕНИЕ	-11.2415
▁ЖЕРТВЕ	-11.2416
▁ПОЕЗДКА	-11.242
▁НЕМАТЕРИАЛЬНО	-11.2423
▁НИКАКИМ	-11.2424
▁АРАЛ	-11.2426
▁СЕМЕЙНЫЙ	-11.2426
▁БЕЗОПАСНЫЙ	-11.2428
▁ДЛИННЫЙ	-11.2429
▁ПРАКТИКУ	-11.2436
▁КИЛОМЕТРА	-11.2436
РУТ	-11.2437
ХАЛ	-11.2438
▁САДУ	-11.2441
▁МЕШК	-11.2441
▁ВЗРОСЛОМ	-11.2442
▁РАЗРАБАТЫВАЛ	-11.2445
▁РАЗГОВАРИВАЛА	-11.2448
▁ВИРУСОМ	-11.2448
▁ГОЛЛИВУДСКИ	-11.2451
▁ПРОДАВАЛИ	-11.2451
▁СРАВНИМ	-11.2452
▁БОРЬБУ	-11.2456
ВЫЙ	-11.2456
▁УКРАИНСКИ	-11.2456
▁ЖЕСТОВ	-11.2457
▁ИМН	-11.2457
▁АЗИАТСКИ	-11.2458
ОЧКЕ	-11.2461
▁ДВИГАЕТ	-11.2464
▁РАДИАЦИ	-11.2464
ЯЕТСЯ	-11.2464
ПОЛ	-11.2468
▁ПЕТР	-11.2473
РАЖЕНИЕ	-11.2478
▁БРОСИЛИ	-11.2482
ПРЕ	-11.2486
▁СОХРАНЯ	-11.2487
▁ПРАВУ	-11.249
▁ПРЕССА	-11.2491
▁УРОВНЯХ	-11.2493
▁РИСКИ	-11.2495
▁НАПИТК	-11.2495
▁ЗДОРОВЫМИ	-11.2496
▁УШИ	-11.2498
▁ПОЛЕЗНЫМ	-11.25
▁ОДИНОКО	-11.2503
ВЫЕ	-11.2505
▁СЛОЙ	-11.2507
▁ИДЕЯМИ	-11.2509
▁ГЛАЗУ	-11.251
▁ВХОДИТ	-11.2511
▁ГЕНДЕРНО	-11.2514
▁ТЕХНОЛОГИЯМ	-11.2518
▁СЕРЬЗН	-11.252
▁БЫТУ	-11.2521
▁ВАЖНЕЙШИ	-11.2529
▁СОЗНАТЕЛЬНО	-11.253
▁МЕЧЕТ	-11.2532
▁СРЕДНИМ	-11.2532
ПЬ	-11.2533
▁МЕЧТАЮ	-11.2534
ЛИВА	-11.2535
▁КОЛОССАЛЬНО	-11.2541
▁ЛИСТА	-11.2541
▁МЕЧТАМИ	-11.2542
▁СТАРЫМ	-11.2544
ДАМ	-11.2552
▁ЖИЗНЕНН	-11.2552
▁ДЕЛАМИ	-11.2555
▁МОЛНИ	-11.2555
▁ЧРНО	-11.2557
▁МОРСКИ	-11.2557
▁ИНФОРМАЦИОНН	-11.2558
ЗД	-11.2562
▁ПРИНИМАЛИ	-11.2563
▁ОТДАВАТЬ	-11.2565
▁ПРИДУМАЛА	-11.2569
▁ЛИЧНОГО	-11.2576
▁ДОКАЗАТЕЛЬСТВО	-11.2578
▁РАЗРАБОТК	-11.2579
▁ХОДУ	-11.2582
▁ПРЕКРАСНОГО	-11.2583
▁НАЧН	-11.2583
▁СПАСАТЕЛ	-11.2584
▁ФРАЗА	-11.2584
▁ПРОЦЕССОМ	-11.2587
▁ПРОБИТЬ	-11.259
▁УДОБНЫМ	-11.259
▁АКТИВИРОВА	-11.2591
▁ДОБИВА	-11.2597
▁БЕРЛИН	-11.2598
▁ГОСТЯМ	-11.2603
▁МУЖСК	-11.2608
▁УГОЛК	-11.2609
▁АЛЕКСЕЕВ	-11.2621
ЛЕГК	-11.2622
▁ПРОАНАЛИЗИРОВАЛ	-11.2622
▁РАЗНЫЙ	-11.2624
▁ОПУБЛИКОВАН	-11.2625
▁ДОЗА	-11.2628
▁ПОВЫШЕНН	-11.2631
▁КУР	-11.2631
▁СЕРТИФИКАТ	-11.2635
ЛОЖНУЮ	-11.2636
▁МАССОВЫ	-11.264
▁БЕРЕГА	-11.2649
▁СВИДЕТЕЛЬСТВО	-11.2651
▁ВОПРОСАМИ	-11.2657
▁КЛУБА	-11.2657
▁РАЗРУШ	-11.266
▁МАСЛО	-11.2664
▁ДОСТУПА	-11.267
▁ИЗУЧЕНИЕ	-11.268
▁МОЛОДЫМ	-11.268
▁БОГАТЫМ	-11.2681
ВОЖУ	-11.2685
▁ПРАВИЛЬНОМ	-11.2687
▁ТРУ	-11.2687
ПЛАТЫ	-11.2691
▁АКТИВНЫМ	-11.2692
ЛИВО	-11.2693
НЕСЛА	-11.2693
▁ИНТЕРЕСА	-11.2697
▁РАСПРОСТРАНЯТЬ	-11.27
▁ВЫПУСК	-11.2705
▁ПОЛУЧЕННЫ	-11.2708
▁ХАРАКТЕРА	-11.2709
▁ВЗГЛЯДЫ	-11.2712
▁ЛИЦАМ	-11.2713
▁ГЛУБОК	-11.2714
▁НАБРАТЬ	-11.2724
▁МЕСТНЫМ	-11.273
▁ВДОХНОВИ	-11.2739
▁ТМНЫ	-11.2745
СТАВЛЮ	-11.2753
▁УЙД	-11.2758
▁МЕТАН	-11.2758
▁ОЧЕРЕДН	-11.2766
▁ИНОСТРАННЫ	-11.2767
▁ПРОЦЕНТАМ	-11.2767
▁СЛАБЫ	-11.2779
▁БОЛЬШИ	-11.2782
▁ПОНЯТНЫМ	-11.2784
▁ВСПОМИНАЕТ	-11.2784
▁МОСКОВСКИ	-11.2785
▁ПОЛЕЗНОЕ	-11.2789
ВАРИТЬ	-11.2791
▁ЮЖН	-11.2792
▁КЛАДА	-11.2794
▁ФИГУР	-11.2796
▁РАБОТ	-11.2798
ХОДИТ	-11.2804
▁БОЙ	-11.2808
ОВЫМ	-11.2816
▁ВОЗЬМТ	-11.2832
▁ГОТОВИТ	-11.2835
▁НОРМАЛЬНЫМ	-11.2836
▁ДЕЛУ	-11.2841
▁СОБРАЛА	-11.2845
▁СФОРМУЛИРОВАЛ	-11.2849
▁БЕГА	-11.2854
▁ПОСЛЕДНИМ	-11.2855
▁ХИРУРГ	-11.2859
▁СОЦИАЛЬНЫМ	-11.2863
▁БАЛ	-11.2869
▁ИНФОРМАЦИОННЫЕ	-11.2871
НСКИЙ	-11.2872
▁ЗНАКОВ	-11.2873
▁НАЙД	-11.2881
▁СЫГРАЛ	-11.2884
▁ОТВЛЕКА	-11.2888
▁ЗОЛОТ	-11.289
▁ЧЕМПИОН	-11.2891
ЕЛЯХ	-11.2891
▁СОВЕТСКОЕ	-11.2895
ФЛ	-11.2896
▁БЛАГОДАРЮ	-11.2898
▁ТЕХНИЧЕСКИЕ	-11.2899
▁ЗНАНИЯМ	-11.29
▁ПОЙДТЕ	-11.29
▁СЕМЬЯХ	-11.2904
▁ПРЕКРАСНОЕ	-11.2906
▁ВЫВЕСТИ	-11.2916
▁ПЕРЕДО	-11.2918
▁РАСП	-11.2919
▁БУДУЩЕМУ	-11.292
▁ЗАСТАВЛЯЛ	-11.2922
▁ШКОЛЬНЫ	-11.2923
ЕДОВ	-11.2928
▁ПРОГРАММНО	-11.2931
▁ПОТОКЕ	-11.2931
ТОЧНО	-11.2932
▁ПЕРЕВЕЛ	-11.2933
▁ДЛИНН	-11.2934
▁ОБРАЗОВАТЕЛЬНЫ	-11.2939
ВНЫМ	-11.2942
▁ОРГАНИЗОВАННО	-11.296
▁ГРАЖДАНЕ	-11.2966
▁ОТОБРА	-11.297
▁ЯРК	-11.297
▁ПЕРСОНАЖ	-11.297
▁СОСТОЯНИЕМ	-11.2976
▁МОДНЫМ	-11.2976
▁ПРАВИЛЬН	-11.298
▁КВАДРАТНЫ	-11.2982
▁КРЕПКО	-11.2982
СТАВЛЯЕМ	-11.2993
▁МИРЫ	-11.2994
ЕВАТЬ	-11.2995
▁ЗАКЛЮЧ	-11.2998
▁СЛАБ	-11.2999
▁БУМАЖН	-11.3012
▁ПРОСИ	-11.3012
ИСТИ	-11.3013
НАМИ	-11.3013
▁КРАСК	-11.3019
▁ВИЧ	-11.302
▁ТР	-11.3023
▁ПОСТАВЛЕН	-11.3026
▁СЕНСОР	-11.3029
▁ПРОТЕСТ	-11.3032
▁СМЕРТ	-11.3039
▁ЕДИНЫ	-11.3039
▁ШКОЛЬНИК	-11.305
▁ДОКАЗЫВА	-11.3055
МЕНУ	-11.3065
▁СОВЕТУ	-11.3066
▁00	-11.3071
▁ВЫПОЛНЯ	-11.3075
▁ЖЕРТВУ	-11.3077
▁ГОТОВЯТ	-11.3082
▁ОДЕТ	-11.3083
▁КИБЕР	-11.3089
▁АРХИТЕКТОРА	-11.3091
▁ПРЕДСТАВЛЯЛ	-11.3097
▁НАПОЛНЯ	-11.3098
▁ПРОВОД	-11.3099
▁НЕЗНАКОМ	-11.3099
▁ШЕСТИ	-11.3109
▁КОФЕЙНЫ	-11.311
ВАНИЯ	-11.311
ИДА	-11.3117
▁НАЗЫВАЛ	-11.3124
▁ТАЙНУ	-11.3125
▁СМАРТФОНЕ	-11.3125
▁МОРАЛЬ	-11.3128
▁КИЛОГРАММА	-11.313
▁МОЛЕКУЛЯРН	-11.3136
СТРОИЛАСЬ	-11.3137
ВАЛАСЬ	-11.3139
▁ОКАЗА	-11.3139
УЧИЛ	-11.3142
РИТ	-11.3148
▁ЗАХВАТИЛ	-11.3157
▁КУЛЬТУРНОМ	-11.316
ННОСТЬ	-11.3169
▁ЗОЛОТО	-11.3174
▁СТРАШН	-11.3175
ННУЮ	-11.3179
▁ПОДС	-11.3181
▁ПОСВЯТИЛ	-11.3183
ВЕРНУЛСЯ	-11.3193
▁ДОПОЛНИТЕЛЬНО	-11.3194
ОСТАВЛЯЮТ	-11.3201
▁СТУДЕНТ	-11.3201
▁ВЫСКАЗЫВА	-11.3202
▁ПРИРОДН	-11.3206
▁ДЫР	-11.3207
ЖЕНИЯ	-11.3209
▁ВНУТРЕННЕМ	-11.321
▁ПОДАРК	-11.3213
▁РАЗУМНЫ	-11.3215
▁ЗАПИСАЛ	-11.3218
ТАЛА	-11.3221
▁ПРЕДОСТАВИ	-11.3234
▁УМЕЕТЕ	-11.3234
▁УЧИТЕ	-11.3237
ТКУ	-11.3237
▁ПРЕДЛАГАЛ	-11.3238
▁УВАЖА	-11.3239
ЛЬВА	-11.3239
▁ГОЛОВ	-11.3244
▁ВРЕДНЫ	-11.3246
МЕНЕЕ	-11.3248
СТАВИМ	-11.3249
▁АРХЕОЛОГ	-11.3251
▁СВИДЕТЕЛЬСТВ	-11.3252
▁ИСПОЛЬЗОВАЛ	-11.3268
▁ШУТ	-11.3269
▁СЕЗОН	-11.3276
▁ЛЕЖАТ	-11.3278
▁ПОЛУЧ	-11.3281
▁ОБМЕН	-11.3285
▁БЫТОВЫ	-11.3286
СЕТ	-11.329
▁ОТКЛИК	-11.3292
▁ОТПРАВЛЯ	-11.3301
▁ГЛУБИННО	-11.3301
▁ЭСТОНСКИМ	-11.3303
ТОМ	-11.3308
▁ОБЕДА	-11.3321
▁ТЕХНИЧЕСК	-11.3325
ЗМ	-11.3328
▁ТРАТ	-11.3333
▁РЕЗУЛЬТАТУ	-11.3334
ЮЩУЮ	-11.3336
ЧЕСКАЯ	-11.3339
▁УЧЕБНИКА	-11.334
▁ЗАВИСИМЫ	-11.3345
▁ГОЛОВН	-11.3346
▁СОКРАТ	-11.3355
▁ГН	-11.3374
▁ГАРАНТИРУ	-11.3376
РФ	-11.3377
▁АКАДЕМИ	-11.3383
▁РАЗВИТ	-11.3388
ВОДИЛИ	-11.3388
▁КРО	-11.3394
▁ХОЛОДН	-11.3395
ЩИМ	-11.3399
▁УСТАЛ	-11.3401
▁ОПРЕДЕЛННОМ	-11.3404
▁ХРИСТИАНСКО	-11.3405
▁ТРЕНИНГ	-11.3406
▁КАЧЕСТВ	-11.3408
▁ПОДЕЛИ	-11.3409
▁ЗАНИМАЛА	-11.3411
АНТИ	-11.3411
▁ОБНАРУЖИ	-11.3412
▁АКТР	-11.3425
▁МАСТЕРА	-11.3428
▁ВЕТР	-11.344
▁ОБРАЗОВ	-11.3442
▁НЕЗНАКОМЫ	-11.3444
▁РАССКАЗА	-11.346
▁ЗНА	-11.3461
ДЯ	-11.3462
ЕННЫМИ	-11.3464
▁ИЗМЕНЕНИ	-11.3464
ИЛЬЯ	-11.3466
▁БЕЛОРУССКО	-11.3467
▁ОБРАЗОВАТЕЛЬН	-11.3469
▁ДУХОВН	-11.3471
▁ЗАКРЫЛ	-11.3473
▁ПЕРЕСАДК	-11.3478
▁ДВИЖЕНИ	-11.3478
▁НИЗК	-11.3479
▁БОГАТЫР	-11.348
▁ТАКОВА	-11.3481
▁ДОГНА	-11.3488
▁МАССОВ	-11.3489
▁ФОЛ	-11.3492
▁ВЕЩЕСТВ	-11.3493
ДАЮТСЯ	-11.3508
▁СВЯЗА	-11.3512
▁СЛУЧАЙНЫ	-11.3512
▁СЕЛИ	-11.3515
▁МЕЛК	-11.352
ОРА	-11.3522
▁ПОС	-11.3525
▁ЗАПАДНЫ	-11.3531
▁КЛЮЧА	-11.3538
▁ЮН	-11.3544
▁ОБЪЕДИНЯ	-11.3546
▁НАПОЛНЕН	-11.356
▁КОТИК	-11.3561
▁ЗВОНК	-11.3565
▁ПРОВЕД	-11.3565
▁ПРЕДМЕТАМ	-11.3577
▁РЕШАЛ	-11.358
▁АКЦЕНТ	-11.3583
▁АЗАРТ	-11.3587
БЕРИТЕ	-11.3592
ДАВНО	-11.3598
▁ТРЕТЬЕМ	-11.3601
▁ЗУБ	-11.3603
ПР	-11.3604
▁ШАРИК	-11.3604
▁СОБИРАЛ	-11.3612
▁ЗАТРАТ	-11.3613
ПАНК	-11.3621
ПЛАТИТЬ	-11.3625
ВИДИМОМ	-11.3627
ОПРИМЕЧАТЕЛЬНОСТ	-11.3634
▁РАССТОЯНИ	-11.3637
БРАСЫВА	-11.364
▁ОТРЫВ	-11.3649
▁ОБРАТИЛА	-11.3654
СТВ	-11.3655
▁МЕДЛЕНН	-11.3656
▁ОЖИДА	-11.3661
▁ЗАКВАСК	-11.3665
▁КОНТИНЕНТ	-11.3668
ШКУ	-11.3672
▁ИНДУСТРИ	-11.3679
▁ДЕРЖИТ	-11.3681
▁ВСКАРМЛИВАНИ	-11.3687
▁ТЕМНОТ	-11.3687
СНЯТЬ	-11.3699
СТУПИЛА	-11.3709
▁ЧЛЕНА	-11.3713
ГЛО	-11.3713
▁НЕПОНЯТНОЕ	-11.3715
▁РОЗ	-11.3721
ИРОВАЛИ	-11.3721
ННЫХ	-11.3726
ЛЯЕТ	-11.3727
▁ЕСТЕСТВЕННЫ	-11.3732
▁КОЛЯ	-11.3734
ЖНАЯ	-11.3736
▁ЧЕСТНЫ	-11.3737
▁НАБЛЮДАТЕЛ	-11.3738
▁ПРИВЯЗАН	-11.374
▁ГИГАНТСК	-11.3748
МОДЕЛИ	-11.3749
▁ОТЛИЧН	-11.3752
ШУ	-11.3754
ЖИВАЯ	-11.3756
▁ВКЛЮЧ	-11.3757
▁НАПРЯГ	-11.3761
▁ЛЮБИТЕЛЬСК	-11.3761
▁ПЛОЩАД	-11.3761
▁ПОЧУВСТВУ	-11.3762
ВЫШЕ	-11.3762
▁ЦЕННЫ	-11.3763
УЧАСТВОВА	-11.3764
ТРЕТЬ	-11.3765
▁СКОР	-11.3766
▁ДУБ	-11.3766
▁РЕЛИГИ	-11.3768
▁ПРИГОТОВИЛ	-11.3769
▁ХОЗЯЙСТВ	-11.3769
КУДА	-11.3781
▁ТОНКО	-11.3782
▁АВТОМОБИЛЕ	-11.3782
ЛЕДИ	-11.3782
▁БАНКЕ	-11.3784
▁ХВОСТ	-11.3784
▁ИНТЕРЕСАМ	-11.3784
▁ПОРО	-11.3785
▁ЗАКРЫТО	-11.3786
▁ОСОБЕННЫ	-11.3787
▁МЕТАЛЛ	-11.3787
▁СТОЯ	-11.3792
▁РАЗВИТА	-11.3795
СЛЕДИЛИ	-11.3799
АСТ	-11.38
▁ОЦЕНИВА	-11.3802
▁ЗАДАЮ	-11.3803
▁ПЕРФОРМАНС	-11.3809
▁ФАНТАСТИК	-11.3809
▁ГАЛАКТИК	-11.381
▁ИЗУЧЕН	-11.381
▁ЦЕРКВ	-11.3811
▁ССОР	-11.3812
▁УГЛЕРОД	-11.3812
▁ДИСКУССИ	-11.3812
▁ПОХВАЛ	-11.3813
▁ДАР	-11.3814
▁СУМАСШЕДШЕ	-11.3814
▁ЕЗДЯ	-11.3815
▁ПОГИБЛ	-11.3816
▁ВЕЩАМ	-11.3817
▁ОТДЕЛА	-11.3817
▁ИССЛЕДОВАТЕЛ	-11.382
ЬНЫХ	-11.3825
▁ОРИЕНТИР	-11.3828
▁ПОМЕЩ	-11.3831
▁ПРОИЗВОДИТ	-11.3831
▁МОЛЧАНИ	-11.3833
▁ПИТАНИЕ	-11.3834
▁ЗР	-11.3838
▁ПРОДАВЦ	-11.3839
▁ПЕКАР	-11.3839
ТС	-11.3841
▁РАСТЕНИ	-11.3841
▁ДОВЕРИ	-11.3842
▁СПИ	-11.3842
▁ОБОЛОЧК	-11.3842
▁РУБАШК	-11.3843
▁НАСТРОЙ	-11.3843
▁ПРОПАЛ	-11.3845
▁ФОТОН	-11.3845
▁ГАДЖЕТ	-11.3846
▁ШИР	-11.3849
▁ЗАБЫВА	-11.3853
▁КУРЬ	-11.3857
▁ЦЕННОСТЯМ	-11.3858
▁ПАЛАТ	-11.3859
РАЖЕНИЯ	-11.3859
ОННЫХ	-11.3859
▁КАСС	-11.386
▁ПУЛЬСАР	-11.386
▁СВАДЬБ	-11.3861
▁РЕАЛИ	-11.3863
▁ДИНОЗАВР	-11.3864
▁ЕДИНИЦ	-11.3866
▁ИЗМЕНИТ	-11.3867
▁ОТСЛЕЖИВА	-11.3867
НИЦУ	-11.387
▁ЭКОНОМИСТ	-11.3872
▁ФРАНЦИ	-11.3873
▁ЗАЛА	-11.3873
▁РАССУЖДА	-11.3874
▁ПОГРУЗИ	-11.3875
▁ПАНИК	-11.3878
▁ГРОМКО	-11.3879
▁РНК	-11.3881
▁ОДИНОЧЕСТВ	-11.3882
▁УСТРАИВАЛ	-11.3882
▁ПРИГЛАША	-11.3886
▁РАЗВЛЕКА	-11.3888
▁КАРАНДАШ	-11.3888
ХВАТЫВАЕТ	-11.3889
▁РАСШИРЯ	-11.3893
▁СВЕРСТНИК	-11.3894
▁ЖДУ	-11.3894
▁ИММУН	-11.3895
▁САМУРА	-11.3896
▁ПЕРЕДАТ	-11.3897
▁КОЧЕВ	-11.3897
▁ПРИВЛЕЧ	-11.3898
▁СЛЫШАТ	-11.3899
▁ОПТИМИСТ	-11.3899
▁БЛИЗКИМ	-11.39
▁ПОВЕРИТ	-11.3901
▁ЕВРЕ	-11.3903
▁ФЛАГ	-11.3903
▁ОСМЫСЛ	-11.3904
▁КРЫС	-11.3904
▁ОРИГИНАЛ	-11.3904
▁ВПЕЧАТЛЕНИЯ	-11.3905
▁ПУЛЬС	-11.3906
▁КОНЦЕПТ	-11.3906
▁МОНИТОР	-11.3906
▁ШИФР	-11.3906
▁АПРЕЛ	-11.3906
▁АМБИЦИ	-11.3906
▁ВЫСТРОИТЬ	-11.3906
▁СОПРИКАСА	-11.3906
ЕЙТИНГПРИЛОЖЕНИЯ	-11.3906
ЕРДЕЧНОСОСУДИСТЫ	-11.3906
▁АВТОМОБИЛЯ	-11.3906
▁АЗБУК	-11.3906
▁АЙСБЕРГ	-11.3906
▁АРГЕНТИН	-11.3906
▁АРКТИКЕ	-11.3906
▁АТРИБУТ	-11.3906
▁БЕЛЬГИИ	-11.3906
▁БРОЖЕНИЯ	-11.3906
▁ВОДОПАД	-11.3906
▁ВОЛЬФГАНГ	-11.3906
▁ГАГАРИН	-11.3906
▁ГИТЛЕР	-11.3906
▁ДЕНИС	-11.3906
▁ДЕРЕВЬЕВ	-11.3906
▁ДЕРЕВЬЯ	-11.3906
▁ДОЛЖЕНСТВОВАНИЕ	-11.3906
▁ДОНАЛЬД	-11.3906
▁ЕГИПТ	-11.3906
▁ЗАЯВЛЕНИЕ	-11.3906
▁ИЗНАЧАЛЬНЫ	-11.3906
▁ИММУНИТЕТ	-11.3906
▁КАРТОФЕЛ	-11.3906
▁КАСТРЮЛ	-11.3906
▁КНИЖНЫ	-11.3906
▁КОМПЕНСАЦИ	-11.3906
▁КОНВЕЙЕР	-11.3906
▁КОНСТАНТИН	-11.3906
▁КОНТЕЙНЕР	-11.3906
▁КОНТУРБАБИМУС	-11.3906
▁КОРРЕКТН	-11.3906
▁ЛАГЕРЕ	-11.3906
▁ЛАГЕРЬ	-11.3906
▁ЛАГЕРЯ	-11.3906
▁ЛАНДШАФТ	-11.3906
▁ЛЕКТОР	-11.3906
▁ЛИЗАНЬКА	-11.3906
▁ЛОГОТИП	-11.3906
▁ЛЬГОТЫ	-11.3906
▁МИЛЛИСЕКУНД	-11.3906
▁МИРОВОЗЗРЕНИ	-11.3906
▁МУЗЕИ	-11.3906
▁МЯГКО	-11.3906
▁НОБЕЛЕВСК	-11.3906
▁НОУТБУК	-11.3906
▁НУКЛЕИНОВ	-11.3906
▁НЮАНС	-11.3906
▁ОГУРЦ	-11.3906
▁ОПЕРАЦИЙ	-11.3906
▁ОТНОШУСЬ	-11.3906
▁ОФИЦИАНТ	-11.3906
▁ПАРАЗИТ	-11.3906
▁ПИЩИ	-11.3906
▁ПОЛЬЗОВАТЕЛЬ	-11.3906
▁ПОПЫТОК	-11.3906
▁ПОСВОЕМУ	-11.3906
▁ПОСТАРШЕ	-11.3906
▁ПРЕДПОЧИТАЕТ	-11.3906
▁ПРЕСТУПЛЕНИЙ	-11.3906
▁ПРОПОРЦИОНАЛЬНО	-11.3906
▁ПРОСПЕКТ	-11.3906
▁РИЧАРД	-11.3906
▁РУССКОЯЗЫЧНЫ	-11.3906
▁РЮКЗАК	-11.3906
▁СИТУАЦИЕЙ	-11.3906
▁СКУЛЬПТОР	-11.3906
▁СЛАБОСЛЫШАЩИ	-11.3906
▁СОКРАЩЕНИ	-11.3906
▁СООТВЕТСТВОВАЛ	-11.3906
▁СПАГЕТТИ	-11.3906
▁ТЕЛЕКОММУНИКАЦИ	-11.3906
▁ТИГР	-11.3906
▁ТРЕНИРОВОК	-11.3906
▁УЗНАЕМ	-11.3906
▁УТВЕРЖДАЕ	-11.3906
▁ФАТИМ	-11.3906
▁ФЛЕМИНГ	-11.3906
▁ХЭШТЕГ	-11.3906
▁ЦЕНТРОБАНК	-11.3906
▁ЭКСПЕДИЦИ	-11.3906
▁ЭНТЕРОВИРУС	-11.3906
▁ЭПИЗОД	-11.3906
▁2020	-11.3906
▁БАРАБАН	-11.3906
▁БАШНЯТАТЛИНА	-11.3906
▁БЮРО	-11.3906
▁ВНИМАТЕЛЬНЫ	-11.3906
▁ЕЗЖУ	-11.3906
▁ЗАМЕДЛИ	-11.3906
▁ИМПРОВИЗ	-11.3906
▁КАТЕТЕР	-11.3906
▁КОМПЕНСИР	-11.3906
▁КОНВЕРТ	-11.3906
▁МИХАИЛ	-11.3906
▁НАГРАД	-11.3906
▁НИЦШЕ	-11.3906
▁ОПРАВДАТЬ	-11.3906
▁ПОЖЕРТВОВА	-11.3906
▁РАВЕНСТВ	-11.3906
▁СЦЕНАРИСТ	-11.3906
▁ЧРНОБЕЛ	-11.3906
▁ВДНХ	-11.3906
▁ПОДОГНА	-11.3906
▁ПОМНИМ	-11.3906
▁РЯДЫШКОМ	-11.3906
▁ТУРГУНБАЕВ	-11.3906
ПОРТРЕТ	-11.3906
ПРЕДПРИНИМАТЕЛЕЙ	-11.3906
▁ВЕРШИН	-11.3906
▁ДЕМЕНЦИ	-11.3906
▁ПОЗАДИ	-11.3906
▁ЭКОНОМИКУ	-11.3906
▁БАРЬЕР	-11.3906
▁ДИЭЛЕКТРИК	-11.3906
▁СУДЕБНЫ	-11.3906
▁ТИРАЖ	-11.3906
▁УЧРЕЖДЕНИ	-11.3906
▁ФИТНЕС	-11.3906
▁ПОЧЕЛОВЕЧЕСКИ	-11.3906
▁ПЕРЕСТРОИТ	-11.3906
▁ДОБИЛСЯ	-11.3906
▁ПОБОРОТЬ	-11.3906
▁СИНТЕЗАТОР	-11.3906
▁ТИШИНУ	-11.3906
▁ВСЛЕД	-11.3906
▁ПИЩА	-11.3906
▁ПАЗЛ	-11.3906
▁РУЛМ	-11.3906
▁ТАРЕЛК	-11.3906
▁ДУРН	-11.3906
▁ШАТР	-11.3906
▁ПИРОГ	-11.3906
▁ДЕЙСТВУЮТ	-11.3906
▁КОНТРОЛИРУЮТ	-11.3906
▁ВОСПОМИНАНИЕ	-11.3906
▁КАРЛСОН	-11.3906
▁СВИДАНИЕ	-11.3906
▁ТУАЛЕТ	-11.3906
▁БАШНЯ	-11.3906
▁ГИБНЕТ	-11.3906
▁ПУГАЕТ	-11.3906
▁БЛЕСК	-11.3906
▁КОДЕКС	-11.3907
▁ПОЗНАКОМИЛАСЬ	-11.3907
▁ИЗВНЕ	-11.3907
▁НЕЙТРОН	-11.3907
▁ОТСУТСТВУЕТ	-11.3907
▁РИСОВАНИ	-11.3907
▁ВОЗМОЖНА	-11.3907
▁МОЛОКА	-11.3907
▁ТИШИНА	-11.3907
▁ОБНОВЛЯ	-11.3907
▁ПОЯСНИЦУ	-11.3907
▁ТЕНГЕ	-11.3907
▁ГЕОГРАФИИ	-11.3907
▁ИНСТРУКТОР	-11.3907
▁РАЗГЛЯДЕ	-11.3907
▁СУПЕРМАРКЕТ	-11.3907
▁АФРИКИ	-11.3907
▁ЯДЕРН	-11.3907
▁СВЯЗЕЙ	-11.3907
▁СЛЗЫ	-11.3907
▁НЕЙРОНОВ	-11.3907
▁ВОСПИТАНИЮ	-11.3907
▁СТРАУС	-11.3907
▁СТРЕМИМСЯ	-11.3907
▁ВОЗДЕЙСТВИЯ	-11.3907
▁ЯВЛЕНИЙ	-11.3907
▁ЗДОРОВЬЮ	-11.3907
▁АФРИКЕ	-11.3907
▁АКЦИЯ	-11.3907
▁АКТРИС	-11.3907
▁СЕКУНДОЧКУ	-11.3907
▁ПОДПИСАЛ	-11.3907
▁ДВАДЦАТЬ	-11.3907
▁ОРАТОР	-11.3907
▁ИСКЛЮЧЕНИЯ	-11.3907
▁ПОВСЮДУ	-11.3907
▁ЧАШЕК	-11.3907
▁ДИКОВИН	-11.3907
▁ПЕРЕДВИГАТЬСЯ	-11.3907
▁ВЕРХОВ	-11.3907
▁МОЛЧИТ	-11.3907
▁ФОТК	-11.3907
▁ВЫСКАЗЫВАНИЯ	-11.3907
▁ЗЕМЛЕКОП	-11.3907
▁МОНАХ	-11.3907
▁ОСКАР	-11.3907
▁УСТАНОВИТЬ	-11.3907
▁БИБЛИОТЕКУ	-11.3908
▁ОБЩАЛАСЬ	-11.3908
▁СЛОЖИЛИСЬ	-11.3908
▁ТАКОВЫМИ	-11.3908
▁ПРИГЛАШЕНИ	-11.3908
▁ЭНЕРГИЕЙ	-11.3908
ЛЬМЕН	-11.3908
▁МУДРОСТЬ	-11.3908
▁СУПЕРМЕН	-11.3908
ГРЫЗ	-11.3908
▁ЛЫЖАХ	-11.3908
▁РУСИ	-11.3908
ЧЕСТВО	-11.3908
▁ШТАН	-11.3908
▁АБАЙ	-11.3909
▁СТАБИЛЬНОСТЬ	-11.3909
МИГРАНТ	-11.3909
▁СПЕЦИАЛИЗИРОВА	-11.3909
▁АФРИКАНСКИ	-11.3909
▁ПУСТЫН	-11.3909
▁БЕЗОПАСНЕЕ	-11.3909
▁МОТИВАЦИЮ	-11.3909
▁МАСТЕРСКОЙ	-11.391
▁ОВОЩЕЙ	-11.391
ДОЛЬ	-11.391
▁ПРИСЛУШИВА	-11.391
▁ПОЙМАТЬ	-11.391
▁ВОЗНИКНУТЬ	-11.391
▁ПОТРЕБЛЯЕТ	-11.391
▁ПОНАДОБИТСЯ	-11.391
▁ЯПОНЦ	-11.391
▁ПЬЯН	-11.391
▁НАКАЗАНИЯ	-11.391
▁ОЛЬГ	-11.391
▁РЕПЕТИЦИ	-11.391
▁СУРОВ	-11.391
▁ВЛЕЗ	-11.391
ОРОХ	-11.391
▁ПРОЦЕДУРЫ	-11.3911
▁НАЗНАЧАЕТ	-11.3911
▁ВИЗИТ	-11.3911
▁ДЕТОК	-11.3911
▁ПЛОЩАДКИ	-11.3911
РОЛЛ	-11.3911
▁ЖАРКО	-11.3911
▁ИЗОБРЕТЕНИЯ	-11.3911
▁УГЛЕКИСЛЫЙ	-11.3912
▁ЗАНИМАЕШЬСЯ	-11.3912
▁ПРЕПОДАВАТЕЛЬ	-11.3912
▁ПРОИЗНОСИТЬ	-11.3912
ГЕНЕРИРОВА	-11.3912
▁ТРАНСФОРМИРОВА	-11.3912
▁ДОРОЖНО	-11.3912
▁ЗОЛОТЫЕ	-11.3912
▁ВОЗВРАЩАЮСЬ	-11.3912
▁СОГЛАШАТЬСЯ	-11.3913
▁ПОДГОТОВИЛ	-11.3913
▁МЕЧТАНИЙ	-11.3913
▁ПОКУПАЕМ	-11.3913
▁ПАТРИАРХ	-11.3913
▁ВЫПИСАЛ	-11.3913
▁ГОРДИТЬСЯ	-11.3914
▁КНИЖЕ	-11.3914
▁ПОЕЗДОК	-11.3914
▁ИССЛЕДУЕТ	-11.3914
▁СТРИМ	-11.3914
▁СЦЕНК	-11.3915
▁ОСТАНОВИЛАСЬ	-11.3915
▁ГРЕБЛ	-11.3915
▁ОБЪЕДИНИЛИСЬ	-11.3915
▁ЛОМАЕТСЯ	-11.3916
▁ЖИВШЬ	-11.3916
▁ПРОЧЕГО	-11.3916
▁ВЕНТИЛЯЦИИ	-11.3916
ИРАЯ	-11.3916
▁МУЗЕЕВ	-11.3916
▁ХРАНИТСЯ	-11.3916
▁МОТИВАЦИИ	-11.3916
▁СТАНОВИЛОСЬ	-11.3916
▁ОСТАНАВЛИВАТЬСЯ	-11.3917
▁ОДЕВАТЬСЯ	-11.3917
▁КОНТРОЛЯ	-11.3917
▁СОПРОТИВЛЕНИЯ	-11.3917
▁ТРУДИТЬСЯ	-11.3917
▁ОСКОРБЛЯТЬ	-11.3917
▁БЛИЗКА	-11.3917
▁ПЛАВАНИЕ	-11.3917
▁ПРОЩЕНИЯ	-11.3918
▁КРИТЕРИИ	-11.3919
▁ИДЕНТИЧНОСТЬ	-11.3919
▁УГОЛЬ	-11.3919
▁ВЫЛЕЧИЛ	-11.3919
▁ЛЕЧАТ	-11.392
▁СООБЩЕНИЙ	-11.392
▁ТЕРРИТОРИЙ	-11.392
▁МЕНЮ	-11.392
▁СЛУШАТЕЛЕЙ	-11.392
▁НАПРА	-11.392
▁КОНКУРЕНЦИЮ	-11.392
▁ПОХУДЕТЬ	-11.3921
▁ПОВЕДЕНИ	-11.3921
▁ПРОЧИМ	-11.3921
▁ВЕСНА	-11.3921
▁ПЕРЕНЕСТИ	-11.3921
▁МОСКВИЧ	-11.3922
▁ИНТЕРПРЕТИР	-11.3922
▁СТЕСНЯТЬСЯ	-11.3922
▁ХУЛИГАНОВ	-11.3922
ЖУСЬ	-11.3923
▁ПРЕДЛОЖИТ	-11.3923
▁ТИМ	-11.3923
▁СТРОК	-11.3924
▁ВОЗВРАЩЕНИ	-11.3924
▁ПРОИЗВОДИТЕЛЬ	-11.3925
ЖАЛИСЬ	-11.3926
▁ОТКАЗЫВАТЬСЯ	-11.3926
▁ВЫЖИЛ	-11.3926
▁ЗРИТЕЛЕЙ	-11.3926
▁ВНЯТНО	-11.3927
▁ПОДЪМ	-11.3927
▁ВЫСТАВКИ	-11.3927
▁ПРОЯВЛЯЕТСЯ	-11.3927
▁ПОДОЙТИ	-11.3928
▁ЗАКОНЧИЛИСЬ	-11.3928
▁ВЕСЛО	-11.3929
▁ЖАЛЕЕТ	-11.3929
▁НОМАДОВ	-11.3929
▁ВДОХНОВИЛО	-11.393
▁СОБЛЮДАТЬ	-11.393
▁ЧЕТВЕРТЬ	-11.393
▁ТРАГЕДИЯ	-11.3931
▁ПОВТОРЯТЬ	-11.3931
АННА	-11.3931
▁НАТАЛЬ	-11.3932
▁БУЛОЧКИ	-11.3932
▁ЗАСТАВИЛ	-11.3932
▁ПЕРЕГОВОРЫ	-11.3932
▁350	-11.3933
▁ИССЛЕДОВАЛИ	-11.3933
▁РОЗЕТКИ	-11.3933
▁МИЛИЦИИ	-11.3933
▁НОРМОЙ	-11.3933
▁ЕРУНДУ	-11.3933
▁ВЫСТАВКУ	-11.3934
▁ГРЕКИ	-11.3934
▁ПОВЛИЯЛО	-11.3935
▁АМЕРИКА	-11.3935
▁ОБРАБОТАТЬ	-11.3935
▁РАССЛЕДОВАНИЯ	-11.3935
▁МИЛАН	-11.3936
▁ТЕРПЕЛИ	-11.3936
▁ИГРУШКУ	-11.3937
СЛЕДИТЬ	-11.3937
▁ЭЛЕМЕНТАРНО	-11.3937
▁УДОВЛЕТВОРЕНИЯ	-11.3938
▁ВИДНА	-11.3938
▁ИТАЛЬЯНСКО	-11.3938
▁АКАДЕМИЮ	-11.3939
▁КАПИТАЛИСТ	-11.3939
КУШАТЬ	-11.3939
▁СОВЕРШАЕМ	-11.3939
▁ПОЖАЛ	-11.394
▁БЕРЕМЕННЫХ	-11.394
▁ОЩУЩАЕТ	-11.394
ВЫСИТЬ	-11.3941
▁ЗАПРЕТИЛ	-11.3941
▁ТЕНЬ	-11.3941
▁СТРАДАТЬ	-11.3941
▁ПОСЫЛАЮТ	-11.3941
▁КОЛОКОЛОВ	-11.3942
▁ЖАНР	-11.3942
▁АЛКОГОЛИК	-11.3943
▁ПОДХОДЯТ	-11.3943
▁МАГИЮ	-11.3943
▁ОЩУЩЕНИЙ	-11.3943
▁ЗАПЕЧАТЛЕ	-11.3943
▁МИНСКА	-11.3943
▁ПРОПУСТИТЬ	-11.3943
▁ОБХОДИТЬ	-11.3943
▁СТОПРОЦЕНТНО	-11.3944
▁КУРИЛ	-11.3944
▁ПРАКТИЧН	-11.3944
▁ШЛЕМ	-11.3944
▁ДЕДУШКА	-11.3945
▁ДРЕВНОСТИ	-11.3945
▁ПАПИН	-11.3945
▁ПРИЛОЖЕНИЯМИ	-11.3945
▁СТОРОННИК	-11.3946
▁РАЗОЧАРОВАТЬ	-11.3946
▁ФАЙЛОВ	-11.3947
▁ЭСТ	-11.3947
▁ГРАЖДАНИН	-11.3948
▁ЛОГИЧЕСК	-11.3948
▁КАЗАНИ	-11.3948
▁КОНСТРУКТОР	-11.3948
▁ЗИМУ	-11.3949
▁КОМПЕТЕНЦИИ	-11.395
▁ПЕНСИИ	-11.395
▁АНАЛОГИЯ	-11.395
▁КИТАЯ	-11.395
▁СИЖУ	-11.3951
ТОЧКОЙ	-11.3951
▁ПЕЧАЛЬНО	-11.3951
▁ДВУХМЕРН	-11.3952
▁ПРОЖИВАЕТ	-11.3952
▁ЧАСТИЦА	-11.3952
▁ВЗРОСЛАЯ	-11.3953
▁ИНДУСТРИЮ	-11.3953
▁ЭКСКУРСИ	-11.3953
▁ВЕРУЮЩИХ	-11.3953
▁ТРОГАТЕЛЬН	-11.3954
▁ОТЕЛЕ	-11.3954
▁ПСИХОЛОГОМ	-11.3954
▁СДАВАТЬСЯ	-11.3955
▁ПОКАЖЕТСЯ	-11.3955
▁ПРОФИЛАКТИК	-11.3955
▁СОДЕРЖАНИЕМ	-11.3956
▁ЦЕ	-11.3956
▁ПРОКАТ	-11.3956
▁РЕЗКИ	-11.3957
▁СТАРАТЬСЯ	-11.3957
▁ВЗГЛЯДА	-11.3958
▁ГАЗЕТАХ	-11.3959
▁ПОЕЗДКУ	-11.3961
▁ЗАПОЛНИТЬ	-11.3961
▁РОДОМ	-11.3963
▁НОРМАЛЬНАЯ	-11.3963
БИВАТЬСЯ	-11.3963
▁РАЗЛИЧИЯ	-11.3963
▁ДОСТОЙНЫ	-11.3963
▁ПОЛКИ	-11.3964
ННЫМИ	-11.3965
▁ТОЧКЕ	-11.3965
▁ЛЕСТНИЦЕ	-11.3966
▁СТРЕССОМ	-11.3966
▁ОПУХОЛЕВЫХ	-11.3966
▁СДЕЛАЙТЕ	-11.3967
▁ЗАБАВНО	-11.3968
▁НИКИТ	-11.3968
▁БЕРУТСЯ	-11.3969
▁НЕЗНАКОМЫМИ	-11.3969
▁НАУКОЙ	-11.397
▁ЭКЗОПЛАНЕТЫ	-11.397
▁ПРОГНОЗИРОВАТЬ	-11.3971
▁ОБНАЖННЫ	-11.3971
▁ДОЛЖНОСТЬ	-11.3973
▁СОРЕВНОВАНИЯ	-11.3973
▁ОБРАЗОВЫВА	-11.3973
▁ИСПОЛНИТЕЛЯ	-11.3975
▁ЭЛЕМЕНТОВ	-11.3975
▁СОГЛАША	-11.3976
▁ПРОШЛЫМ	-11.3976
▁ПРИЕХАТЬ	-11.3977
▁ПАТРИОТОМ	-11.3977
▁ПРИВЯЗАНЫ	-11.3977
▁РОДСТВЕННИКА	-11.3978
▁КЛИЕНТЫ	-11.3978
▁ГОСПОДИН	-11.3978
▁ЗАБОЛЕВАНИЯМИ	-11.3979
ЛОЖИЛСЯ	-11.3979
▁ПОДАРИ	-11.3979
▁ВЫПУСКНИК	-11.398
▁ЗАБЫВАТЬ	-11.3982
▁КИЕВСКО	-11.3982
▁ЗАКОНОДАТЕЛЬСТВ	-11.3984
▁ВИНОВАТА	-11.3986
▁ОХОТНИК	-11.3986
▁СОБСТВЕННОСТИ	-11.3987
▁ПОМЕЩЕНИИ	-11.3987
▁САМОЛТОВ	-11.3988
▁ОСОЗНАНИЯ	-11.3988
▁СПЕКТАКЛИ	-11.3988
▁СЫГРАТЬ	-11.3989
▁ПРИНЦИПА	-11.3989
▁ВЕРИЛИ	-11.3989
▁МИНСКЕ	-11.3991
▁ПРОФЕССИОНАЛОМ	-11.3991
▁ДВИЖ	-11.3991
▁ЖУРНАЛЫ	-11.3993
ВЫСОК	-11.3993
▁СЕКСОМ	-11.3993
▁СОБАКУ	-11.3994
▁ПОДХОДИТЬ	-11.3995
▁ЧАШ	-11.3998
ЧКЕ	-11.3999
▁НЫНЕШНИ	-11.3999
ЧИВЫ	-11.4
▁БЫСТРЫМ	-11.4
▁БЕГАЮТ	-11.4001
▁КАРТОЧК	-11.4001
▁ДИСКУССИИ	-11.4001
▁ЦЕРКВИ	-11.4002
▁ШКОЛЬНЫХ	-11.4004
▁ПРИНЦИПАХ	-11.4004
▁ОПУБЛИКОВАЛ	-11.4007
▁СХЕМЕ	-11.4008
ПУТАТЬ	-11.4009
▁СТИХОТВОРЕНИЯ	-11.401
▁ПОДПИСЬЮ	-11.401
▁СОСТОЯ	-11.4011
▁ПЕРЕЧИСЛЯ	-11.4011
▁СКРОМНЫ	-11.4012
▁ПЛАНЕТАРН	-11.4012
▁ЖИВЫМИ	-11.4013
▁ПЛАКАЛА	-11.4013
▁ЗЕЛНЫЙ	-11.4014
▁СООБЩЕСТВЕ	-11.4014
▁ЖИДКОСТ	-11.4014
▁ЭКЗАМЕНЫ	-11.4015
▁РОДИ	-11.4016
▁ПУШКИНА	-11.4017
▁МЕНЕДЖЕРА	-11.4018
▁ПРИКЛЮЧЕНИЯ	-11.4019
▁БУМАГУ	-11.402
▁РАЗМЕРОВ	-11.4021
▁ОГРОМНОГО	-11.4023
▁НЫРЯЕ	-11.4027
▁НЕПРАВИЛЬНЫ	-11.4027
▁ЗАБОЛЕВАНИЕМ	-11.4027
МЕНИЛИ	-11.4027
▁ВИЗУ	-11.4028
▁УЛИЦАХ	-11.4031
▁БИЛЕТЫ	-11.4031
▁ДАДУТ	-11.4032
▁НИЗКИ	-11.4033
▁СОВОКУПНОСТ	-11.4035
▁КОПИТЬ	-11.4035
▁ИНОСТРАНЦ	-11.4035
▁НАСТОЯЩИХ	-11.4036
▁ТЕЛЕВИДЕНИЕ	-11.4036
▁ЗВОНКИ	-11.4037
▁ЭТАЖА	-11.4038
▁ПТИЦА	-11.4038
▁БЕРЕМЕННОСТИ	-11.4038
▁СОБРАЛ	-11.404
▁ПОРАЗИТЕЛЬН	-11.4041
▁АГРЕССИВНЫ	-11.4041
▁ГЛАЗОМ	-11.4041
▁ВОСХИЩА	-11.4041
▁ЗАПУСТИЛ	-11.4042
▁ХУДИ	-11.4042
▁УЗНАВАТЬ	-11.4043
▁ИНВАЛИДЫ	-11.4043
▁КРАСИВЫМИ	-11.4044
▁МАГАЗИНОВ	-11.4046
▁МАГАЗИНАХ	-11.4047
ЛЕТАЮТ	-11.4047
▁ПРЕПАРАТЫ	-11.4048
▁ЗВОНИТ	-11.4048
▁МАМИН	-11.4049
▁ПРИГЛАСИ	-11.405
▁ПОРАЗИЛА	-11.4052
▁ИМЕЮЩИХ	-11.4056
▁НАПОЛНЯЕТСЯ	-11.4058
▁ЛЮБИТЕЛЬ	-11.4059
▁СКЛАДЫВАЕТСЯ	-11.4059
▁НОМЕРОВ	-11.4063
▁МОЛОДОСТ	-11.4063
▁ПЛОСКИ	-11.4064
▁ПОСЛЕДУЮЩИ	-11.4064
▁ЯПОНСКИ	-11.4065
▁ВОЗМОЖНЫХ	-11.4065
▁ВОЛЕЙ	-11.4066
▁СДАТЬ	-11.4067
▁ПОКУШАТЬ	-11.4068
▁МОТИВАМ	-11.4069
▁ОСВОБОЖДАЕТ	-11.4074
▁ГОГ	-11.4075
▁ПОЛИТИКИ	-11.4077
▁ВОПРОСАМ	-11.4079
▁ВЕРНЫМ	-11.4079
▁БОГОМ	-11.4079
▁ПАРТИ	-11.408
▁СОВЕСТИ	-11.408
▁ОСОЗНАВА	-11.4082
▁РАСПРЕДЕЛЕНИЕ	-11.4082
▁НАЦИОНАЛЬНОСТЬ	-11.4082
▁ЭФФЕКТИВНОСТЬ	-11.4083
▁ПОКОЛЕНИЯМИ	-11.4085
▁НЕВЕРОЯТНЫЕ	-11.4086
▁ПЕТЕРБУРГЕ	-11.4086
▁ФЕВРАЛЕ	-11.4086
▁ОПИСАТЬ	-11.409
▁МОЕМ	-11.409
▁ПОЗВОНИЛИ	-11.409
▁БАНКОВСК	-11.4092
▁БАНКУ	-11.4094
▁ПИЩЕВЫ	-11.4096
▁МЕСТОМ	-11.4098
▁ЗАПИСАН	-11.4098
▁ПЛЮСЫ	-11.4099
▁ОТКРЫТИЕМ	-11.4099
▁ЛЮБОПЫТНО	-11.4101
▁ТЕЛЕФОНОВ	-11.4103
03	-11.4103
▁НАЧАЛЬНИКА	-11.4104
▁СУПРУГА	-11.4104
▁ХОРОШЕМУ	-11.4104
▁ПЕРЕЛОМНЫ	-11.4105
▁РАСТВОРИМЫ	-11.4105
▁ВЫЕЗД	-11.4105
▁ЗАБИРАЕТ	-11.4105
▁ПОМЕНЯТЬСЯ	-11.4106
▁ДЕД	-11.4107
▁УДИВИТЕЛЬНОГО	-11.4108
КОВЫ	-11.4108
БРАСЫВАЕТ	-11.4109
▁ЖИЛЬ	-11.4112
▁ТАЙНЫ	-11.4112
▁СОБРАТЬСЯ	-11.4114
▁ПЕСНЯ	-11.4115
▁ПОСЛЕДСТВИЯМ	-11.4115
▁АГРЕССОРА	-11.4118
▁ЗАКОНЧИЛИ	-11.4122
▁ОПРОС	-11.4125
▁ТЩАТЕЛЬНО	-11.4126
СТУПАТЬ	-11.4127
▁ВРЕДА	-11.4128
▁ДЕШВЫ	-11.4129
▁СУЩЕСТВУЮ	-11.413
▁УСПЕЛИ	-11.4133
▁ВЕЛИКОЛЕПНЫ	-11.4134
▁РЕКИ	-11.4138
▁ОТНОСИТЕ	-11.4138
▁ВЫНОСЯТ	-11.4139
▁СТОЛОВ	-11.4142
ПРЕДЕЛ	-11.4142
▁СТАН	-11.4143
ИЧЕСКОЕ	-11.4143
▁НЕНАВИД	-11.4146
▁СЛАБЫЕ	-11.4146
▁ПЬТ	-11.4146
ВЕК	-11.415
▁ЗВОНИЛ	-11.415
▁НЕПРИ	-11.4151
▁НЫНЕШНЕМ	-11.4153
▁ДИЕТА	-11.4153
ЗДАНИЙ	-11.4158
БЕРТ	-11.4158
▁ОБОЗНАЧА	-11.4159
▁НЕДОЛГО	-11.4162
▁ЖА	-11.4163
▁СЫНУ	-11.4165
▁ПРОСНУ	-11.4168
▁АБСТРАКТНЫ	-11.4169
▁МАРКИ	-11.417
▁ВЫЙДУ	-11.4172
▁СУШИ	-11.4172
▁РЕГИОНА	-11.4172
▁ВЫСТУПАЛА	-11.4173
▁ПРЕДМЕТЫ	-11.4174
▁НАХОДИШЬ	-11.4177
ПОТРЕБЛЯЮТ	-11.4177
▁КРИТЕРИЕ	-11.4178
▁ВОЛШЕБНЫ	-11.4178
▁ОРГАНИЗАЦИЙ	-11.418
▁СЛЕДИТ	-11.4181
▁НИЖНИ	-11.4182
ЧИТАЙТЕ	-11.4183
▁ПОСТАВЛЕННЫ	-11.4184
▁ДАЧУ	-11.4186
МЕНЕНЫ	-11.4188
▁РАСШИФРОВА	-11.4189
▁ЯПОНСКО	-11.4191
▁ВОЗВРАЩАЯ	-11.4194
▁ПЕЧАТАЮТ	-11.4194
▁МЫШКИ	-11.4196
▁НЕИЗВЕСТНОЕ	-11.4198
ЩИКОМ	-11.4199
▁ГОДИК	-11.4199
▁125	-11.4202
МЫСЛ	-11.4202
СЧИТА	-11.4203
▁ПОХУДЕЛ	-11.4205
▁НАЖАТЬ	-11.4205
▁ОКРУЖАЮЩИМИ	-11.4206
▁ПРОВЕРИЛ	-11.4207
▁ЧАСТНЫ	-11.421
▁ЖЕЛАЮЩИ	-11.4211
▁ЦЕНТРАЛЬНЫ	-11.4216
▁НАДЕЯ	-11.4219
▁ВЫДЕЛЯЕТ	-11.422
▁ПРОИЗВОДСТВОМ	-11.422
▁АДЕКВАТНО	-11.4223
▁АЛ	-11.4225
▁МЕСТУ	-11.4225
▁ДОМАШНИЕ	-11.4226
▁МУЖЧИНУ	-11.4227
▁ЗАБАВНЫ	-11.4227
▁ДОСТИГА	-11.4228
▁СКУЧНЫМ	-11.4229
▁ПРОФЕССОРА	-11.4229
▁ЛЕТЯТ	-11.423
▁ГОТОВОЙ	-11.4231
▁ВЗГЛЯДОМ	-11.4232
▁ПАПЕ	-11.4232
▁ЛЕЗУ	-11.4235
▁ПОДУМА	-11.4235
▁ГИГАНТСКИ	-11.4237
▁ЗАПЛАТИ	-11.4237
МЕРНО	-11.4238
▁СЕРЬЗНЫМ	-11.4239
▁ДИКТУЕ	-11.4241
▁КРИК	-11.4245
▁ПОМЕНЯ	-11.4247
ВОД	-11.4247
▁КРИ	-11.4248
▁АКТ	-11.4248
▁КИТАЙСКИ	-11.425
ЛАНА	-11.4251
▁КОМПАНИЯМ	-11.4252
▁ИНТЕРЕСУЮТ	-11.4252
▁ОРЛ	-11.4253
▁ДОЖДА	-11.4253
▁СУИЦИД	-11.4254
ДАВАЛА	-11.4254
▁ТПЛ	-11.4257
▁ТЕЛЕВИЗОРУ	-11.4259
▁РАЗРУША	-11.426
▁ВЫЛОЖИ	-11.4261
▁ОЛИМПИЙСКИ	-11.4264
▁БЛАГОПОЛУЧНО	-11.4268
▁БЛАГОРОДН	-11.427
▁ПРИОБРЕТАЕТ	-11.4272
▁ФОРМИРУЮТ	-11.4272
▁ЖСТКИМ	-11.4275
ВАЕМ	-11.4278
▁ОТКРЫВАЮ	-11.428
▁НАБЛЮДЕНИЕ	-11.4284
▁ПЕРЕВОДИТЬ	-11.4286
▁ВОСПИТАННЫ	-11.4286
▁ПОМЕНЯЛ	-11.4287
▁ВЛОЖИ	-11.4288
▁ЧЕСТНЫМ	-11.4289
КСЫ	-11.4289
▁УДИВИЛА	-11.4292
▁ОПАСНЫХ	-11.4294
▁ВИДЯ	-11.4304
▁ВВЕДЕНИЕ	-11.4304
▁ПОЛОВЫ	-11.4305
▁ЗЕМН	-11.4306
РИМ	-11.4307
▁ЖЕЛАНИЯХ	-11.432
▁АПТЕКА	-11.4326
▁УМЫ	-11.4328
ООБЩАТЬ	-11.4328
▁ПАРН	-11.433
▁МАТЕРИАЛЬНОМ	-11.4341
▁МИК	-11.4342
▁ПОНАДОБИ	-11.4343
▁ПРОЙД	-11.4343
▁ИСХОД	-11.4349
▁ОПЕРАЦИОННЫ	-11.4349
▁НЕНУЖНО	-11.4349
▁МОЛЧАНИЕ	-11.4352
▁НЕМЕЦКИ	-11.4356
▁КОСМОСА	-11.4359
ВЕС	-11.4362
▁ЮРИДИЧЕСКИ	-11.4366
▁ГОРЕ	-11.4371
▁ЗАБРАЛ	-11.4373
▁ОТВЕЧА	-11.4377
ЮЩИЕСЯ	-11.4379
▁ТЕХНОЛОГИЯХ	-11.438
СТРОИТЕЛЬСТВА	-11.4382
ВИС	-11.4383
▁СТАТИЧН	-11.4385
▁РЕАЛЬНОГО	-11.4385
▁ЭКОНОМИЧЕСКО	-11.4386
▁СНИМАЛИ	-11.4387
▁СОЦИОЛОГ	-11.439
▁ПОДУШК	-11.4394
▁ПОСЕТИЛ	-11.4395
▁ОЩУТИЛ	-11.4396
ИРОВАНИЕ	-11.4396
▁ГОРОДСКО	-11.4401
РУЧ	-11.4403
▁КАРЬЕРЕ	-11.4405
НОСТЬЮ	-11.4419
▁СОЮЗЕ	-11.442
▁ПОВЕЗТ	-11.4422
▁РЕЗУЛЬТАТОМ	-11.4424
▁55	-11.4425
▁ПРОЕКТАХ	-11.4428
▁ЖЕЛЕЗН	-11.443
ДАРИТЬ	-11.4431
▁ВЫЛЕЗА	-11.4432
▁ПРА	-11.4436
▁ГЛУБИНА	-11.4436
▁ПОПУЛЯРНО	-11.4436
▁ВЫПОЛНЯЕТ	-11.4437
▁КИТАЙСК	-11.4437
▁РУКОВОДСТВО	-11.4438
▁ПРЕПАРАТАМ	-11.444
▁ЗАКР	-11.4443
СЛУЖИТЬ	-11.4443
▁СОЗДАВ	-11.4443
ЧИТЬ	-11.4446
СТАРАЮСЬ	-11.4449
АЛИЗМ	-11.4459
▁ПАЦИЕНТАМ	-11.446
▁ТЕСТА	-11.446
▁ОТКЛИКА	-11.4461
▁ПОНИ	-11.4465
▁ДОБАВЛЯ	-11.4466
▁ПРОБУ	-11.4468
▁КЛАССОВ	-11.4472
КАЖЕШЬ	-11.4474
▁УДИВИ	-11.4475
▁АВТОРСКИ	-11.4476
▁ПСИХОЛОГА	-11.4477
▁ХУДЫ	-11.4477
ПРАВИТЬ	-11.4478
▁ПОЛНОТ	-11.4496
▁ОДЕ	-11.4498
▁ОТКАЗА	-11.4498
▁НОГУ	-11.4502
МКОСТЬ	-11.4504
ТЕЛЬНЫЙ	-11.4507
▁РАЗРАБАТЫВА	-11.4519
▁ПОЖИЛЫМ	-11.4523
▁ВОЛН	-11.4523
ЛЬНЫЙ	-11.4524
▁ЯЩИК	-11.4525
▁КОС	-11.4526
ЛАЙН	-11.4527
▁ТПЛЫ	-11.4533
СТАВЯТ	-11.4539
▁КОЛЛЕКТИВНО	-11.455
▁ТРЕБОВАЛ	-11.4551
▁СМЫСЛУ	-11.4551
НЯЯ	-11.4554
▁УСПЕХИ	-11.4554
▁НЕБА	-11.4566
▁РАСПРОСТРАНЯ	-11.4572
▁ПЕРСПЕКТИВ	-11.4579
▁НОМЕРА	-11.4584
▁ГИБЕЛ	-11.4586
▁ЦИ	-11.4586
▁РЕФЛЕКС	-11.4587
▁СПРАШИВА	-11.4589
▁ПОДДЕРЖАТ	-11.459
ЮЩИМИСЯ	-11.4591
▁МЕТОДА	-11.4593
▁ПРИКЛАДНЫ	-11.4594
▁СТЕНА	-11.4597
ВАЛИВАЕТСЯ	-11.4602
КОМУ	-11.4604
▁ТОНК	-11.4605
▁ВМЕША	-11.4606
▁НАХОДИМ	-11.4606
ГОНЯЕТ	-11.4615
▁РЕШИТ	-11.4617
▁ВЛАДЕНИ	-11.4621
▁КРАЙ	-11.463
▁ВОЗМОЖНЫМ	-11.4632
▁ОДИНАКОВ	-11.4633
▁МАСШТАБНЫ	-11.4642
▁ЧЕЛОВЕЧНО	-11.4644
▁ИССЛЕДОВАТЕЛЬСК	-11.4647
▁ФИЗИЧЕСКОМ	-11.4652
▁ИЗУЧА	-11.4654
ВИТЬ	-11.4654
▁ТЕАТРЕ	-11.4659
▁СВЕЖЕ	-11.466
▁ДАЛЬНЕ	-11.4664
▁ГОРДИ	-11.4669
▁ПОЛУЧАЕТЕ	-11.467
▁СЧАСТЬЕМ	-11.4671
▁ВКЛЮЧИЛ	-11.4684
▁РУССК	-11.4685
▁ЗАВОДСКО	-11.4687
ЗМА	-11.4691
▁НИЖНЕ	-11.4696
▁БИЗНЕСУ	-11.4696
▁ЦЕЛЫМ	-11.4703
▁ОБСЛЕДОВАНИ	-11.4708
▁КРОВ	-11.4712
▁СТРОЙНО	-11.4715
▁ЗАГОВОРИЛ	-11.4719
НКЕ	-11.472
▁ПОЛОС	-11.4722
▁ПРИМЕ	-11.4722
КЛАДЫВАЛИ	-11.4729
▁ПРЕВРАТИЛ	-11.4739
▁ШАГУ	-11.4741
▁РАЗДЕЛН	-11.4742
МОР	-11.475
ТОРА	-11.4751
▁ЧЕТВРТО	-11.4752
▁ЗАРАЗ	-11.4754
▁ПРИОБРЕ	-11.4758
▁ПРОМЫШЛЕННО	-11.4758
ЛЮБОЗНАТЕЛЬНОСТЬ	-11.4759
▁ИНДИВИДУАЛЬНОМ	-11.4759
▁ВЫСОКОМ	-11.4763
ЗИРОВАТЬ	-11.4778
▁ПРАВОВ	-11.4779
▁СОЦИАЛЬНОМ	-11.4794
▁РАЗДЕЛ	-11.4797
▁ОБЛЕГЧА	-11.4811
▁ЮРИСТ	-11.4813
ЕННУЮ	-11.4814
▁ОСТОРОЖНО	-11.4816
▁ПРОПУСТИЛ	-11.482
▁ОКАЗЫВАЮТ	-11.4821
▁КИСЛОТА	-11.483
▁ТПЛО	-11.483
▁ПРОПАГАНД	-11.4841
ПРАВИЛИСЬ	-11.4845
▁НАУЧ	-11.4854
ОЛЬ	-11.4861
▁ПОТЕРЯН	-11.4865
▁СОЗДАТЕЛ	-11.4871
▁ЗАПИСЫВАЕТ	-11.4876
▁ПЕРЕЖИВАЛ	-11.4886
▁ПРОДОЛЖИЛ	-11.4888
▁ВОЗДУХЕ	-11.4896
ИЧЕСКОЙ	-11.4907
▁УПОМЯНУЛ	-11.4909
СИД	-11.4919
▁НЕПОНЯТН	-11.4919
▁СПУСКА	-11.4926
▁ПРОДАВАЛА	-11.4928
▁МНОГОК	-11.4929
▁КОЛЛЕКТИВНЫ	-11.493
▁ВРЕДНО	-11.4931
БИВАЕТ	-11.4934
▁СЕВЕРНЫ	-11.4943
▁ДЕТ	-11.4944
▁КАРЛ	-11.4946
▁ПЕРЕМЕЩА	-11.4948
ЖИВАТЬ	-11.4949
▁ДОВЕРЯЮ	-11.495
▁УВЕРЕННОСТ	-11.4956
43	-11.4957
50	-11.4963
▁ПРОДОЛЖАЛ	-11.4965
▁МНОГОГРАНН	-11.4969
▁ГАРАНТИРОВАНН	-11.497
▁РАДУ	-11.4972
▁БОМБ	-11.4973
ПУЩЕНО	-11.4975
▁РАЗУМНО	-11.4975
▁АППАРАТА	-11.498
КСА	-11.4983
▁СОПРОВОЖДА	-11.4984
ПИРА	-11.499
▁УДАЛНН	-11.499
▁МУЗЫКАЛЬНЫМ	-11.4998
▁ДЕРЖА	-11.5009
▁ШОКОЛАД	-11.5011
▁ЗАМЕДЛЯ	-11.5022
▁УСПЕВАЛ	-11.5024
▁МЫСЛИТЕЛЬН	-11.5034
▁КОЛОКОЛЬН	-11.5035
СТУПИТЬ	-11.5036
ДЕРЖАТЬ	-11.5036
▁СЛОЖНЫМ	-11.5039
▁ТРАТИЛ	-11.5042
ВЕСТ	-11.5048
▁КЛАВИШ	-11.5053
▁ВОЙН	-11.5061
▁ДОКАЖ	-11.5072
▁ОСТАНАВЛИВАЕТ	-11.5074
▁СТРАННЫМ	-11.5077
▁МОРАЛЬНЫ	-11.5079
▁ИССЛЕДОВАТЕЛЬ	-11.5081
▁ЗАПОЛНЯ	-11.5086
▁АНСАМБЛ	-11.5086
▁ЧА	-11.5089
▁ПОКАЗ	-11.5095
▁ВИНА	-11.5095
▁НАСЛЕДИ	-11.5097
ВОДИТСЯ	-11.51
▁ЗАМЕЧАТЕЛЬНОЕ	-11.5103
▁ИТОГО	-11.5105
СЛЕДОВАНИЯ	-11.5105
▁ФАКТА	-11.511
▁КРУГЛ	-11.511
▁ОБОГАЩА	-11.5112
КАЗАЛИСЬ	-11.5141
▁НАЦИОНАЛЬНОМ	-11.5148
▁КОЛЕН	-11.5149
▁БРАТЬЯ	-11.5153
ОНИ	-11.5163
▁ЦЕНИ	-11.5166
▁НЕОБЫЧН	-11.5169
▁ПЕРЕВОДЕ	-11.5173
▁ПОСАД	-11.5175
ИШЬСЯ	-11.5178
▁ВЫДАЮЩИ	-11.5178
▁ОПИСАНИ	-11.519
▁ДЖЕ	-11.5191
ПЯТ	-11.5196
▁ГОРД	-11.5202
▁ВЫДЕЛИЛ	-11.5203
▁ГИБ	-11.5204
▁НАСТРАИВА	-11.5206
▁АКТУАЛЬНЫ	-11.5208
▁ГРЯЗН	-11.5209
УМНАЯ	-11.5222
▁ОПИСЫВА	-11.5227
▁СПОСОБНО	-11.5231
▁ОБЪЯВЛЯ	-11.5236
РСТ	-11.5238
▁ТИПИЧН	-11.524
▁УСПЕ	-11.5243
▁НАЧИНАЛА	-11.5244
▁СПОРТСМЕНА	-11.5247
ННОСТИ	-11.5247
▁СЖИМА	-11.5248
▁АНАЛОГИ	-11.5251
▁ВЫЕЗЖА	-11.5253
ЬЯН	-11.5254
▁АТОМ	-11.5258
▁УЕЗЖАЛ	-11.5264
ИЧНЫЙ	-11.5274
▁ОСНОВАНИЕ	-11.5276
▁СРАВНИВА	-11.5282
▁СМОЖЕШЬ	-11.5283
▁КРИТИК	-11.5292
▁СОВЕТОВ	-11.5296
▁ЖУРНАЛИСТА	-11.53
▁МОТИВ	-11.5301
▁СОВЕРШАЮТ	-11.5304
ОГОНИБУДЬ	-11.5308
▁КАМН	-11.5312
▁ХАРАКТЕРНЫ	-11.5312
▁ПРИБЛИЖАЕТ	-11.5326
▁НАБЛЮДЕНИ	-11.5327
▁НАСЫЩЕНН	-11.5334
▁ВДОХНОВИЛ	-11.5335
▁СТРОЙН	-11.5337
▁ЗНАЧИМО	-11.534
ЩИХСЯ	-11.5345
▁СРЫВ	-11.5347
ДЕЛЯТЬ	-11.5349
▁СПЕКТАКЛ	-11.5349
ПРИНТЕРА	-11.5353
▁ЕХАЛ	-11.5358
▁ЯВЛЯ	-11.5359
НИЦ	-11.5361
▁ОСТАЛЬНО	-11.5361
▁ЗАТРАГИВА	-11.5365
▁ПАЛЬЦА	-11.5366
▁УДОВЛЕТВОРЯ	-11.5367
ОЛОГИИ	-11.5372
▁УВЕЛИЧЕНИЕ	-11.5376
▁ОТРАЖЕНИ	-11.5379
▁ИЗУЧЕНИ	-11.5379
▁ОПАС	-11.5383
▁РАСЧТ	-11.5384
▁ПЕРЕМЕСТИ	-11.5385
▁ТИПОВ	-11.5385
▁ОЦЕН	-11.5387
▁СВИДЕТЕЛ	-11.5388
ИСКА	-11.5391
ВАЙТЕ	-11.5391
ТОГО	-11.5398
▁ПОСТРО	-11.5402
▁ОСТАНАВЛИВАЛ	-11.5404
ПАН	-11.5408
▁ПРОВОДИЛА	-11.541
▁ФУТБОЛЬН	-11.5412
▁ОСТРЫ	-11.5416
▁БРА	-11.5419
ДЕЛЯ	-11.542
▁ТЕКСТОВ	-11.5423
▁ЧАСТ	-11.5426
▁БЛОГЕР	-11.5426
▁ПОЛЕЗНЫ	-11.543
▁ВОЛНА	-11.5438
▁ДОКАЗАТЕЛЬСТВ	-11.5441
▁СТУДЕНЧЕСК	-11.5446
▁УЧЕНИК	-11.5456
▁ЭКСПЕРИМЕНТИРУ	-11.5464
▁СЛАЙДА	-11.5465
▁ПОХОД	-11.5467
▁НЕРВНЫ	-11.5471
▁ЗАКАНЧИВАЮТ	-11.5472
БИВАЮТСЯ	-11.5474
▁ОНКОЛОГИЧЕСК	-11.548
АЛЬНАЯ	-11.5484
▁ВИНОВАТ	-11.5485
▁ОГРАНИЧИВ	-11.5496
▁МЕД	-11.5496
▁ПОДТВЕРЖДА	-11.5504
▁ПЕРЕЖИВАЮ	-11.5506
▁РАЗГОВОРЕ	-11.5508
▁ПОСМОТР	-11.5515
▁ПОГОВОР	-11.5519
▁ГРАЖДАНСК	-11.552
▁ИСЧЕЗ	-11.5525
▁МНОГОДЕТНО	-11.5535
▁СТАРШ	-11.5536
▁МЕЧТ	-11.5541
▁ПРОФИЛЬ	-11.5542
ОБРАЗОВАТЕЛЬНО	-11.5544
▁ВОЛНОВ	-11.5545
▁ИСТИННЫ	-11.5548
▁КОСМИЧЕСК	-11.5548
▁ПИЩЕ	-11.5553
▁ИНДИ	-11.5553
▁ЛОНДОНСК	-11.5553
▁БУМАЖК	-11.5557
▁ГР	-11.5558
▁ТУРИСТ	-11.5568
ИДОВ	-11.5569
▁УВИДЕ	-11.557
▁КРЕАТИВНО	-11.5571
▁ДВИГА	-11.558
▁УПРАЖНЕНИ	-11.5586
▁КРУЖК	-11.559
ТОЛЬКО	-11.5597
▁ПОМЕЩЕНИ	-11.5599
▁ИНДИВИДУАЛЬН	-11.56
▁УДОБН	-11.5603
▁УТРЕНН	-11.5604
▁ПУТЕ	-11.5605
КРОЕТСЯ	-11.5606
▁РИГ	-11.5606
▁ПРИНЯТИ	-11.5608
▁ВЫКИДЫВА	-11.5609
▁ВТОР	-11.5612
▁РОМАНТИЧЕСК	-11.5613
▁УЛЕТА	-11.5614
▁ИЗОБР	-11.5615
▁УТОПИ	-11.5619
▁СИНТЕЗ	-11.5637
РЕН	-11.5641
АРИМ	-11.5641
ДЕЙСТВИТЕЛЬНОСТИ	-11.5642
ИЗАЦИИ	-11.5644
▁ИССЛЕДОВАТЕЛЕ	-11.5647
УЧАТЬСЯ	-11.5647
▁ОТРИЦА	-11.5648
ОСТАТКИ	-11.5651
▁ДИЕТ	-11.5651
▁СТРЕЛ	-11.5655
▁УСТУП	-11.5658
▁МАТЕМАТИЧЕСК	-11.5658
▁РАБОТАХ	-11.5659
▁БЕЛОМ	-11.566
▁ПРЕОДОЛЕ	-11.5666
▁БЛАГ	-11.5666
▁НОЖК	-11.5669
▁ИНСТАГРАМ	-11.5669
▁МОЛИТВ	-11.5672
▁ПРИОБР	-11.5672
▁РАБОТАЮЩИ	-11.5673
▁ПИСАТЕЛЬ	-11.5678
▁СЕСТР	-11.568
▁ИЛЛЮСТРАЦИ	-11.5684
▁БЕРЕМЕННО	-11.5688
▁ПЕТЕРБУРГ	-11.5691
▁ФЕВРАЛ	-11.5691
▁НЕВЕРОЯТНЫ	-11.5691
▁ПЕРЕВОДЧИК	-11.5692
▁ВОЙД	-11.5692
▁ПЕРЕДЕЛЫВА	-11.5694
▁ПРОДВИГА	-11.5701
▁ПОТРЕБИТЕЛЬ	-11.5704
▁ЦЕННО	-11.5704
▁ПОКУПАТЕЛ	-11.5711
▁ПРОЧИТА	-11.5713
▁НОЖ	-11.5713
▁ТРЕБУ	-11.5717
▁УПОТРЕБЛЯ	-11.5718
▁СКУЧНЫ	-11.572
▁КРУЧЕ	-11.5722
▁ПОЗВАЛ	-11.5722
▁ВЕРИЛ	-11.5723
▁ЗАЙД	-11.5723
▁ИСКАЛ	-11.5725
▁УСТАНОВЛЕН	-11.5726
▁ПРАВИТЕЛЬСТВ	-11.5734
ДАШЬ	-11.5737
▁ДЕР	-11.5737
▁БЕЛОРУС	-11.574
▁КРЕАТИВНЫ	-11.5741
ФОН	-11.5743
▁ФРАНЦУЗ	-11.5743
▁ОРГАНИЗОВАЛ	-11.5745
▁РИСУЮ	-11.5745
▁БИОЛОГИЧЕСК	-11.5748
▁ЖУРНАЛА	-11.575
▁ДЕВ	-11.5751
▁ПОДГОТОВК	-11.5754
ДАДУТ	-11.5756
ПОМИНАНИЕ	-11.5756
ЦЕП	-11.5757
▁ОТПРАВИЛИ	-11.5757
УСТРОЙСТВО	-11.5759
ДИЗАЙН	-11.5765
▁ЭКОЛОГ	-11.5766
СИДЕТЬ	-11.5766
ДЕЯТЕЛЬНОСТИ	-11.5766
ДАЛЕКО	-11.5767
МНОГИХ	-11.5767
▁ПРОБЛЕМАМ	-11.5769
ВСЕГО	-11.577
▁СЕРЬЗНОЕ	-11.5773
ИЗАЦИЮ	-11.5775
▁ИЗВЕСТНЫМ	-11.5775
▁ОТРЕЗ	-11.5775
▁НЕЖНО	-11.5776
▁ДИС	-11.5777
СТАНЕТ	-11.5779
▁СПАСА	-11.578
ЧИСЛ	-11.5783
▁ТРЕТИ	-11.5788
▁СВОЙСТВ	-11.5791
ДВИЖ	-11.5793
▁СЛЫШ	-11.5794
▁СУДЕ	-11.5794
РЕСТ	-11.5795
ЭП	-11.5795
▁ПОДМЕН	-11.5797
ЧИКОВ	-11.5798
▁ПСИХИК	-11.5802
▁СУМЕЛ	-11.5803
ЖЕЧЬ	-11.5805
▁ДОБЫВА	-11.5806
▁ПОЭЗИ	-11.5807
▁БЕНИН	-11.5809
▁ТРЕУГОЛЬНИК	-11.5809
▁ИНТЕРПРЕТАЦИ	-11.581
▁ЛЕН	-11.581
ИМО	-11.5815
ОВАНИЯ	-11.5816
▁КРАН	-11.5817
▁ПРОВЕРК	-11.5819
▁ПРЕТЕНЗИ	-11.5819
▁ТВОИМ	-11.5821
▁ЛЕНИН	-11.5822
ЗАКОНОДАТЕЛЬСТВО	-11.5823
▁ПРАКТИЧЕСК	-11.5824
▁КЛЕ	-11.5824
▁ВОСЬМИ	-11.5825
▁КУЛЬТ	-11.583
▁ПОЛЬЗОВАТЕЛЯ	-11.5831
ЧНОСТЬ	-11.5831
▁ОПУХОЛЕВЫ	-11.5834
▁БЕДНО	-11.5838
ПИШИТЕ	-11.5839
ЧЕСТЬ	-11.584
ЗАПРОГРАММИРОВАН	-11.584
КАЗАЛОСЬ	-11.5841
▁ЭКОЛОГИ	-11.5841
▁СОЗДАЮ	-11.5844
▁КАПУСТ	-11.5847
▁МЕСС	-11.5849
▁МЯСН	-11.5849
▁ВЫРАСТА	-11.5855
СТОЯЩИЙ	-11.5858
▁КВАРТАЛ	-11.5861
▁РЕДАКТОР	-11.5864
▁ИНДЕЙЦ	-11.5865
▁КОНСЕРВ	-11.587
▁ДВУЯЗЫЧНЫМ	-11.5871
▁ПРИНИМАЛ	-11.5871
▁КОСМИЧЕСКО	-11.5872
▁КОНСУЛЬТАЦИ	-11.5873
▁СЛУШАТЕЛ	-11.5873
▁МОРОЖЕНО	-11.5874
▁НАДПИСЬ	-11.5876
СТОВ	-11.5877
▁СОБЛЮДА	-11.5877
▁ЛИДЕРСТВ	-11.5878
▁ЗАБОЛЕЛ	-11.5879
▁ПУЛ	-11.5879
▁РЕКОМЕНД	-11.5879
▁РАСШИРЯЕТ	-11.5879
▁ИРРАЦИОНАЛ	-11.588
▁ТЕРРОРИЗМ	-11.588
▁ВОПЛОЩ	-11.5881
ЕНЬКАЯ	-11.5881
▁МИКРОСКОП	-11.5881
▁МЕГА	-11.5882
▁РУБЕЖ	-11.5882
▁ФРУКТ	-11.5884
▁ВЗЯТ	-11.5884
▁КОНЮШН	-11.5886
▁СУРДОПЕРЕВОД	-11.5886
▁ТИХИ	-11.5888
▁СЛАДК	-11.5888
▁ПЛАЧУ	-11.5889
ГИН	-11.589
▁ТИТАН	-11.589
▁ЭКОНОМ	-11.589
▁УДОВЛЕТВОРЕНИ	-11.589
▁НАПОЛНЯЕТ	-11.589
▁ПОБЕЖДА	-11.5891
▁ОТКРОЮ	-11.5891
▁УРОН	-11.5893
ПРАВЛЯЕТСЯ	-11.5893
БЛИЗИ	-11.5895
ОСПИТА	-11.5895
▁МЕКСИК	-11.5895
МЕЛЬ	-11.5897
▁ПРЕПЯТСТВ	-11.5898
▁ДОСТИГНУТ	-11.5898
▁ПРАВОСЛАВН	-11.5899
▁МОРОЗ	-11.5899
▁ОПРАВДЫВА	-11.5899
▁РАСПОРЯЖА	-11.59
▁ПАРОХОД	-11.5901
▁ДОГАДЫВА	-11.5901
▁СУЩЕСТВЕНН	-11.5902
▁СДЕЛАЙ	-11.5902
▁БАКТЕРИЯ	-11.5902
ДАДИМ	-11.5903
▁ВЫЯСНЯЕ	-11.5903
▁РАВНОДУШНЫ	-11.5904
▁ПЕРЕЖИВАНИЯ	-11.5904
ЗВЕЗД	-11.5904
▁КАЛЛИГРАФ	-11.5904
▁СУЖДЕН	-11.5905
ТАЛКИВАЕТ	-11.5905
▁КОРПОРАЦИЯ	-11.5905
▁ПАНСИОН	-11.5906
▁ФЕРМ	-11.5906
▁ОБЪЯВЛЕН	-11.5906
▁ОКСФОРД	-11.5906
▁ОСМЕЛИ	-11.5906
▁АЖИОТАЖ	-11.5906
▁АПРИОРИ	-11.5906
▁АРЕНДОВА	-11.5906
▁АРТЕФАКТ	-11.5906
▁АРХЕТИП	-11.5906
▁АУДИТОРИЕЙ	-11.5906
▁БАЛЕТМЕЙСТЕР	-11.5906
▁БАЛУЮЩИХСЯ	-11.5906
▁БЕЛАРУСЬ	-11.5906
▁БИАТЛОН	-11.5906
▁БИОГРАФИ	-11.5906
▁БЛОКЧЕЙН	-11.5906
▁ВИКИПЕДИИ	-11.5906
▁ВОСПАЛЕНИЯ	-11.5906
▁ВСЕРЬЗ	-11.5906
▁ВЫИГРАТЬ	-11.5906
▁ВЫСТУПЛЕНИЙ	-11.5906
▁ГИГИЕН	-11.5906
▁ГОСПОДЬ	-11.5906
▁ГРАНДИОЗНЫ	-11.5906
▁ДЕТЕКТОР	-11.5906
▁ДОЛГОСРОЧНЫ	-11.5906
▁ЕВГЕНИ	-11.5906
▁ЖАЛУЮТСЯ	-11.5906
▁ЖИЗНЯМИ	-11.5906
▁ЗВУКОЗАПИСЫВАЮЩ	-11.5906
▁ЗДРОВО	-11.5906
▁ЗЛОКАЧЕСТВЕННАЯ	-11.5906
▁ИННОВАЦИОННЫ	-11.5906
▁ИНТЕРЬЕР	-11.5906
▁КОНДОРСЕ	-11.5906
▁КОНСЕРВАТИВНО	-11.5906
▁КОШЕЛЬК	-11.5906
▁КУХНЮ	-11.5906
▁ЛАТВИ	-11.5906
▁ЛАУРЕАТ	-11.5906
▁ЛЕБЕДИ	-11.5906
▁ЛИГНИН	-11.5906
▁ЛОСАНДЖЕЛЕС	-11.5906
▁МАНИЛОВА	-11.5906
▁МЕДСЕСТР	-11.5906
▁МЕНЬШИНСТВО	-11.5906
▁МЕТФОРМИН	-11.5906
▁МИРОЗДАНИ	-11.5906
▁МОТОЦИКЛ	-11.5906
▁НАПОМНИТЬ	-11.5906
▁НАРУЖУ	-11.5906
▁НАРУШЕНИЕ	-11.5906
▁НАСЛАДИТЬСЯ	-11.5906
▁НАЦЕЛЕН	-11.5906
▁НЕИЗЛЕЧИМО	-11.5906
▁НЕРАЗРЫВНО	-11.5906
▁НЕУДОБНО	-11.5906
▁НОВОСТЯХ	-11.5906
▁ОБЕЩАНИЕ	-11.5906
▁ОБЪЕДИНЕНИЯ	-11.5906
▁ОЗЕРЕ	-11.5906
▁ОСВЕЩЕНИЕ	-11.5906
▁ОТРАСЛЬ	-11.5906
▁ПОАПЛОДИР	-11.5906
▁ПОДДЕРЖКОЙ	-11.5906
▁ПОДСМАТРИВА	-11.5906
▁ПОДТВЕРДИТ	-11.5906
▁ПОЗАВЧЕРА	-11.5906
▁ПОЗДОРОВА	-11.5906
▁ПОКУШЕНИ	-11.5906
▁ПОЛИКЛИНИК	-11.5906
▁ПОМЕНЬШЕ	-11.5906
▁ПОСОБИ	-11.5906
▁ПРЕДЛОЖАТ	-11.5906
▁ПРИГОДИТСЯ	-11.5906
▁ПРИНЦЕСС	-11.5906
▁ПРОДОЛЖУ	-11.5906
▁ПРОИЛЛЮСТРИР	-11.5906
▁ПРОИСХОЖДЕНИ	-11.5906
▁ПУТЕШЕСТВОВАЛ	-11.5906
▁РАЗМЕЩАТЬ	-11.5906
▁РАЗНООБРАЗНО	-11.5906
▁РАПАМИЦИН	-11.5906
▁РАССМОТРИМ	-11.5906
▁РЕБНКЕ	-11.5906
▁РЕПУТАЦИ	-11.5906
▁РИСУНОК	-11.5906
▁РИТОРИК	-11.5906
▁САМОРЕАЛИЗАЦИ	-11.5906
▁САРАФАН	-11.5906
▁СБЕРБАНК	-11.5906
▁СЕБЕСТОИМОСТИ	-11.5906
▁СЕНТИМЕНТАЛЬН	-11.5906
▁СИМБИОЗЕ	-11.5906
▁СПОКОЕН	-11.5906
▁СПОКОЙСТВИЕ	-11.5906
▁СРАБОТАЛО	-11.5906
▁СУДЬБЕ	-11.5906
▁ТВОРЧЕСТВЕ	-11.5906
▁ТВОРЧЕСТВУ	-11.5906
▁ТРЕНИРОВКУ	-11.5906
▁ТРОЛЛЕЙБУС	-11.5906
▁УБИРАЕТ	-11.5906
▁УКРАСТЬ	-11.5906
▁УТНОК	-11.5906
▁УЧЕБНЫ	-11.5906
▁ФИНАНСАМ	-11.5906
▁ФОРТЕПЬЯНО	-11.5906
▁ЦУКЕРБЕРГ	-11.5906
▁ШЕДЕВР	-11.5906
▁ШЕКСПИР	-11.5906
▁ЭВРИКА	-11.5906
▁ЭНЕРГЕТИК	-11.5906
▁ЭНТУЗИАСТ	-11.5906
▁ЭСТОНКА	-11.5906
▁ЯРЛЫК	-11.5906
▁ВОСПРИНЯ	-11.5906
▁ДЕМОНСТРИРУ	-11.5906
▁ДОБРЕЕ	-11.5906
▁ДРУЖЕЛЮБ	-11.5906
▁КОПЕРНИК	-11.5906
▁КОРИДОР	-11.5906
▁МИНИСТЕРСТВ	-11.5906
▁МОЛОЖЕ	-11.5906
▁МЫШЛЕНИИ	-11.5906
▁НАСЛАЖДА	-11.5906
▁НАСТОЙЧИВО	-11.5906
▁ОСВОИЛ	-11.5906
▁ОФОРМИЛ	-11.5906
▁ПАВЛОВ	-11.5906
▁ПРЕОБРАЖА	-11.5906
▁ПРИМЕНЕНИЕ	-11.5906
▁ПРОПОВЕД	-11.5906
▁ПСЕВДО	-11.5906
▁ПУБЛИКЕ	-11.5906
▁РАДИКАЛЬНО	-11.5906
▁РОЖДЕНИЕ	-11.5906
▁СЕДЬМ	-11.5906
▁СЗАДИ	-11.5906
▁СКВАЖИН	-11.5906
▁ТЯНЕТ	-11.5906
▁УЧАСТНИЦ	-11.5906
▁ЭКОНОМИКОЙ	-11.5906
ДШЕВО	-11.5906
▁АНГЕЛ	-11.5906
▁ВИТАМИН	-11.5906
▁ИЗМЕРЕНИЯ	-11.5906
▁КАЗИНО	-11.5906
▁ОДНОРАЗОВ	-11.5906
▁ПОПРОСТОМУ	-11.5906
▁СКРЫТО	-11.5906
▁СЦЕНАРИИ	-11.5906
▁ТЕОРЕМ	-11.5906
▁ТЕОРИЙ	-11.5906
▁ТЕХНОРОМАНТИЗМ	-11.5906
▁ТРАНСЛИРУЮТ	-11.5906
▁ЩТОК	-11.5906
▁АНТИДЕПРЕССАНТ	-11.5906
▁ВСЕЛЕННУЮ	-11.5906
▁ДЕНЕТСЯ	-11.5906
▁МИНИМАЛЬНО	-11.5906
▁УМУДРИЛ	-11.5906
▁ХРИСТОС	-11.5906
▁ФИШКА	-11.5906
▁ВДУМАЙТЕСЬ	-11.5906
▁ВОДИТЕЛЬ	-11.5906
▁МАМОНТ	-11.5906
▁СЖАТЫ	-11.5906
▁ПЕЩЕР	-11.5906
▁ПРЕДАТЕЛЬСТВО	-11.5906
▁РАВНОВЕСИ	-11.5906
▁УПРАВЛЯЮЩЕГО	-11.5906
▁ЗАДАНИЯ	-11.5906
▁ЛАСНАМЯЭ	-11.5906
▁СЛАДОСТ	-11.5906
▁ТЮРЬМЫ	-11.5906
▁ПРЕСТУПЛЕНИЕ	-11.5906
▁СОХРАНЕНИЕ	-11.5906
▁ЕВРОПЕЙСКОЙ	-11.5906
▁ТЮРЬМУ	-11.5906
▁КЛОУН	-11.5906
▁ПРЕДШЕСТВУ	-11.5906
▁РАКОВИН	-11.5906
▁ДЖИМ	-11.5906
▁ПОДЕЛЮСЬ	-11.5906
▁СКАЗОЧНИК	-11.5906
▁ТАТЬЯН	-11.5906
▁ЭКСПОЗИЦИ	-11.5906
▁ДЕДЛАЙН	-11.5906
▁ИЗЛИШН	-11.5906
▁КОСМОЛОГИ	-11.5906
▁ЛАБОРАТОРИЮ	-11.5906
▁ПОРЯДОК	-11.5906
▁ПРОГУЛИВАЛ	-11.5906
▁ХОРЕОГРАФ	-11.5906
▁БАНТИК	-11.5906
▁НЕЙРОУЧНЫ	-11.5906
▁ОБЕЩАЮ	-11.5906
▁КОМИССИЯ	-11.5906
▁ЛИБЕТ	-11.5906
▁НЕХВАТК	-11.5906
▁СВИДАНИЯ	-11.5906
▁ВЫРАЩЕН	-11.5906
▁ПРИНЦИПИАЛЬНЫ	-11.5906
▁ЩИТ	-11.5906
▁МАНИПУЛИРОВАНИ	-11.5906
▁НДС	-11.5906
▁СЮННУ	-11.5906
▁ФИЧИ	-11.5906
▁ХАЛАТ	-11.5906
▁АЛТАР	-11.5906
▁БУРГЕРЫ	-11.5906
▁ВАСНЕЦОВ	-11.5906
▁КАЗНЬ	-11.5906
▁ВЫБРАСЫВАТЬ	-11.5906
▁ФОНЕТИК	-11.5906
▁ВЫЧИСЛИЛ	-11.5906
▁СКОПЛЕНИ	-11.5906
▁ЗАМКНУТЫ	-11.5906
▁МАТЕРЬЮ	-11.5906
▁ИННОВА	-11.5906
▁ВЕЖЛИВ	-11.5907
▁ЛАРЧИК	-11.5907
▁ПОЧЕРК	-11.5907
▁ПЛАВНО	-11.5907
▁БИГ	-11.5907
▁ФАЗА	-11.5907
▁ФУТБОЛИСТОМ	-11.5907
▁ЯГОДИЦ	-11.5907
▁ИЗБИРАТЕЛЯ	-11.5907
▁НЕЙРОСЕТ	-11.5907
▁РИСУЕТ	-11.5907
▁ЯРЧЕ	-11.5907
▁ВЗАИМОСВЯЗ	-11.5907
▁ВООБРАЖАЕМЫ	-11.5907
▁СТАРИНЫ	-11.5907
▁УЧЕНЫЙ	-11.5907
▁БИБЛИОТЕКЕ	-11.5907
1520	-11.5907
▁ЛЮДМИЛ	-11.5907
▁ЗАЯВК	-11.5907
▁ВЗАИМНО	-11.5907
▁ЖАЛОБ	-11.5907
▁ПАРНИКОВЫ	-11.5907
▁КОВБО	-11.5907
▁НАПРЯЖЕНИЯ	-11.5907
▁ИГРУШЕК	-11.5907
▁ИСПАРЯЕТСЯ	-11.5907
▁АЙФОН	-11.5907
▁АЛМАТИНСК	-11.5907
▁КОМПОЗИЦИЯ	-11.5907
▁ЗРЕЛО	-11.5907
▁ОПЕРЕЖА	-11.5907
▁КОЛОМН	-11.5907
▁ЛГКИЙ	-11.5907
▁МЕДАЛИ	-11.5907
▁ЗАМЕЧАТЕЛЬНЫМ	-11.5907
▁ВИНИТЬ	-11.5907
▁ЭВОЛЮЦИОННО	-11.5907
▁ВЕРНУСЬ	-11.5907
▁ГОРДОСТИ	-11.5907
▁ПРОЙДУТ	-11.5907
▁БАБОЧКИ	-11.5907
▁КОНТУР	-11.5907
▁НАПРАВЛЕНИЮ	-11.5907
▁МЛЕКОПИТАЮЩИЕ	-11.5907
▁СНИЗУ	-11.5907
▁УВОЛЕН	-11.5907
▁РУБЛЯ	-11.5907
▁СТОИМОСТИ	-11.5907
▁НАУШНИКИ	-11.5908
▁НАТУРАЛЬНОЕ	-11.5908
▁СЛОНОВ	-11.5908
▁ПРИКОСНОВЕНИ	-11.5908
▁ТРАФИК	-11.5908
▁ОТЦУ	-11.5908
▁УСЛОВНЫ	-11.5908
▁ЕЖЕДНЕВНИК	-11.5908
▁НОВОСТЕЙ	-11.5908
▁ТУМАННОСТЬ	-11.5908
▁КРЕПОСТЬ	-11.5908
▁АНКЕТ	-11.5908
▁ИСТИНЫ	-11.5908
▁МИША	-11.5908
РАВНЕ	-11.5908
▁АСТРОНОМИ	-11.5908
УШНИК	-11.5909
▁СОВЕСТЬ	-11.5909
▁ДНЮ	-11.5909
▁СПЕЦИФИЧЕСКО	-11.5909
▁ЧУДА	-11.5909
▁ОШИБКОЙ	-11.5909
▁ПОСЕЛЕНИ	-11.5909
ТИНКИ	-11.5909
▁ПОЯВИТЬСЯ	-11.5909
▁ЗАМЕЧАТЕЛЬНЫХ	-11.5909
▁ПОСАДИТЬ	-11.5909
▁СЛУЧАЮТСЯ	-11.5909
▁ПОЗИЦИЕЙ	-11.5909
▁КИРОВ	-11.5909
▁РОДНОМ	-11.5909
▁УБЕЖДЕНИЕ	-11.5909
▁ПОЙМАЕТ	-11.5909
▁2050	-11.5909
▁ПРИЛИЧНЫ	-11.5909
▁БЫТИЯ	-11.591
▁ПРЕПЯТСТВИЯ	-11.591
▁ОСОБЕННОСТЕЙ	-11.591
▁РЕЙС	-11.591
▁РАССЛАБЛЯТЬСЯ	-11.591
▁ПОДЧЕРКНУТЬ	-11.591
▁НЕОБЫЧНОЕ	-11.591
▁БОЛЬНИЦАХ	-11.591
ОЛКОВО	-11.591
▁ПРЕПОДАВАТЬ	-11.591
▁ВОСПИТАТЕЛЬНЫ	-11.591
▁УСТОЙЧИВОСТЬ	-11.591
▁ПОДСТРАИВАЕТСЯ	-11.591
▁СНИЖАЕТСЯ	-11.591
▁ЛАС	-11.5911
▁ТЯЖЕЛЕ	-11.5911
▁ЗАЯВИЛ	-11.5911
▁МЕНЬШИМ	-11.5911
▁ОСНОВАТЕЛЕ	-11.5911
▁ОСУЩЕСТВЛЕНИЯ	-11.5911
▁РАЗМНОЖЕНИЯ	-11.5911
▁ПОВТОРЮСЬ	-11.5911
▁ЛЕЗЕШЬ	-11.5911
▁КОМБИНАЦИ	-11.5911
▁ВОСЬМО	-11.5911
▁ВДОХНОВЕНИЯ	-11.5911
▁УГЛУБЛЯТЬСЯ	-11.5911
▁РАДИКАЛЬНЫ	-11.5911
▁НАПРЯЖЕНИЕ	-11.5912
▁МАРШРУТКЕ	-11.5912
▁ПЕРСОН	-11.5912
▁ЗАКОНОМЕРНОСТЬ	-11.5912
НУТЫЕ	-11.5912
▁СМЕЛОСТИ	-11.5912
УДОВЛЕТВОРННОСТИ	-11.5912
▁СЧИТЫВАЕМ	-11.5913
▁ПОКОЯ	-11.5913
▁НАЦИОНАЛЬНОСТЕЙ	-11.5913
▁САМООБ	-11.5913
▁ДВИЖУЩ	-11.5913
▁ДУХОВНОСТИ	-11.5913
▁ОПРОСНИК	-11.5913
▁СЕМРК	-11.5913
▁ВЗЯТЫХ	-11.5913
▁УГЛУБИ	-11.5913
▁ЦЕЛЯХ	-11.5913
▁РУКАВА	-11.5913
▁ПОЗВОЛЯЛ	-11.5914
▁ПОНРАВИЛАСЬ	-11.5914
▁ВИСЕЛ	-11.5914
▁МАРОК	-11.5914
▁РАССКАЖЕТ	-11.5914
▁ЯЙЦА	-11.5914
▁ЗАКОНЧАТ	-11.5914
СЕЛЯЮТ	-11.5914
▁ПРИКОСНУ	-11.5914
▁ОСОЗНАННОСТИ	-11.5914
▁ОБЪЕДИНЯТЬСЯ	-11.5915
▁ТРЕБОВАТЬ	-11.5915
▁ОБЛАСТЕЙ	-11.5915
▁РЕАЛИСТИЧНОСТЬ	-11.5915
▁ЗАБЫВАЮТ	-11.5915
▁ПРОТЕСТАНТИЗМ	-11.5915
▁ЛЕНИВО	-11.5915
▁ИДЕАЛАХ	-11.5915
▁СРЕДОВ	-11.5915
▁ЦЕНЯТ	-11.5915
▁БОЛЕН	-11.5916
▁ПРОБЕЖАТЬ	-11.5916
▁ДОСТИГНУТЬ	-11.5916
▁СОМНЕВАТЬСЯ	-11.5916
▁МАТЕРЕЙ	-11.5916
▁УНИКАЛЬНОСТЬ	-11.5916
▁МЕТ	-11.5916
▁КИНОИНДУСТРИИ	-11.5916
▁СИДЯЩИ	-11.5917
▁НЕИЗМЕНН	-11.5917
▁РЕАЛИЗАЦИЮ	-11.5917
БАЕВ	-11.5917
▁ДОВЕРИТЕЛЬНЫ	-11.5917
▁РАССМОТРЕТЬ	-11.5917
▁ХОРОНИТЬ	-11.5917
▁ПУЛЬТ	-11.5917
▁ОТКРЫТОСТЬ	-11.5917
▁НАПРАВЛЕНИЙ	-11.5918
▁ПРАКТИКОВАТЬ	-11.5918
▁ЧУДЕСНАЯ	-11.5918
▁ЖАЛЕЮТ	-11.5918
▁ГРИППА	-11.5918
▁МАТРИЦА	-11.5918
▁ОЖИДАНИЕ	-11.5918
▁АДМИНИСТРАЦИИ	-11.5918
▁ПЛАКАЛИ	-11.5918
▁ПОЗВОНИТ	-11.5919
▁СТУДИИ	-11.5919
▁ПЕРЕРАБОТАТЬ	-11.5919
▁ПРЕДПРИЯТИИ	-11.5919
▁ПУТЕШЕСТВИИ	-11.5919
▁МЕДЛИ	-11.5919
▁ЧЬЕЙ	-11.5919
▁ОЖИДАЕМ	-11.5919
ТИТУ	-11.592
▁СТРАТЕГИЧЕСКИ	-11.592
▁АККУРАТНО	-11.592
▁ЗАПРЕЩЕНО	-11.592
▁ОРИГИНАЛЬН	-11.592
▁КНОПОЧК	-11.592
▁СОГЛАШЕНИ	-11.592
▁ПЕК	-11.592
▁АПЛОДИСМЕНТЫ	-11.592
▁КОНТРОЛЛЕРЫ	-11.592
▁РЫНКИ	-11.592
▁УМЕРЛО	-11.5921
▁НАИВНО	-11.5921
ЗЕЛЕН	-11.5922
▁БЕССОЗНАТЕЛЬНО	-11.5922
▁РАЗВЛЕЧЕНИЙ	-11.5922
▁ОБСУДИТЬ	-11.5923
▁ИНВЕСТИРОВАТЬ	-11.5923
▁ЗАДНЕ	-11.5923
▁ПРОПАГАНДИСТ	-11.5923
▁ПУТЕШЕСТВИЙ	-11.5923
▁МОЛЧАТ	-11.5924
▁ГРОМКИ	-11.5924
▁АНТЕННОЙ	-11.5924
▁ПУГАТЬ	-11.5924
ОДНОК	-11.5924
▁СТАНДАРТНАЯ	-11.5924
▁НАБЛЮДАЮТСЯ	-11.5924
▁НЕМИНУЕМО	-11.5925
▁ЛД	-11.5925
▁ВЫБРАСЫВАЕТСЯ	-11.5925
▁КИНОКРИТИК	-11.5926
▁КНИЖКЕ	-11.5926
▁МЕССЕДЖ	-11.5926
▁СУВЕРЕНИТЕТ	-11.5926
▁ТРХМЕРНО	-11.5926
▁КЛИРИК	-11.5926
▁БОЯЗН	-11.5926
▁СКОТОВОД	-11.5926
▁УБИЙЦ	-11.5926
▁ПРИДУМЫВАЕТ	-11.5926
▁НЕСЧАСТЛИВЫ	-11.5926
▁КАРТИНОК	-11.5926
▁ПОДОЙДТ	-11.5927
▁ЖИВЫМ	-11.5927
▁ПОСТУЛАТ	-11.5927
▁РАСПРЕДЕЛЕНИ	-11.5927
▁ПЯТНАДЦАТ	-11.5928
ПАДУТ	-11.5928
▁ПЕРЕДВИЖЕНИЯ	-11.5928
▁ЗАДУМЫВАЯСЬ	-11.5928
▁РИСКНУЛ	-11.5928
▁СТАБИЛЬНАЯ	-11.5929
▁ДЕЙСТВОВАЛ	-11.5929
▁ОТЧЕГО	-11.5929
▁КСЕНИ	-11.5929
▁ОТЗЫВЧИВЫ	-11.5929
▁СЕСТРОЙ	-11.5929
▁УСНУЛ	-11.5929
▁ПЛАКАТЫ	-11.593
▁ХРАБРОСТИ	-11.593
▁ПУСТОТЫ	-11.593
▁ВОСТРЕБОВАНЫ	-11.593
▁ВПЕЧАТЛЕНИЯМИ	-11.593
▁МОБИЛЬНИК	-11.593
▁СЕГОДНЯШНЕМ	-11.593
▁ВЛИЯНИЯ	-11.593
▁КОМИКС	-11.593
▁РУБЕЖОМ	-11.5931
СЛОВНО	-11.5931
▁ОСВОИТЬ	-11.5931
▁ГРУДЬЮ	-11.5931
▁НАСЕКОМЫХ	-11.5931
▁ОТКРЫТИЮ	-11.5932
▁СЛУЧАЙНОСТИ	-11.5932
▁СОМНЕНИЮ	-11.5932
▁ФИНАНСОВАЯ	-11.5932
▁ПАШЕТ	-11.5933
▁ЛИТЕРАТУРЫ	-11.5933
▁ПУЛЬСАРОВ	-11.5933
▁ЮРИСТОМ	-11.5933
▁АВТОМАТИЗАЦИ	-11.5933
▁ЗУБОВ	-11.5933
▁ВЫЖИВАНИЕ	-11.5934
▁ТЕРПЕНИЕ	-11.5934
▁ЗАГАДКА	-11.5934
▁ЛИДЕРСТВО	-11.5934
▁ФИРМЫ	-11.5934
▁РАЗДЕЛИМ	-11.5934
▁НЕЧЕМ	-11.5935
▁УДАЛННО	-11.5935
▁БЕЛЬ	-11.5935
▁СОБИРАЛИСЬ	-11.5935
▁ТРАДИЦИЯ	-11.5936
▁СТУДЕНТА	-11.5936
▁НАНОПРОДУКТ	-11.5936
▁НАУЧИЛА	-11.5936
▁УСТРАИВАЛО	-11.5936
▁ОДИНОЧЕСТВО	-11.5936
▁ВИДЕОКОНТЕНТ	-11.5937
ДАЧИ	-11.5937
▁ЗВОНАРЕЙ	-11.5937
▁НАДПИСЬЮ	-11.5938
▁СТЫДА	-11.5938
▁ПРОДАЮТ	-11.5938
▁ТОМСК	-11.5938
▁ПОЛИТОЛОГ	-11.5938
▁ЛОГИКА	-11.5939
▁ЛЕСТНИЦА	-11.5939
▁ЗАВОДАХ	-11.5939
▁ЖАБ	-11.5939
▁ИЗОБРАЖАТЬ	-11.5939
▁КРЕДИТЫ	-11.5939
▁ГНОМИКИ	-11.5939
▁ПОМОГИТЕ	-11.5939
▁БИБЛИИ	-11.5939
▁МОЛЧАЛИВ	-11.5939
▁ВОСТОКА	-11.5939
▁КОЛЛЕГАМ	-11.5939
▁КУРТКУ	-11.5939
▁ИЗГОТОВЛЕНИ	-11.594
▁ПРОЛЕТА	-11.594
▁СОБИРАЕМСЯ	-11.5941
▁СТАРУШКУ	-11.5941
▁ВОЛЕ	-11.5941
▁СХЕМУ	-11.5941
▁АКТИВНОСТИ	-11.5942
▁ОБУЧАТЬСЯ	-11.5943
▁ТРАНСЛЯЦИЮ	-11.5943
▁ОСОЗНАВАТЬ	-11.5943
▁ГРОМКОГО	-11.5943
▁СТИМ	-11.5944
ПОЛНЯЕТСЯ	-11.5944
▁КЛАССИФИЦИРОВА	-11.5945
▁ПОДАВЛЯЮЩЕ	-11.5945
▁ЗАЩИТОЙ	-11.5945
▁ГОРКА	-11.5946
▁УБЕЖАТЬ	-11.5946
▁АМЕРИКАНЦЫ	-11.5946
▁ЗАПОМИНАЮТ	-11.5946
▁КОМПЬЮТЕРЕ	-11.5946
▁МАССАЖ	-11.5946
▁ПОВЫШАЕТСЯ	-11.5947
▁СВАЛК	-11.5947
▁КОМПОЗИТОРОМ	-11.5947
▁ЧУДЕСА	-11.5948
▁ТОРГОВЛЕ	-11.5948
▁ПРИВЕЗЛИ	-11.5948
▁ИНДЕЙЦЫ	-11.5948
▁РЕДАКТОРЫ	-11.5948
▁ПОПРОБУЙ	-11.5948
▁АНСАМБЛЯ	-11.5948
▁ПЕРЕЖИВАЮТ	-11.5948
▁СДАТЬСЯ	-11.5949
▁ФАНТАЗР	-11.5949
▁НАГЛЯДНО	-11.5949
▁ОПИСЫВАЕТ	-11.5949
▁ОБНАРУЖИТЬ	-11.5949
▁НАЗАР	-11.595
▁БОРО	-11.595
▁СХЕМЫ	-11.595
▁ПЛАНКУ	-11.595
▁ВЛАДЕЕТ	-11.595
▁ВЫСТУПАЮЩИ	-11.5951
▁ПРИЛОЖЕНИЙ	-11.5951
ПУСКАЕТ	-11.5951
▁ХОЗЯЙСТВЕНН	-11.5951
▁ИЗМЕНИЛО	-11.5951
▁ПЛАНАХ	-11.5952
МАТ	-11.5952
▁ИСПОЛЬЗОВАЛСЯ	-11.5952
▁ВНУКОВ	-11.5952
РЕГУЛИРУЕТСЯ	-11.5952
▁ВЕЧЕРНИ	-11.5952
▁СТАРТАПОВ	-11.5953
▁МАГИСТРАТУРУ	-11.5953
▁КАРТОШКУ	-11.5953
▁АГЕНТСТВО	-11.5953
▁ПОЗОВИ	-11.5954
▁ПРИВЛ	-11.5954
▁АКТРОВ	-11.5954
▁НАРУШАТЬ	-11.5955
▁ВЫДЕЛИТЬСЯ	-11.5955
▁МЕДИК	-11.5956
▁ТРЕНИРОВАТЬСЯ	-11.5956
ПЕЧЕНИ	-11.5957
▁ДИНОЗАВРЫ	-11.5958
▁СТИЛИ	-11.5958
▁ЧЕРВЯК	-11.5958
▁УБИВАТЬ	-11.5958
▁РЕСПУБЛИКИ	-11.5959
▁ИНФАРКТА	-11.5959
▁СЛЕДУЮЩУЮ	-11.596
▁ВЫГОД	-11.596
▁ПАУЗА	-11.596
▁МНОЖЕСТВА	-11.5961
▁ГРАФИНИ	-11.5961
▁АВСТРАЛИИ	-11.5961
▁ФИЗИОЛОГИИ	-11.5961
▁ЗНАЧИМЫМ	-11.5961
▁ОБЕЗЬЯНА	-11.5961
▁ХУТОРА	-11.5962
▁ЖУРНАЛОВ	-11.5962
▁БРЮ	-11.5963
▁ЗЕРКАЛА	-11.5964
▁ПЛАСТИКОВЫ	-11.5964
▁ПОСАДИЛ	-11.5964
▁КРОССОВК	-11.5964
▁ОТДЫХАЕТ	-11.5964
▁МЫСЛЯХ	-11.5964
▁РОССИЯН	-11.5965
▁БОЛЕЛ	-11.5966
▁ПАРАМЕТРЫ	-11.5966
▁КАПУСТУ	-11.5966
▁СТАРАЛИСЬ	-11.5967
ЕЛАНД	-11.5968
▁ПЕРЕВАРИВА	-11.5968
▁СИМВОЛОМ	-11.5969
▁ПРОГНОЗЫ	-11.5969
▁ИЗБИЛ	-11.5969
▁ПЕРСОНАЛОМ	-11.5969
▁ЧТЕНИЯ	-11.5969
▁ГЛУПЫ	-11.5969
▁ХВАТИЛО	-11.597
▁УСТРОЙСТВАМИ	-11.597
▁УВЕЛИЧИВАТЬ	-11.597
▁МАССЫ	-11.597
▁ЭКСТРЕМАЛЬНЫ	-11.597
▁ЗАКРОЙ	-11.597
▁КЛИК	-11.5971
СЛЕДУЮТ	-11.5971
▁ЧИСТИТЬ	-11.5972
▁КРАЮ	-11.5972
▁БИЗНЕСПРОЦЕСС	-11.5972
▁ДАНЬ	-11.5972
▁ПОЛЗА	-11.5973
▁ДЫМ	-11.5973
КЛАДЫВАЮТСЯ	-11.5974
▁БРЕНДОМ	-11.5974
▁ПОСТУПАТЬ	-11.5975
▁ОЧЕВИДНА	-11.5975
▁БРОВ	-11.5976
▁БЕЛОРУССКИ	-11.5976
▁АЛЬБОМЫ	-11.5976
▁ПРИЕЗЖАТЬ	-11.5976
▁ВЫДЕРЖАТЬ	-11.5977
▁ГАЗЕТЫ	-11.5977
▁БЕРЕМЕННА	-11.5977
▁ТЕАТРАЛЬН	-11.5978
▁УДАЧИ	-11.5979
▁ОТКРОЕ	-11.5979
▁ЛИДЕРАМИ	-11.5979
▁НАПРЯГАТЬ	-11.598
▁ЖЛТЫЙ	-11.598
▁УЛЫБКА	-11.598
▁СДАЛАСЬ	-11.598
▁НЕИЗВЕСТНОСТЬ	-11.5981
▁РОДНЫМ	-11.5981
▁КРЕСЛА	-11.5981
▁НАЗВАНА	-11.5982
▁ИМПРИНТИНГЕ	-11.5982
▁ИНВЕСТИЦИИ	-11.5982
НИЖАЮТ	-11.5982
▁ВОЛОНТРЫ	-11.5982
▁ВЕЛИЧАЙШИ	-11.5982
▁УБИВАЕТ	-11.5983
▁ПОСТАВИМ	-11.5983
▁МАТЕРИАЛОМ	-11.5983
▁ВЫРАЖЕНИЯ	-11.5984
▁ПОЛКА	-11.5984
▁ЛЕГЛ	-11.5984
▁ПРОИСХОДИЛИ	-11.5984
▁ПЕЛ	-11.5984
▁ТОЛОКИ	-11.5984
▁КЛЕТКАМИ	-11.5984
▁СОСЕДЯМИ	-11.5985
▁ПРИОРИТЕТЫ	-11.5986
▁ФАНТАЗИЙ	-11.5986
▁СПЕШ	-11.5986
▁ЧЕЛОВЕЧЕСКОМ	-11.5986
▁ГОСТЬ	-11.5986
▁РАСТЕНИЯ	-11.5987
▁ПЛАНЕТОЙ	-11.5988
▁ПОКУПАЛИ	-11.5989
▁ГОГОЛ	-11.5989
▁ДЛИТЕЛЬНЫЙ	-11.599
▁ДУБОВ	-11.5991
▁ПОЛЕЗНЫХ	-11.5991
▁СТУДЕНТАМИ	-11.5992
▁ЛЬДОМ	-11.5993
▁СОЕДИНЕН	-11.5993
▁ПЕЧАТЬЮ	-11.5993
▁ГОРАХ	-11.5995
▁БЕССМЫСЛЕННЫ	-11.5996
▁ИЗНАСИЛОВАНИЯ	-11.5996
▁БОРИС	-11.5996
▁МИЛЛЕНИУМОВ	-11.5997
▁ПЕДАГОГИЧЕСК	-11.5997
▁САЛОН	-11.5998
▁УДЕРЖАТЬ	-11.5999
▁ВОССТАНОВИТЬСЯ	-11.5999
▁НАПРАВЛЕНО	-11.6
▁ПРОФЕССИОНАЛОВ	-11.6001
▁ПРЕТЕНЗИИ	-11.6003
▁БИРЖЕ	-11.6003
▁ПЕРЕВОДЧИКА	-11.6003
▁ВЕБ	-11.6003
▁ИНТЕРПРЕТАЦИИ	-11.6004
▁МИЛЛИОНЕР	-11.6005
▁ОСОЗНАННОСТЬ	-11.6005
ПИСЫВА	-11.6006
▁РЕЦЕПТОВ	-11.6006
КОНЫ	-11.6006
▁ПОДЧИНЕНИ	-11.6006
ЭРРО	-11.6007
АРДО	-11.6008
▁ТЕКУЩЕ	-11.6008
▁ПРОВОДА	-11.6008
▁ДОВЕРЯЕ	-11.6009
▁РЯДА	-11.601
▁МЕТОДОЛОГИ	-11.6011
▁ОТВЕЧАЛИ	-11.6011
▁ОБВИНЯ	-11.6011
▁ПРИМЕТ	-11.6013
▁СТЕПЬ	-11.6014
▁ПРОИЗВЕДЕНИЙ	-11.6014
▁РЕКОМЕНДАЦИЯМ	-11.6015
ГРЕБ	-11.6015
▁ХУДЕЮЩИХ	-11.6015
▁ЧИТАТЕЛЮ	-11.6015
▁ОТКРЫТИЙ	-11.6015
▁БАТ	-11.6016
▁ВТОРИЧН	-11.6016
▁КОМПЛЕКСОВ	-11.6017
▁ПЕРЕНОС	-11.6018
▁КВАДРАТИЧН	-11.6019
▁СЖЕЧЬ	-11.6019
▁ДЕРЖИ	-11.6019
▁РАЗУМОМ	-11.602
▁НОМЕРАМИ	-11.6021
БРОСИТЬ	-11.6021
▁ВЫПОЛНИТЬ	-11.6021
▁НАРУША	-11.6021
ТИНА	-11.6022
▁КАЧЕСТВАМИ	-11.6023
▁УГЛЕРОДА	-11.6023
▁ШТАТЫ	-11.6024
▁МОЛОКОМ	-11.6024
▁СОБИРАЮ	-11.6024
▁ГАЛАКТИКИ	-11.6025
▁РУБАШКИ	-11.6026
▁КУРТКЕ	-11.6026
▁ПОВЕСИ	-11.6026
▁БРАТОМ	-11.6026
▁ПРЕЛ	-11.6026
▁НАМЕРЕН	-11.6026
▁ВЫЧИСЛЯЕТ	-11.6028
▁ЖУРНАЛИСТИК	-11.6029
▁УЧИТЕЛЬНИЦ	-11.6029
▁ПРОТЕСТА	-11.6031
▁ПЕРУ	-11.6031
▁ЗАГЛУШ	-11.6032
▁НАПИСАННО	-11.6032
▁СОБЫТИЯМИ	-11.6035
▁ПОТРЕБИТЕЛЬСКО	-11.6036
▁ЛИТИ	-11.6039
ЭКС	-11.6039
▁НАСИЛЬНИКА	-11.6039
▁ТОЧЕК	-11.604
▁ОКОНЧАТЕЛЬНО	-11.604
▁РУЧКУ	-11.604
СТАНОВЛЕНИЯ	-11.6041
▁ПРОХОЖУ	-11.6041
▁ПОГРУЖЕНИ	-11.6042
▁СЛУЖИЛ	-11.6043
▁ВЛАСТЬЮ	-11.6043
▁МОТИВАЦИОННЫ	-11.6043
▁ПОСТУПАЮТ	-11.6045
▁ПЕРЕЖИВАЛИ	-11.6045
▁ПОГОДА	-11.6047
▁ВНИЗУ	-11.6047
▁ИМПЕРИИ	-11.6047
▁КОНТЕКСТА	-11.6047
▁ПРИМИТ	-11.6048
▁ФЕЙСБУКА	-11.6048
▁ЧИНОВНИКИ	-11.6048
▁РАЗРАБОТКИ	-11.6049
▁ПРОЯВЛЕНИЯ	-11.605
ОПЕРИРОВАТЬ	-11.6051
▁ПЕЧК	-11.6052
▁КОМПЬЮТЕРАМИ	-11.6053
▁ИНКЛЮЗИВНО	-11.6055
▁ОТКАЗАЛАСЬ	-11.6055
▁СТЕК	-11.6056
▁МУЖЧИНОЙ	-11.6056
▁ПЛЮ	-11.6056
▁БЛИЗКОГО	-11.6057
▁ЯБЛОКО	-11.6058
▁РУБ	-11.6058
▁ПРОПАЛА	-11.6059
▁ПИСАТЕЛЕ	-11.6059
▁КРЕСТ	-11.6061
▁ПОКАЗА	-11.6064
▁АКТИВИЗМА	-11.6065
▁МРТВЫЕ	-11.6065
▁ОСОБЕННЫЙ	-11.6066
▁СФЕРАХ	-11.6067
▁УБРАЛИ	-11.6067
▁ВАСИЛИ	-11.6069
▁ПРЕССЫ	-11.6071
ДНЫЕ	-11.6072
▁ХРАНЯТ	-11.6072
▁КОРОБОЧКА	-11.6078
▁ТКАНЬЮ	-11.6078
▁ОПРАВДАНИ	-11.608
▁ТОЛОКА	-11.6081
▁ПОЛТА	-11.6081
▁РОСТОВ	-11.6082
▁УЧЕНИЕ	-11.6084
▁ТРУДНЫ	-11.6084
▁ЦЕННЫЙ	-11.6084
▁СУЩЕСТВОВАЛА	-11.6086
▁ЛИЧНОСТЬЮ	-11.6087
▁ОБРАБАТЫВА	-11.609
▁ВЕДТСЯ	-11.609
▁ГРАМОТНО	-11.6091
▁УЮТНЫ	-11.6091
▁БЛЕСТЯЩИ	-11.6091
▁МИССИИ	-11.6091
▁АВТОРОВ	-11.6093
▁ПИЛИ	-11.6093
▁ЗАИНТЕРЕСОВАЛО	-11.6093
▁ТЯНУ	-11.6093
РЫНКОВ	-11.6094
▁ДВУЯЗЫЧНЫ	-11.6096
▁КРЕПКИ	-11.6096
▁НЕСТАНДАРТНЫЙ	-11.6096
▁БЕЗГРАНИЧНЫ	-11.6096
▁ДЕВУШКАМИ	-11.6098
▁БЕДА	-11.6101
▁ТОСКА	-11.6103
РУС	-11.6104
▁УСПЕХОМ	-11.6104
▁ПРОГУЛ	-11.6104
▁АРХЕОЛОГИЧЕСКИ	-11.6106
▁ИСКУССТВОВЕД	-11.611
ШЕСТВ	-11.6111
▁ПОЗЫ	-11.6114
▁КИНОКОМПАНИ	-11.6118
▁СТАРШИЙ	-11.6118
СТРАИВАТЬСЯ	-11.6119
▁ФИН	-11.612
▁ДЯДЯ	-11.6121
▁ВАЖНОСТИ	-11.6122
▁ЧАН	-11.6122
▁ЮРТ	-11.6122
▁БОБРОВ	-11.6123
▁ХОР	-11.6123
▁СЛУЖА	-11.6124
▁ЖЕЛАНИЙ	-11.6125
ОБЯЗАТЕЛЬНЫЙ	-11.6126
▁УСЛУГУ	-11.6126
▁ТЕКСТОМ	-11.6126
▁НОРМАЛЬНЫХ	-11.6126
▁МОЛИТВА	-11.6126
▁ЗАВЕДЕНИЯ	-11.6127
▁ТАКОВОЙ	-11.6128
ВШ	-11.6128
▁ЛИТЕРАТУРНЫ	-11.6129
▁ТРОКАРА	-11.6131
▁УПРАЖНЕНИЕ	-11.6132
▁ВНЕШНОСТ	-11.6133
▁ФИГУРА	-11.6134
▁ЦЕННОЕ	-11.6134
▁ПОЛИЦИИ	-11.6135
▁ЖАЖДА	-11.6136
▁КОНЦЕРТЫ	-11.6137
▁ЗАКАЗАЛ	-11.6137
▁АРКА	-11.6138
▁АНАЛИЗА	-11.6139
▁ПОДНИМАТЬ	-11.614
▁ГОЛОДА	-11.614
▁СОЛНЕЧН	-11.614
▁ДЕЛИТЬ	-11.6141
▁СРЕЗ	-11.6142
▁ОСОЗНАМ	-11.6143
▁ПЕРСПЕКТИВА	-11.6146
ЗНАНИЮ	-11.6146
▁ОЖИДАЛИ	-11.6147
РЕМЕН	-11.6148
▁ПРОСТЫМИ	-11.6149
▁ТЕКУЩЕМ	-11.6149
▁ЛГ	-11.6149
▁БОЛЬНЫМ	-11.6149
▁МАЛЬЧИКОМ	-11.6149
САД	-11.6149
▁СМАРТФОНЫ	-11.6151
▁ЗАНЯТИЯХ	-11.6151
▁ВОПРОСУ	-11.6153
▁ВОЙНЕ	-11.6154
▁ПОСЛУШНЫ	-11.6154
▁СОСЕДА	-11.6156
▁ЛЕКЦИЙ	-11.6159
▁ПОРЯДОЧН	-11.616
▁ИНСТИТУТЫ	-11.616
ВЯЗЫВАЮТ	-11.6161
▁ДУХОВ	-11.6163
▁ПОСЕЩАЛ	-11.6169
▁СТОИТЬ	-11.6169
▁ЛЕТАЮТ	-11.6169
▁ВЕЛИЧИ	-11.617
▁УМН	-11.6171
▁НЕИЗВЕСТНЫМ	-11.6173
▁САЙТЫ	-11.6174
▁ХУЛИГАНА	-11.6175
▁ЭЛЕКТРОНИКА	-11.6176
▁АДЕКВАТНЫ	-11.6177
▁ПРЕДОСТАВЛЯЕТ	-11.6177
▁ДЕРЖИТЕ	-11.6177
▁СЛАЙДЫ	-11.6178
▁ВСЕОБЩЕ	-11.6179
АНТА	-11.6179
▁КРАСИТЬ	-11.618
▁ПЕРЕСАДКА	-11.618
▁ВСКАРМЛИВАНИЕ	-11.618
▁ЯРКИМ	-11.6181
▁ЗАКВАСКЕ	-11.6181
БИРАЛИ	-11.6183
▁СЛОВЕ	-11.6188
▁МЫСЛЕННО	-11.6192
▁СЕЗОНЕ	-11.6193
▁УЧЕНИКА	-11.6193
▁ПОЛНОМ	-11.6195
▁МАТ	-11.6195
▁АЛЕКСАНДРА	-11.6196
▁СТРОЕНИЕ	-11.6196
▁ЗАВЛ	-11.6197
▁ПРЕСТУПНО	-11.6199
ИДЕНТИФИЦИРОВАТЬ	-11.6199
СЕЙ	-11.6203
▁ВЫПОЛНИЛ	-11.6204
▁ЖИВОТНЫМИ	-11.6205
▁ЗРИТЕЛЯМ	-11.6205
▁ПОСТУЧА	-11.621
▁ИСПЫТЫВАЛ	-11.6215
▁ПОКАЗАЛА	-11.6215
▁ОТОШЛ	-11.6216
▁ИЗМЕНЯЛ	-11.6219
▁ОФ	-11.6221
▁ОБРЫВК	-11.6223
▁ЗДРАВЫ	-11.6223
▁СРАВНЕНИИ	-11.6225
▁ТОРЖЕСТВЕНН	-11.6225
▁СМЫСЛОМ	-11.6228
▁ПОЖИЛЫ	-11.623
▁ОПРЕДЕЛЕНИЕ	-11.623
▁ПРИНТЕРЕ	-11.623
ЯЩИМ	-11.6232
ДАЕТ	-11.6232
▁ПРОВЕРЯЮ	-11.6233
▁РАССМАТРИВАЕ	-11.6241
▁ИНДУСТРИАЛЬН	-11.6243
▁ЗАПАХИ	-11.6246
▁ПОЛИТИКА	-11.6248
▁ОБОЗНАЧИ	-11.625
▁ВЕРНА	-11.6255
▁НОВОСТНЫ	-11.6259
▁ДАЛО	-11.6262
▁ПЕРЕДАЧ	-11.6262
▁ПЕРЕСТАНЕ	-11.6263
ВЕРЬТЕ	-11.6264
▁МЕДНЫ	-11.6264
▁РАЗГОВОРЫ	-11.6264
▁ПУБЛИЧН	-11.6266
▁РИСКУ	-11.6267
▁РЕАЛИЗУЮТ	-11.6268
▁ПРОЦЕССАХ	-11.627
▁ЗЕЛНЫ	-11.6276
▁НЕРЕАЛЬНЫ	-11.6276
МОРФ	-11.6277
СКАЗАННО	-11.6277
▁КОРПОРАТИВНЫ	-11.6277
▁ЗВАТЬ	-11.6278
ГРУ	-11.6287
▁ВЫПОЛНЯЮТ	-11.6287
▁ДАННЫМИ	-11.6289
ВООРУЖННЫМ	-11.6296
▁БОНУС	-11.6297
▁СОГ	-11.6304
▁ЦИКЛА	-11.6305
▁ПРИЗНАКАМ	-11.6306
▁ДОКУМЕНТАЛЬНЫ	-11.6311
▁АЗАРТНЫ	-11.6311
▁КЛЕТЧАТЫ	-11.6312
ВНЫЙ	-11.632
▁ЗЕРНО	-11.6321
▁КРУП	-11.6326
▁ТЕРМЕНА	-11.6327
▁СТАБИЛЬНЫ	-11.6329
▁ВЕКАМИ	-11.633
▁ИЗОБРЕТАТЕЛЬ	-11.6334
▁СОЦИАЛЬНЫМИ	-11.6334
▁НАЖАТИЕ	-11.6336
▁СПИСКА	-11.6338
▁ПЛАНИРУЕ	-11.6338
СТАЛ	-11.6339
▁ПОЧТА	-11.6342
ЧНОМ	-11.6345
▁СОЗНАНИЕМ	-11.6346
▁ГАЛО	-11.6349
МИНИСТРА	-11.6353
▁ХВАТАЛ	-11.6355
ВЛЕКАЕТСЯ	-11.6356
▁ПОВРЕЖД	-11.6359
▁ПОЛНОЦЕННЫ	-11.636
▁КРУГА	-11.6362
▁РАБОЧЕЙ	-11.6363
▁ИРРАЦИОНАЛЬНЫ	-11.6368
▁ИСТИННЫМ	-11.637
▁ОТВЕЧАЛ	-11.6375
ВАЛИЛСЯ	-11.6377
▁СОЛНЦЕМ	-11.6378
▁БРОСАЮТ	-11.6379
ИЛЬ	-11.638
▁ПАРТ	-11.6381
▁ИНТЕРНЕТОМ	-11.6385
▁ГУГЛЕ	-11.6385
▁ДОСТИГАТЬ	-11.6386
▁ЧЕР	-11.639
▁ПОЛИТИКЕ	-11.639
▁ПУТЕШЕСТВУЮ	-11.639
▁СПЕКТАКЛЕ	-11.6391
▁ЖИТЕЛЬ	-11.6391
▁ПРОЦЕНТА	-11.6392
▁СТУДЕНЧЕСКИ	-11.6394
НУЛА	-11.6398
▁ЖИ	-11.6401
ЯГА	-11.6403
▁СВЯТЫ	-11.6406
▁АМЕРИКАНЦ	-11.6407
▁КОНФЛИКТА	-11.6408
▁СТРОЧКА	-11.6409
ЛЕГ	-11.642
▁СПИТ	-11.6428
▁ВЫХОДИЛ	-11.6435
▁КОНЧА	-11.6438
СЛУГА	-11.6439
▁САЙТА	-11.6442
▁ПРОПАГАНДИРУ	-11.6447
▁ПРИВОДИ	-11.6448
▁ЗАБИРА	-11.6449
▁САЛА	-11.645
▁СТРАНАМ	-11.6456
▁СКРОМНО	-11.6456
▁КРИЗИСА	-11.6461
▁ОФИЦИАЛЬНЫ	-11.6462
▁РАСЧТА	-11.6463
▁КРУТИТ	-11.6475
ПОЗДН	-11.6475
▁ТРАКТОВА	-11.6477
▁ТАЗ	-11.6478
▁ООН	-11.6482
▁ЮР	-11.6484
▁РЕЗУЛЬТАТОВ	-11.6486
ГИЛ	-11.6487
▁УКРАИНСК	-11.6487
ОЛТ	-11.6488
▁АРХИТЕКТУРНЫ	-11.6494
▁ДЖЕК	-11.6501
▁ШИРОКОЕ	-11.6506
▁ЗАКАЗЫВАЛ	-11.6506
ДАСТ	-11.6508
▁ПРЕДСТАВИТЕЛЯ	-11.6509
▁МЫШЛЕНИЕМ	-11.6511
▁МАСШТАБНО	-11.6514
▁ПОДОБИ	-11.6522
▁ИЗМЕНЯ	-11.6528
▁ПОПУЛЯРНЫЕ	-11.6528
▁ОЧЕВИДНЫ	-11.6528
▁СЧАСТЛИВО	-11.6529
▁ПРИЗНАЛ	-11.653
▁КАПЛ	-11.6533
▁ВОЕННО	-11.6533
▁ШИРОКОМ	-11.6533
ЭЙ	-11.6534
▁ПОДАВЛЯ	-11.6539
УРА	-11.6542
▁РОДЕ	-11.6544
▁РЕГИОНЕ	-11.6552
▁УДАЧН	-11.6552
▁ДЕРЕВЕНСК	-11.6554
ЧЕСКОЙ	-11.6561
СИТИ	-11.6561
▁ОПЛАЧЕН	-11.6563
▁МРТВЫМ	-11.6574
▁УРОКЕ	-11.6574
▁ЭФФЕКТА	-11.6576
▁ПЛЕМЕНА	-11.6576
▁ДЕЛИМ	-11.6578
СТАВАТЬ	-11.6583
МЕТКИ	-11.659
▁НАИМЕН	-11.6591
▁ТАЛЛИНСКИ	-11.6594
▁ПРЕДЛОЖИЛА	-11.6594
▁МОТОРНЫ	-11.6594
▁БАНКОВСКИ	-11.6597
▁ПЕРЕМЕНА	-11.6603
▁ВОСПИТЫВАЕМ	-11.6604
▁ФУ	-11.6614
▁ГЕРОИН	-11.6616
▁ДВИГАЮТ	-11.6618
▁ЭМОЦИОНАЛЬН	-11.6623
ПРАВИЛАСЬ	-11.6624
▁ХМ	-11.6625
▁ПРИВОЗИЛ	-11.6628
▁ОРГАНИЗОВАН	-11.663
ВЛЕЧЕНИЕ	-11.6631
▁БОЖЕСТВЕНН	-11.6633
ЕВИЧ	-11.6633
▁ЗАДУМАЛИ	-11.6635
▁ПОЕЗДК	-11.6637
▁СПОРИТ	-11.6643
▁ЗАПРЕЩАЮ	-11.6646
КАЖЕТСЯ	-11.6646
ПРАШИВАЕТ	-11.6656
▁ПЕРЕЧИСЛ	-11.6656
АРКА	-11.6657
▁ОБЛАКА	-11.6677
ВНО	-11.6677
▁ХУЛИГАН	-11.6678
ФОТОГРАФИРОВАЛ	-11.668
▁РАЙОНА	-11.6686
▁ВОИНА	-11.6691
АЗИ	-11.6705
▁НАУЧНЫМ	-11.6705
▁КАМНЕ	-11.6707
▁ДАЛЬНЕЙШ	-11.6711
▁ИЗДАЛ	-11.6717
▁ОБЪМЕ	-11.6717
▁ДЫРК	-11.6726
▁СДЕЛАННЫ	-11.6727
▁ЗАКРЫВА	-11.6733
▁ПРОПИС	-11.6738
▁УВАЖАЮ	-11.6742
▁ОТОРВАТЬ	-11.6742
▁ПОВЕРНУЛ	-11.6743
ДАЛСЯ	-11.6745
▁САКРАЛЬНЫМ	-11.6746
▁СУЩЕСТВУЮЩИМ	-11.6749
▁ПРОСТА	-11.675
▁АНСАМБЛЕ	-11.6754
▁ОТДЕЛЕ	-11.6757
▁ВСЯЧЕСК	-11.6767
▁ЗАРАЖАЮТ	-11.6767
▁СЛАВЯНСК	-11.6769
▁ШП	-11.677
АЧ	-11.678
ВШЕЙ	-11.6788
▁ПРЕИМУЩЕСТВО	-11.6789
КАЗЫВАЕТ	-11.6789
▁ГОСУДАРСТВЕННЫМ	-11.679
▁РЕБЯТАМ	-11.6792
▁УБЕЖАЛ	-11.6794
УЧИТЬСЯ	-11.6808
▁СЕКЦИ	-11.6808
▁ДРЕВН	-11.6817
▁МНОГОМУ	-11.6819
ИВАЮТ	-11.6822
▁ШАН	-11.6825
▁МОРСК	-11.6828
▁ГАРАНТИРУЮ	-11.6829
▁СТРА	-11.6834
▁ПОЧТЕ	-11.6837
ЗАБОТИТСЯ	-11.6838
ИРАТЬ	-11.6838
▁ЛИЧНОСТНО	-11.6838
▁КЛИНИЧЕСК	-11.6843
▁СОВПАДА	-11.6846
РЕЛ	-11.6848
▁ЭМОЦИОНАЛЬНЫМ	-11.6849
РИВ	-11.685
▁ОТКРОВЕННЫ	-11.685
▁КРУГЛО	-11.6854
▁МИЛО	-11.686
▁ПРОДЛЕВАЮТ	-11.686
▁МОСКОВСК	-11.6864
▁НОСИТЕЛЯ	-11.6865
▁ИЗВЕСТ	-11.6871
▁ВЗРОСЛЕ	-11.6873
▁СОЖ	-11.6879
▁МОЗГОВ	-11.6881
▁ПОРОЖДАЕТ	-11.6881
▁УРБАН	-11.6889
▁ВОДО	-11.6889
▁ПАПК	-11.6893
▁МОТОР	-11.6893
▁СУДИТЬ	-11.6894
▁ГЕНИАЛЬНО	-11.6896
▁ПОБЕДИЛ	-11.6897
▁НАПИСАНИ	-11.6909
▁ОКРУЖЕНИ	-11.6911
▁МУЗЕЙНО	-11.6918
ЬТЕСЬ	-11.6931
▁САДА	-11.6936
▁ОТРАЖА	-11.6937
▁УНИВЕРСАЛЬНЫ	-11.6938
ЮМЕ	-11.694
▁ЭЛЕКТР	-11.6941
▁ЗАРАЖА	-11.6946
▁ЗАПУСТИЛА	-11.6947
ИВАТЬ	-11.6951
▁КРЕПК	-11.6953
▁ПОПУЛЯРН	-11.6967
▁ОСУЩЕСТВЛЯ	-11.6969
▁ЗОНЕ	-11.6979
▁УЧАСТНИКАМ	-11.6979
▁КОУЧ	-11.6986
ДЕЛИЛИ	-11.6997
▁ЗИМ	-11.7
▁СОБРА	-11.7003
▁ОБЛЕГЧ	-11.7004
ЩУ	-11.7005
ДОК	-11.7012
▁ПРОБУЮ	-11.7017
СТРОЕНЫ	-11.7024
▁СЧАСТЛИВЫЙ	-11.7031
▁ПОДДЕРЖИВА	-11.7032
▁ЗАЙМ	-11.7036
▁МЫСЛИМ	-11.7039
▁ТРАДИЦИОНН	-11.7046
▁ВЫКЛАДЫВАЛ	-11.7047
УЧАЕТСЯ	-11.7058
▁ФОРМИРУ	-11.7059
ПОДОБН	-11.7069
▁МОДЕЛЬНЫ	-11.7069
ТАМИ	-11.7072
▁НЕМЦ	-11.7072
ВЕДЕНИЮ	-11.7076
▁ВОЛНУ	-11.7082
▁ОТПРАВЛЯЮТ	-11.7087
ПРЕДСКАЗЫВАТЬ	-11.7087
ФАН	-11.7089
▁ОБЪЕДИНЯЮТ	-11.7098
КРЫВАТЬ	-11.7103
СКОВ	-11.7112
▁РАЗЛИЧН	-11.7124
▁ПОДПИСАН	-11.7125
▁НЕДОСТАТО	-11.7125
▁ОСНОВЫВАЕТ	-11.7129
▁НАЗЫВАЕМО	-11.7134
▁ЛЮБ	-11.7149
▁ВСЕМИРН	-11.7152
▁ДОМАШНЕМ	-11.7154
▁ДИА	-11.7157
▁ФРАНЦУЗСКО	-11.7157
▁ХОСПИСА	-11.7161
▁ФР	-11.717
ШКОЛЬНИКОВ	-11.7171
ТАЛИЮ	-11.7172
▁УПР	-11.7179
▁ПОЛУЧЕННО	-11.7181
▁МЕЧТАМ	-11.7186
▁НИКОЛА	-11.7187
▁ЖЕНОЙ	-11.7193
▁КОРОЛЕВСКО	-11.7195
▁ВДОХН	-11.7198
ДВА	-11.7202
▁ЮГ	-11.7209
▁ПЕРЕВАРИ	-11.7212
▁КОНТРАГЕНТА	-11.7227
▁ОФИЦИАЛЬН	-11.7238
МНОГОМНОГО	-11.7239
▁БАНАЛЬН	-11.7244
▁ИЗОБРЕТА	-11.7248
▁ВЕРХН	-11.725
▁ПУСТИТЬ	-11.7251
▁УСЛОВИЯМ	-11.7258
МЕНЯЛИСЬ	-11.7259
▁ГЕРО	-11.726
▁ЧЕЛОВЕЧ	-11.7262
▁ОБРАЩАЛ	-11.7267
▁ВЕЗТ	-11.727
▁РАССТРОИЛА	-11.7276
▁ЗАХОДИ	-11.7276
▁УЯЗВИМ	-11.7278
▁КВАНТОВО	-11.7281
ФОРД	-11.7282
▁СТАБИЛЬНО	-11.7295
РИСОВ	-11.7296
▁ХОРЕ	-11.7303
ТИЧНЫЙ	-11.7306
▁ПОДБИРА	-11.7314
БРАТЬСЯ	-11.7318
ВОДИЛ	-11.7321
▁ЗАКОНЧ	-11.7322
УШКУ	-11.7326
▁УБЕГА	-11.7328
▁РЕМЕСЛ	-11.7336
▁ВКЛЮЧАЮТ	-11.7342
▁НАДЖН	-11.7342
▁ПОЛАГА	-11.735
▁НАДЖНОСТ	-11.7358
ШИЙ	-11.7362
▁ПОТРЯСАЮЩИМ	-11.7364
КАЗЫВАЛИ	-11.7366
АРЬ	-11.7371
▁ПРИВЫЧНЫМ	-11.7376
КИДО	-11.7381
▁ФОРМАТЕ	-11.7382
▁ВРЕМЕННЫМ	-11.7384
ЧНОЕ	-11.7388
▁ДОБРОМ	-11.739
▁ДАЛЬНЕЙШЕ	-11.739
▁ПОСЛЕДНЕМ	-11.7391
ГРАФ	-11.7393
ЗНАЧАТ	-11.7398
ДНЯ	-11.7401
▁СТОЙК	-11.7404
▁ПРИНИМАЮ	-11.7413
▁ПРИКЛАДН	-11.7416
▁ПОДРУЖИ	-11.7428
▁РУЧКА	-11.7441
▁ВСТРЕЧАЕТЕ	-11.7454
▁ЧУТКОСТ	-11.747
▁КОПИЛ	-11.7477
▁БАЗОВО	-11.7477
▁АНДР	-11.7481
▁МОБИЛЬН	-11.7482
▁СТАВИ	-11.7504
▁ЗАПОМНИЛ	-11.7506
▁ГОСУДАРСТВЕННОМ	-11.7512
ЖНУЮ	-11.7518
▁БУКВА	-11.7522
АЛЬНЫЙ	-11.7523
▁ПОСТОЯНН	-11.7524
▁ПОЙД	-11.7528
СИЯ	-11.7529
▁СКАЧ	-11.7531
▁УСТРОИЛ	-11.7532
▁ПРОДЛИЛ	-11.7533
▁ОСТАВШ	-11.7535
▁УСПОКОИЛ	-11.7538
▁ВЫРУЧ	-11.7538
▁ДОКУМЕНТА	-11.7545
▁ВКЛЮЧЕН	-11.7552
▁НАБЛЮДАЛА	-11.7552
▁АПТЕК	-11.7558
ПРЫГНУТЬ	-11.7561
▁СОЛН	-11.7563
▁ВОВЛЕЧЕН	-11.7568
ВС	-11.757
▁РОССИЙСК	-11.7575
▁БЕСКОНЕЧНА	-11.7585
▁ТРУС	-11.7598
▁СВЯЩЕНН	-11.76
▁ОБРАЗАМ	-11.7602
ГЛЯД	-11.7602
АННЫХ	-11.7609
ЬНЫЕ	-11.7609
▁ПОЛОЖИ	-11.7614
ЖИМАЕТ	-11.7619
▁АНИМАЦИОНН	-11.7623
ОЙДУТ	-11.7625
ГРАН	-11.7626
ЧЕСКОЕ	-11.7627
▁ПАРИЖ	-11.7629
ХОДИЛИ	-11.7629
▁МОЩН	-11.7634
ЛИК	-11.7635
▁ПРАКТИК	-11.7638
▁КОММЕРЧЕСК	-11.7641
▁ЗДАНИ	-11.7648
СТАВЛЯЕТ	-11.7648
▁ТЕРПИ	-11.7648
▁СПОРТИВН	-11.7649
▁ВЛАСТ	-11.7653
▁БОЛЕЕТ	-11.7655
▁СТЕСНЯ	-11.7658
▁ЭТАЖ	-11.766
▁РЕШИТЕ	-11.7661
▁ЖИР	-11.7661
▁УЕЗЖА	-11.7662
▁ЗАРАБОТ	-11.767
▁БЫСТР	-11.7672
▁МЯГКИ	-11.7676
▁КАМ	-11.7678
▁ГРЯЗНЫ	-11.7679
ЛЕНЫ	-11.7693
▁РАДОСТН	-11.7705
НСКОЙ	-11.7715
▁КОМНАТ	-11.7717
▁КАЗА	-11.7718
▁СОТРУДНИКА	-11.7721
▁БЕГАЛ	-11.7722
▁КАТ	-11.7724
▁НЕСЧАСТНЫМ	-11.7726
▁ПОВЫШЕННО	-11.7726
▁ДЕЙСТВИ	-11.7729
▁ПОКОРИ	-11.7738
ПЛЮ	-11.7739
ТАЛИ	-11.7739
ГАТ	-11.7739
▁ГЕННО	-11.7741
▁РАЗРАБОТЧИК	-11.7746
▁ВОРОТ	-11.7747
▁СОМНЕНИ	-11.7749
▁НАСТАЛ	-11.775
▁ОПЕРАЦИОНН	-11.775
ШЕНН	-11.777
▁СТИРА	-11.7776
▁ИНОСТРАНН	-11.7781
БИРАЛА	-11.7788
ЫВАЕТСЯ	-11.7792
▁СЕДО	-11.7799
ЫВАТЬ	-11.7802
▁ГРИБ	-11.781
▁ПРОИЗВЕДЕНИ	-11.7811
▁МУХ	-11.7815
▁СМЕШН	-11.7833
▁СУБЪЕКТИВНО	-11.7842
▁ДОНОР	-11.7844
▁ГОСТЯ	-11.7851
▁МНЕНИЯМ	-11.7852
ТЕЛЬНЫЕ	-11.7853
▁МЛАДЕНЦ	-11.7859
▁ЦИВИЛИЗАЦИ	-11.7859
▁ИДЕОЛОГИ	-11.7862
▁БЛАГОРОДНО	-11.7862
▁ХРИСТИАН	-11.7864
УБИ	-11.7871
▁СТАТИЧНО	-11.7876
▁СКРИП	-11.7878
КЛЕИЛ	-11.7882
▁ВОССТАНАВЛИВА	-11.7891
▁РАЗРУШЕН	-11.7891
▁ВЫДА	-11.7893
▁ОЛИМПИЙСК	-11.7894
▁КОНКУР	-11.7895
▁СОБЕР	-11.7895
▁ПОЗОР	-11.7895
ЛЕНЬ	-11.7896
▁СМЕЛ	-11.7898
▁ПОЖАРИ	-11.7903
▁ПЕРЕК	-11.7905
▁КЛЕТЧАТ	-11.7909
▁ИСПОЛНИТЕЛЬ	-11.7909
ИРУЮ	-11.7911
ОБРАЗИТЬ	-11.7919
▁АКТРА	-11.792
▁УБЕЖДА	-11.7921
ДИТ	-11.7932
▁ПОЛОЖИТЕЛЬН	-11.7932
▁АСТР	-11.7933
▁НЕМЕЦК	-11.7935
▁ОДИННАДЦАТ	-11.7942
СТАНЕШЬ	-11.7943
▁ДОЖД	-11.7949
▁ВЫЗВАЛ	-11.7952
▁УВОЛИЛ	-11.7954
▁ПОКУПА	-11.7957
▁НАПРЯЖ	-11.7958
▁ЖАЖД	-11.7961
▁ПОКОЛЕНИ	-11.7974
▁БЕЛКА	-11.7977
▁СТИЛ	-11.7985
▁МЛАДЕНЦА	-11.7985
ПОРУ	-11.7985
▁ПОКУПАТЕЛЬ	-11.7987
▁ТАНЦУ	-11.7988
▁РАЗВЛЕКАТЬ	-11.7993
ПЕВ	-11.7996
НУЛИСЬ	-11.7997
НУТ	-11.7998
ПИСАНИЕ	-11.8
▁ПОТРАТИ	-11.8006
▁КОНЬ	-11.8006
▁ВЫПОЛНИ	-11.8007
▁ГЛ	-11.8009
▁ТОРЖЕСТВ	-11.8011
▁АМЕРИК	-11.8014
▁ЗО	-11.8017
▁СТРОИЛ	-11.8018
▁ГРУПП	-11.8018
▁СТАНЬ	-11.802
ПРОСТО	-11.8048
▁ЛАП	-11.8051
▁ОПЛАТ	-11.8058
ОБЫЧАЙ	-11.8062
ЗАКОННО	-11.8065
▁ДЕШВ	-11.8067
▁ПРОСТРАНСТВ	-11.8068
▁ПРЕДОСТАВЛЯ	-11.8077
СТАВИЛ	-11.8077
▁ВОСПРИНИМАЛИ	-11.8079
ЮЛЬ	-11.8083
▁ХРАН	-11.8085
▁КАПСУЛ	-11.8085
▁ПРОВОДЯ	-11.8087
▁ВОСПРОИЗВОДИ	-11.8089
▁ПОКУПК	-11.8089
СМОТРЕТЬ	-11.8089
ТЯЖ	-11.8091
▁ВСТРЕЧАЛИ	-11.8091
▁ПРИМЕНИ	-11.8092
ПРАВЛЯЛ	-11.8095
▁ОБЕЗ	-11.8095
▁ПРЕПОДАВАТЕЛ	-11.8097
▁ОПРО	-11.8101
▁ЗАМЕЧАЮ	-11.8103
▁ПЕРЕЛОМ	-11.8105
▁ПОЛУЧАТ	-11.8106
ЗЫВАТЬ	-11.8108
▁ЛЕЧИ	-11.8108
▁РАДОСТНЫ	-11.8109
ЕЗДНО	-11.811
▁ЗАПИСЫВАЛ	-11.8112
▁УЧИЛА	-11.8112
КЛЮЧИТЬСЯ	-11.812
▁ПРОПИСАН	-11.812
ГОВОРИТЬ	-11.8122
▁ПОЗАБОТИ	-11.8123
▁ПЕРЕС	-11.8126
▁ПОДПИСЫВА	-11.8128
▁БОЛЬНИЦ	-11.8131
▁УРОКА	-11.8138
▁ОПИСЫВАЛ	-11.8142
▁СИСТЕМНО	-11.815
▁ОСЯЗАЕМ	-11.8151
▁МОБИЛЬНЫМ	-11.8155
ПРАВО	-11.8155
РАЗРУШАТЬ	-11.8156
▁ЭМОЦИ	-11.8157
РАБОТАЛИ	-11.8162
▁МУЛЬТИ	-11.8166
ЛИНГ	-11.8171
▁РЕЗУЛЬТАТАМ	-11.8171
▁РАСПИСАН	-11.8173
▁НАЗВАН	-11.8173
ФРИК	-11.8173
▁ПРЕБЫВА	-11.8174
▁СОДЕРЖА	-11.8181
▁ВОСТОРГ	-11.8182
▁ПРОИСХОДЯЩЕ	-11.8182
▁ПЛОСК	-11.8183
▁БОБР	-11.8185
ЭК	-11.8187
▁БЛАГОПОЛУЧИ	-11.8187
РОП	-11.8192
▁ОТКРЫТИ	-11.8194
▁НАЗВАНИ	-11.8194
▁УЗНАЕТ	-11.8197
▁КИШЕЧНИК	-11.8197
▁ПОДВОД	-11.8197
▁КОРОБОЧК	-11.8201
▁ПАРАЛЛЕЛ	-11.8203
▁НАТКНУЛ	-11.8203
▁НАСИЛЬНИК	-11.8204
▁ОБНАРУЖЕН	-11.8208
▁ПОСЧИТАЛ	-11.8208
▁ФИНАНСОВ	-11.8211
▁ТРАДИЦИ	-11.8212
▁ЗАХВАТ	-11.8213
ЭКСПЕРИМЕНТИРОВА	-11.8216
▁ЗАИНТЕРЕСОВАЛ	-11.8218
▁АРМИ	-11.8219
▁НАПИТ	-11.8222
▁ЗАКАЗЫ	-11.8223
ТОРОМ	-11.8226
▁ПРЕДСКАЗАНИ	-11.8227
ФТ	-11.8228
▁СДЕЛК	-11.823
▁СОБРАН	-11.8233
▁ГАРАНТИРОВА	-11.8234
▁ВОСПРИНИМАЛ	-11.8236
▁БЕЖИ	-11.8238
▁ФУНКЦИОНАЛЬН	-11.8238
▁КУЛЬ	-11.8239
УДОБНЫЕ	-11.8241
ПЛЫТЬ	-11.8242
▁КАРТОШК	-11.8248
▁ЛОДК	-11.8252
СТРОЙКИ	-11.8253
▁СУШ	-11.8254
ПЛАКАЛА	-11.8255
ФРАНЦИ	-11.8256
▁КИБЕРПРЕСТУП	-11.8256
▁ОБЩЕСТВЕННЫМ	-11.8257
ВОЛОНТР	-11.8257
СТАТИСТИЧЕСКИ	-11.8259
▁ОТСУТСТВ	-11.8259
ЕДИНСТВЕНН	-11.826
ДЕФИЦИТ	-11.8262
ЧЛЕН	-11.8263
СЛЕДСТВИЕ	-11.8263
▁БЫВШ	-11.8264
СООБЩЕСТВА	-11.8264
ПЕЧАТИ	-11.8264
▁ПОСЫЛА	-11.8265
ЭСТОНСКИ	-11.8265
▁ЧЕЛОВЕЧЕ	-11.8265
СИЛЬНО	-11.8265
МЕДИА	-11.8265
КЛАСС	-11.8266
ДОНОС	-11.8266
ВСТРЕЧ	-11.8266
▁ЧЕТВЕР	-11.8266
▁СТРЕЛЯ	-11.8266
ВИДЕО	-11.8267
ВШИМ	-11.8267
ВИРУС	-11.8268
ОБРАЗОВАНИЕ	-11.8268
КОТОРАЯ	-11.8268
РИСОВАТЬ	-11.8269
БЕРУТ	-11.8271
▁ТОЛОК	-11.8271
ИЗИРОВАН	-11.8274
▁МИКРОБИОТ	-11.8275
ДВИНУТЬ	-11.8276
▁ПРИЗНАЮ	-11.8279
КОТОРУЮ	-11.828
НИЦЕЙ	-11.8282
▁ПРОИСХОДИЛ	-11.8287
▁ПРЕДУПРЕ	-11.8291
▁ИТАЛЬЯНСКИ	-11.8291
▁ПОКАЗАТЕЛЬ	-11.8292
▁ВДОХ	-11.8295
ЦЕНТР	-11.8295
▁МИСС	-11.8297
▁КИЕВ	-11.8298
ЛЗ	-11.83
ТЕКЛО	-11.8301
▁ДЕВЧОН	-11.8302
▁ПРИСУТСТВИ	-11.8302
▁СОРЕВНОВАНИ	-11.8303
▁СОДЕРЖАНИ	-11.8303
▁ПРАЗДН	-11.8304
▁БРЕНДА	-11.8305
▁ЧАТИК	-11.8306
▁ТРОЙК	-11.8306
▁ГЕРМАН	-11.8307
▁ПРЕДНАЗНАЧЕН	-11.8307
▁ЧУВАК	-11.8307
▁БРЮК	-11.8307
▁ИНВЕСТИЦИ	-11.8308
▁КУШ	-11.8308
ДВИГАЕТСЯ	-11.8309
▁САМООЦЕНК	-11.8309
▁ХОЗЯИН	-11.8309
▁СОСЕДЯМ	-11.8312
▁ЦЕЛЯМ	-11.8313
▁ПОВЕРИЛ	-11.8313
▁ОПУХОЛ	-11.8314
▁МАРКЕТОЛОГ	-11.8314
▁ОГРАНИЧЕНИ	-11.8315
▁ДЕНЬГАМ	-11.8316
ОТВРАЩЕНИЕ	-11.8316
▁МАГ	-11.8317
▁КИСЛОРОД	-11.8318
▁УМНЫМ	-11.8319
ДНИМ	-11.832
▁ЦЕННОСТЯ	-11.832
▁МЫСЛЯ	-11.8322
ХОДИТСЯ	-11.8324
▁РЕАНИМАЦИ	-11.8324
▁РОДИТЕЛЯ	-11.8324
▁СУП	-11.8325
▁ПЕРЕНОСИТ	-11.8326
▁ИСПУГА	-11.8327
ТАЩИЛ	-11.8327
ПОКОЙН	-11.8331
▁УЗНАВАЛ	-11.8332
РОДИЛАСЬ	-11.8332
▁ЛЕЧИТ	-11.8332
МЕНЯТЬСЯ	-11.8333
ЧЕНИЕ	-11.8334
СКАКИВА	-11.8336
▁ЗНАЧИМЫ	-11.8336
▁БАСН	-11.8337
▁ПОЛЕЗН	-11.8339
ЖЕНИЕ	-11.834
▁ИСКЛЮЧЕНИЕ	-11.834
▁ПОЗВОН	-11.8341
▁КОЖУ	-11.8341
▁ДИНАР	-11.8344
▁МАГИСТРАТУР	-11.8347
▁РЕШЕН	-11.8347
ИСТОМ	-11.8348
▁ВОЗМОЖНОСТЯМ	-11.8349
▁СУМАСШЕДШИ	-11.8349
▁ЗАПРЕТ	-11.835
▁МРТВЫ	-11.8353
▁ПОЛНОЦЕНН	-11.8354
▁НАСЛЕДСТВ	-11.8354
▁ИМУЩЕСТВ	-11.8354
ИЧКИ	-11.8355
АШИ	-11.8356
▁НАВЕРХ	-11.8358
▁ЭЛЕМЕНТАРН	-11.8358
▁ГОНКА	-11.8359
ТЕРЯТЬ	-11.8359
▁НАПРАВЛЕНИЯ	-11.836
▁ИНЕР	-11.836
▁ПАНДУС	-11.8363
ПЕРС	-11.8363
▁КОМПЛИМЕНТ	-11.8363
▁МАСТЕРКЛАСС	-11.8364
▁КРЕДИТ	-11.8365
▁СООТВЕТСТВИ	-11.8365
▁РЕАЛЬНЫМ	-11.8365
▁СОВПАДЕНИ	-11.8365
▁СТАТУ	-11.8366
▁АЛКОГОЛ	-11.8366
▁РЕАБИЛИТАЦИ	-11.8366
▁ТРАГЕДИ	-11.8368
УЧИТСЯ	-11.837
▁ВОССТАНОВИ	-11.8372
▁ПРЕРВ	-11.8373
▁ТИПОГРАФИ	-11.8374
▁ПРЕДПОЛОЖЕНИ	-11.8375
▁ОБУЧАТЬ	-11.8377
▁ОТСТАИВА	-11.8377
▁СОСЕДНИ	-11.8378
ПОНИМАНИЕ	-11.8378
ЧАЛСЯ	-11.8378
▁ЛЮД	-11.8379
▁КОНСУЛЬТАНТ	-11.838
▁ПРОТОТИП	-11.8381
НАЛОГОПЛАТЕЛЬЩИК	-11.8382
▁ТРЕБОВАНИ	-11.8382
▁СВОЙСТВЕНН	-11.8383
▁ПЕРЕВОДИТ	-11.8383
▁КРЫШ	-11.8384
▁АНТЕНН	-11.8384
▁ПОКЕМОН	-11.8384
▁НЕРАЗ	-11.8384
▁ТРХМЕРН	-11.8385
▁УЛУЧШАЕТ	-11.8386
▁ВУЗА	-11.8386
КРАСНОГО	-11.8386
▁УВЛЕКА	-11.8388
ГУМАН	-11.8388
▁ХИМИ	-11.8389
▁АНОНС	-11.8389
▁УМРУ	-11.8389
▁БРИТАНСК	-11.839
▁ГРУДЬ	-11.8392
ДОХНУТЬ	-11.8393
▁НАГЛЯДН	-11.8393
▁РЕАЛИСТ	-11.8393
▁СИМПАТИЧН	-11.8393
▁СТЕРЖН	-11.8394
▁МАТЕРИАЛЬН	-11.8395
▁ПРОТЕСТАНТ	-11.8396
▁КВАРТИЛ	-11.8396
▁ТЕРАПЕВТ	-11.8397
НАРУЖИ	-11.8397
▁ПОСТРАДАВШ	-11.8398
ОТРАЗИ	-11.8398
▁УЛУЧШИТ	-11.8398
ИСПЫТА	-11.8398
▁ДЫШАТ	-11.8399
▁ОБЪЯСНИТ	-11.8399
▁КРИЧАТ	-11.8399
▁ФИНАЛ	-11.8399
▁ПОВЫШАЕТ	-11.8399
▁ПОДНЯТ	-11.84
▁КОНЦЕНТРИРУ	-11.84
▁РАСШИРЕН	-11.8401
▁ЛОВИТ	-11.8401
▁УВЕЛИЧЕН	-11.8401
▁ФЛО	-11.8402
▁ГРУСТНЫ	-11.8403
▁ЭСКИЗ	-11.8403
▁РИТУАЛ	-11.8403
▁ВОЛОНТРСКО	-11.8404
▁РАСТВОР	-11.8404
▁ВЕРУЮЩИ	-11.8404
▁ПРИХО	-11.8404
СЕРЕБР	-11.8405
РЕАГИРОВАЛ	-11.8405
▁ПЯТИДЕСЯТИ	-11.8405
СТВЕННО	-11.8405
ОДИТЕЛЕЙ	-11.8406
▁ОКТЯБР	-11.8406
▁КУПОН	-11.8406
▁ПРИСМОТР	-11.8406
▁КОНСУЛ	-11.8406
▁ПОДСОЕДИНЯЕ	-11.8406
КЦИОНИСТ	-11.8406
▁ГАРРИ	-11.8406
▁ГЕОРГ	-11.8406
▁ГЛАМУРН	-11.8406
▁ДЖУНГЛ	-11.8406
▁НЕПОЛНОЦЕНН	-11.8406
▁ОГЛЯНУ	-11.8406
▁ПРОСВЕЩНН	-11.8406
▁ЭКВИВАЛЕНТ	-11.8406
ВОДОЛАЗО	-11.8406
ДОВОЛЕН	-11.8406
ОАМЕРИКАНСКИ	-11.8406
ПРОНИКНОВЕНИ	-11.8406
ЯПРЕПРОВОЖДЕНИ	-11.8406
▁АВГУСТ	-11.8406
▁АЗЕРБАЙДЖАН	-11.8406
▁АКЦИОНЕР	-11.8406
▁АЛЛЕРГИ	-11.8406
▁АЛФАВИТ	-11.8406
▁АНАЛИТИЧЕСК	-11.8406
▁АНГЛОСАКС	-11.8406
▁АНТИБИОТИКОВ	-11.8406
▁АППЕТИТ	-11.8406
▁АРОНОВИЧ	-11.8406
▁АЭРОБУС	-11.8406
▁БЕСПОМОЩНЫ	-11.8406
▁БЕСПРИЧИННАЯ	-11.8406
▁БУМАЖЕК	-11.8406
▁ВЕБСАЙТ	-11.8406
▁ВЕРТОЛТ	-11.8406
▁ВИОЛОНЧЕЛИ	-11.8406
▁ВОЕДИНО	-11.8406
▁ВОЗГЛАВЛЯ	-11.8406
▁ВОРОШИЛОВ	-11.8406
▁ВОСПАЛИТЕЛЬНЫ	-11.8406
▁ВСТУПИТЕЛЬНЫ	-11.8406
▁ВЫДУМКА	-11.8406
▁ВЫНОСЛИВ	-11.8406
▁ВЫСТРОЕН	-11.8406
▁ГАЛСТУК	-11.8406
▁ГАНГРЕН	-11.8406
▁ГАРВАРД	-11.8406
▁ГЕРМЕТИЧН	-11.8406
▁ГЕРПЕС	-11.8406
▁ГЛОБАЛИЗАЦИ	-11.8406
▁ГЛЯНЦЕВЫ	-11.8406
▁ГРАВИТАЦИ	-11.8406
▁ДЕАКТИВИРОВАН	-11.8406
▁ДЕКРЕТ	-11.8406
▁ДЕМОКРАТИИ	-11.8406
▁ДЕПУТАТ	-11.8406
▁ДЕСЯТИЛЕТИЙ	-11.8406
▁ДЖИНСА	-11.8406
▁ДЖОРДЖ	-11.8406
▁ДИВИДЕНДЫ	-11.8406
▁ДИОКСИД	-11.8406
▁ДИСКОМФОРТ	-11.8406
▁ДИСТАНЦИИ	-11.8406
▁ДОЛГОЖИТЕЛЯМИ	-11.8406
▁ДОФАМИН	-11.8406
▁ДЦП	-11.8406
▁ДЬЯВОЛ	-11.8406
▁ЗАМОЛЧАЛ	-11.8406
▁ЗАХОТЯТ	-11.8406
▁ИЗБАВЛЯ	-11.8406
▁ИЗМЕРЕНИЙ	-11.8406
▁ИМПАКТ	-11.8406
▁ИНВЕСТОР	-11.8406
▁ИНКЛЮЗИЯ	-11.8406
▁ИНТЕРНЕТСЕРВИС	-11.8406
▁ИНФОРМИРОВАН	-11.8406
▁КВАЛИФИКАЦИИ	-11.8406
▁КЛАССИФИКАЦИИ	-11.8406
▁КОНВЕРСИ	-11.8406
▁КОНСЕРВАТОРИ	-11.8406
▁КОНСОРЦИУМ	-11.8406
▁КОНСУЛЬТИРУ	-11.8406
▁КОРАБЛЬ	-11.8406
▁КРАУДФАНДИНГ	-11.8406
▁КРУЖОК	-11.8406
▁КУМБЕЛЬ	-11.8406
▁КУНГФУ	-11.8406
▁ЛАДОШК	-11.8406
▁ЛАЗЕЙК	-11.8406
▁МАКИЯЖ	-11.8406
▁МАМАРДАШВИЛИ	-11.8406
▁МАНИФЕСТ	-11.8406
▁МЕДВЕД	-11.8406
▁МЕЛОДИК	-11.8406
▁МИКРОКЛИМАТ	-11.8406
▁МИЛЛИМЕТР	-11.8406
▁МУЗЕЮ	-11.8406
▁МУЛЬГИКАПСАД	-11.8406
▁НАИЗУСТЬ	-11.8406
▁НАНОСОДЕРЖАЩИ	-11.8406
▁НЕВЕРОЯТНАЯ	-11.8406
▁НЕВОЗМОЖЕН	-11.8406
▁НЕЗАМЕТНЫ	-11.8406
▁НЕЙТРАЛЬНО	-11.8406
▁НЕФОРМАТ	-11.8406
▁НЕЧИТАЕМО	-11.8406
▁НОСИТЕЛЕМ	-11.8406
▁ОБЕЩАНИЯ	-11.8406
▁ОБИТАНИЯ	-11.8406
▁ОБУЧАЕМ	-11.8406
▁ОБЪЯВИЛ	-11.8406
▁ОГЛЯНИ	-11.8406
▁ОГУЛЬНО	-11.8406
▁ОДНОЗНАЧНЫ	-11.8406
▁ОЗАБОЧЕН	-11.8406
▁ОКРАИН	-11.8406
▁ОЛЕВИСТЕ	-11.8406
▁ОПТИМАЛЬНО	-11.8406
▁ОСУЖДЕНИЯ	-11.8406
▁ПЕДИАТР	-11.8406
▁ПЕРЕВЕЗ	-11.8406
▁ПЕСОЧНИЦЕ	-11.8406
▁ПИАР	-11.8406
▁ПИЩЕВАРЕНИ	-11.8406
▁ПОБЕДИТЕЛЕЙ	-11.8406
▁ПОДВЕРЖЕН	-11.8406
▁ПОЛИЦЕЙСКИ	-11.8406
▁ПОЛОТЕНЦЕ	-11.8406
▁ПОНАСЛЫШКЕ	-11.8406
▁ПОПОЗЖЕ	-11.8406
▁ПОСВЯЩННЫ	-11.8406
▁ПОСЕРЕДИНЕ	-11.8406
▁ПОСОВЕТОВАЛ	-11.8406
▁ПОСРЕДСТВОМ	-11.8406
▁ПОСТУПОК	-11.8406
▁ПОТРЕБИТЕЛЕЙ	-11.8406
▁ПРЕДРАССУДОК	-11.8406
▁ПРИВИЛЕГИ	-11.8406
▁ПРИНАДЛЕЖНОСТ	-11.8406
▁ПРОДУКЦИ	-11.8406
▁ПРОИЗВЕДН	-11.8406
▁ПРООБРАЗ	-11.8406
▁ПРЯМОУГОЛЬНИК	-11.8406
▁ПСИХИЧЕСКИ	-11.8406
▁ПУБЛИКИ	-11.8406
▁РАСПОРЯД	-11.8406
▁РАСПОРЯЖЕНИ	-11.8406
▁РАСЦВЕТ	-11.8406
▁РЕАГИРУЮТ	-11.8406
▁РЕГУЛИРУЮТ	-11.8406
▁РЕЛЬЕФ	-11.8406
▁РЕСНИЦЫ	-11.8406
▁РЕЦЕНЗИ	-11.8406
▁РОЖДЕНИИ	-11.8406
▁РОЖДЕСТВО	-11.8406
▁САМОУВЕРЕННОСТЬ	-11.8406
▁СЕКТАНТА	-11.8406
▁СИМУЛЯЦИ	-11.8406
▁СОБЧАК	-11.8406
▁СООБЩАЛ	-11.8406
▁СООБЩИЛ	-11.8406
▁СПРАВИШЬСЯ	-11.8406
▁СТРЕМЛЮСЬ	-11.8406
▁СТЮАРДЕСС	-11.8406
▁СУДЬБУ	-11.8406
▁СУЖАЕТСЯ	-11.8406
▁СУРРОГАТ	-11.8406
▁СУЩНОСТИ	-11.8406
▁СЪЕДАЕТ	-11.8406
▁СЪЕЛ	-11.8406
▁ТАБЛИЦЫ	-11.8406
▁ТАБЛИЧК	-11.8406
▁ТАИЛАНД	-11.8406
▁ТАРГЕТ	-11.8406
▁ТАШКЕНТ	-11.8406
▁ТЕЛЕКАНАЛ	-11.8406
▁ТЕЛЕПРОГРАММ	-11.8406
▁ТЕМПЕРАМЕНТ	-11.8406
▁ТИБЕТ	-11.8406
▁ТРЕНАЖРН	-11.8406
▁ТУРНИР	-11.8406
▁ТУРФИРМ	-11.8406
▁ТЩЕСЛАВИ	-11.8406
▁УБОРЩИЦ	-11.8406
▁УВАЖИТЕЛЬНО	-11.8406
▁УВЛЕЧННЫ	-11.8406
▁УДОСТОВЕРЕНИЕ	-11.8406
▁УЗНАМ	-11.8406
▁УПАСТЬ	-11.8406
▁УПОРЯДОЧЕНИ	-11.8406
▁УРАВНОВЕ	-11.8406
▁УТВЕРЖДАЛ	-11.8406
▁ФЕДЕРАЛЬНО	-11.8406
▁ФИНАНСЫ	-11.8406
▁ФОТОАРХИВ	-11.8406
▁ФРЭНК	-11.8406
▁ФУНКЦИЙ	-11.8406
▁ЦЕЛЕПОЛАГАНИ	-11.8406
▁ЦЕРЕБРАЛЬНЫ	-11.8406
▁ЧЕРНОЗОБИК	-11.8406
▁ЧРЕЗМЕРНО	-11.8406
▁ЭКВАДОР	-11.8406
▁ЭКСКУРСОВОД	-11.8406
▁ЭКСТРИМ	-11.8406
▁ЭПИГЕНЕТИЧЕСК	-11.8406
▁ЭПИДЕМИ	-11.8406
КОМНАТН	-11.8406
ТРЕПЕТ	-11.8406
▁АПЕЛЬСИН	-11.8406
▁АРЕНДУ	-11.8406
▁БИБЛЕЙСК	-11.8406
▁ВАЛОКОРДИН	-11.8406
▁ДЕВАЙС	-11.8406
▁ДЕКАРТ	-11.8406
▁ДИСКОНТН	-11.8406
▁ДОДУМАЛСЯ	-11.8406
▁ЗЛОКАЧЕСТВЕННЫ	-11.8406
▁ИЗВИНЕНИЯ	-11.8406
▁ИНСУЛЬТ	-11.8406
▁ИНТОНАЦИ	-11.8406
▁ИНЪЕКЦИ	-11.8406
▁ИСПОРТИЛИ	-11.8406
▁ИСЧЕРПАН	-11.8406
▁КЕПЛЕР	-11.8406
▁КЛАДБИЩ	-11.8406
▁КОВЫРЯ	-11.8406
▁КРОВОТЕЧЕНИ	-11.8406
▁ЛИНГВИСТ	-11.8406
▁НАМЕРЕНИЯМИ	-11.8406
▁НЕОДНОЗНАЧН	-11.8406
▁НЕОТЪЕМЛЕМ	-11.8406
▁ОБОЛТУС	-11.8406
▁ОТКЛОНЯ	-11.8406
▁ПЕЧАЛИ	-11.8406
▁ПРЕУСПЕ	-11.8406
▁ПРОСМАТРИВА	-11.8406
▁ПРОЧУВСТВОВА	-11.8406
▁ПСИХИАТР	-11.8406
▁СВЕРНУЛИ	-11.8406
▁СИМФОНИ	-11.8406
▁СОМНИТЕЛЬНЫ	-11.8406
▁СТАБИЛИЗИРУ	-11.8406
▁УДЛИНЯ	-11.8406
▁УПЛЫВА	-11.8406
▁УПОТРЕБЛЕНИ	-11.8406
▁ШЕРСТИ	-11.8406
▁ЭКСПРЕССИ	-11.8406
▁ВЫЧИСЛИТЬ	-11.8406
▁ДОБИЛАСЬ	-11.8406
▁ЗАНАВЕС	-11.8406
▁КАПИТАН	-11.8406
▁ПОСРЕДСТВЕНН	-11.8406
▁ПУБЛИКОВА	-11.8406
▁РАСТВОРЯЮТСЯ	-11.8406
▁СПРОЕЦИРОВА	-11.8406
▁СРЕДИЗЕМНО	-11.8406
▁ТРАНСЛИРУЕТ	-11.8406
▁ХРОНИК	-11.8406
▁БАВАРИ	-11.8406
▁НАКЛЕЙК	-11.8406
▁ДВИЖУТСЯ	-11.8406
▁ЖЮРИ	-11.8406
▁НЕПРИВЫЧН	-11.8406
▁ОРГАНИЗОВЫВАЛ	-11.8406
▁ОТДАЛНН	-11.8406
▁ПОДСАЖИВА	-11.8406
▁ПОПУЛЯЦИИ	-11.8406
▁ПОСАЖЕН	-11.8406
▁РЕЗИНОВ	-11.8406
▁СИСТЕМАТИЧЕСКИ	-11.8406
▁УЗКУЮ	-11.8406
▁ФОНАРЩИК	-11.8406
▁ДОПОЛНЯТЬ	-11.8406
▁МОРЗЕ	-11.8406
▁ПРЕОБРАЗ	-11.8406
▁УСЕРД	-11.8406
▁ЭКСТРЕМИЗМ	-11.8406
▁ДИСТАНЦИЮ	-11.8406
▁ИИСУС	-11.8406
▁ИСЦЕЛ	-11.8406
▁СПОРТЗАЛ	-11.8406
▁ГУЛЯЮ	-11.8406
▁ИЗВЕРГАЕТСЯ	-11.8406
▁МИКРОУРОВНЕ	-11.8406
▁РОЗНИЧН	-11.8406
▁ИСТЕРИКИ	-11.8406
▁КОНСОЛ	-11.8406
▁ПАТТЕРН	-11.8406
▁СОТНЮ	-11.8406
▁ТОЧНЫМИ	-11.8406
▁ВОДОПРОВОД	-11.8406
▁ЖДШЬ	-11.8406
▁НЕСЧАСТЬЕ	-11.8406
▁ПЛАВУ	-11.8406
▁ПРОПИТАН	-11.8406
▁ВЫПЕЧК	-11.8406
▁ДУРОВ	-11.8406
▁ОКСИД	-11.8406
▁КУХОН	-11.8406
▁НАКОПЛЕННЫ	-11.8406
▁ПАРИКМАХЕРСКАЯ	-11.8406
▁ПРОБЕЖК	-11.8406
▁ПОДРОБНОСТЯ	-11.8406
ВОРИТЕЛЬ	-11.8406
ЛИМЕНТЫ	-11.8406
▁ДОПРОС	-11.8406
▁КОМИТЕТ	-11.8406
▁ПОКЛОННИКОВ	-11.8406
▁РАССУЖДЕНИ	-11.8406
▁РУССКОГОВОРЯЩ	-11.8406
▁ЗАБУДЕТ	-11.8406
▁НЕФТЯН	-11.8406
▁ПРОВОКАЦИ	-11.8406
▁КУРЧЕНКО	-11.8406
▁СПИРАЛИ	-11.8406
▁СТАРЕНИЮ	-11.8406
▁ТЕКСТИЛЬН	-11.8406
▁ЗАМЫКА	-11.8406
▁ОТВРТК	-11.8406
▁ДОГАДАЛИСЬ	-11.8406
▁ЗАТОПИЛ	-11.8406
▁ЗЕМЛЕДЕЛЬЦ	-11.8406
▁ПРОДАВЕЦ	-11.8406
▁СПРАВИМСЯ	-11.8406
▁РАССЧИТАН	-11.8406
ХАРАКТЕРИЗОВА	-11.8406
▁СЧЕТА	-11.8406
▁МАНЬЯК	-11.8406
▁СОТНЯ	-11.8406
▁УВЛЕКАТЕЛЬН	-11.8406
▁МЕЛЬНИЦ	-11.8406
▁ПЛЯЖ	-11.8406
▁ПРИГОТОВЛЕНИЯ	-11.8406
▁ТИШИНЕ	-11.8406
▁АНОНИМНОСТЬ	-11.8406
▁АРМЕНИ	-11.8406
▁ВЖИВУЮ	-11.8406
▁ОПРЕДЕЛИМ	-11.8406
▁ПОСТОЙТЕ	-11.8406
▁БЛИЖНЕМ	-11.8406
▁ВЕНЕДИКТОВ	-11.8406
▁КЛВО	-11.8406
▁ГРУЗОВИК	-11.8407
▁ДЖЕКСОН	-11.8407
▁СЕМЕСТР	-11.8407
▁ДЕМОКРАТИЧЕСКИ	-11.8407
▁ДЕТДОМ	-11.8407
▁ХОЛСТ	-11.8407
▁КОНСТРУКЦИЮ	-11.8407
▁СПРАВИЛСЯ	-11.8407
▁БАТАРЕ	-11.8407
▁КОМПОЗИЦИЮ	-11.8407
▁МЕДИТИРУЮ	-11.8407
▁НАКОПЛЕНИ	-11.8407
▁ХУДЕЮТ	-11.8407
▁МАКУШК	-11.8407
▁НЕЛОВКО	-11.8407
▁ПОПАВ	-11.8407
▁ВЕСЛАЯ	-11.8407
▁ИНТУИТИВНЫ	-11.8407
▁ИСЧЕЗНЕТ	-11.8407
▁ПАУТИН	-11.8407
▁ДОБРОКАЧЕСТВЕНН	-11.8407
▁БУДДИСТ	-11.8407
▁ГРАММАТИ	-11.8407
▁ПОКАЗЫВАЕМ	-11.8407
▁ОТВЕЧУ	-11.8407
▁СРЕДНЕВЕКОВЬЯ	-11.8407
▁ВЫРАЗИТЕЛЬНОСТИ	-11.8407
▁ДОЛГОЛЕТИ	-11.8407
ОПАРК	-11.8407
▁СПОСОБСТВОВА	-11.8407
ЫСОКОТЕХНОЛОГИЧН	-11.8407
▁КОРСЕТ	-11.8407
РСИТЕ	-11.8407
▁ЗАЦЕПИЛ	-11.8407
▁НЕГОДОВАНИ	-11.8407
▁НОВОСИБИРСК	-11.8407
▁РЕКОНСТРУКЦИ	-11.8407
▁ОБЛАСТЯХ	-11.8407
▁ПЕВИЦ	-11.8407
▁СЕРГЕЕВИЧ	-11.8407
▁ГРОМАДН	-11.8407
▁МИКРОФОН	-11.8407
▁ПОМНИЛ	-11.8407
▁СКИФ	-11.8407
▁ВЫРЕЗАЛ	-11.8407
▁ИЕРАРХИИ	-11.8407
▁КУМИР	-11.8407
▁САНТИМЕТР	-11.8407
▁ПРОТИВОПОСТАВ	-11.8407
▁УКРАШЕНИЯ	-11.8407
▁КАТЕНА	-11.8407
▁УБЕРИЗАЦИ	-11.8407
▁ИВАНОВИЧ	-11.8407
▁ОБУЧАЮЩЕ	-11.8407
▁ПЕНЗ	-11.8407
▁СКОТА	-11.8407
▁ЗАВАРИВА	-11.8407
▁АРАБИК	-11.8407
▁ВЫДЕЛЕН	-11.8407
▁НЕВСКОМ	-11.8407
▁УКАЗАТЕЛЬН	-11.8407
▁ЛГУТ	-11.8407
▁ДЕНЬГАХ	-11.8407
▁ТВОРЕНИЯ	-11.8407
▁ЖЕЛЕЗО	-11.8407
▁ПОЛУЧШЕ	-11.8407
▁ОСТАНЕТЕСЬ	-11.8407
▁ЗАВОЕВАНИЯ	-11.8407
▁ПРОРЫВ	-11.8407
▁СИНЯК	-11.8407
▁ПОИСКОВИКОВ	-11.8407
▁ДВЕРЦ	-11.8407
▁ПОНРАВИЛИСЬ	-11.8407
▁БИБЛИОТЕКАР	-11.8407
▁КОМПЛЕКСНЫ	-11.8407
▁ПОРОДИЛ	-11.8407
▁БРОШ	-11.8407
▁ГАММА	-11.8407
▁СЛИВ	-11.8407
▁ХОЗЯЕВ	-11.8407
КАЖЕМСЯ	-11.8407
▁СОРТИРОВК	-11.8407
▁ФОРМАЛЬНО	-11.8407
▁ИСТИНУ	-11.8407
▁ПОДСКАЖЕТ	-11.8407
▁ФУТБОЛИСТЫ	-11.8407
▁ПОТРЕНИРОВАТЬ	-11.8407
▁КАЛЛИГРАФИИ	-11.8407
▁КОЛОННЫ	-11.8407
▁КАРКАС	-11.8407
▁ПОЛИТОЛОГИИ	-11.8407
▁СПОСОБНОСТЕЙ	-11.8407
▁НАСОСИ	-11.8407
▁БАХОР	-11.8407
▁ТАНЦЕВАТЬ	-11.8407
▁ВРАЖД	-11.8407
▁МАКАРОН	-11.8407
▁РЕПЕТИТОР	-11.8407
▁ПОМПЕ	-11.8408
▁СЕЛДК	-11.8408
▁ЭЙНШТЕЙН	-11.8408
▁ОШИБАЕТСЯ	-11.8408
▁ПРОСТИТУЦИ	-11.8408
▁РЕАГИРОВАЛИ	-11.8408
[...]
